{
  "version": "1.0",
  "truncation": null,
  "padding": null,
  "added_tokens": [
    {
      "id": 0,
      "content": "<|endoftext|>",
      "single_word": false,
      "lstrip": false,
      "rstrip": false,
      "normalized": false,
      "special": true
    },
    {
      "id": 1,
      "content": "<|startoftext|>",
      "single_word": false,
      "lstrip": false,
      "rstrip": false,
      "normalized": false,
      "special": true
    },
    {
      "id": 2,
      "content": "<|pad|>",
      "single_word": false,
      "lstrip": false,
      "rstrip": false,
      "normalized": false,
      "special": true
    },
    {
      "id": 3,
      "content": "<|unk|>",
      "single_word": false,
      "lstrip": false,
      "rstrip": false,
      "normalized": false,
      "special": true
    },
    {
      "id": 4,
      "content": "<|mask|>",
      "single_word": false,
      "lstrip": false,
      "rstrip": false,
      "normalized": false,
      "special": true
    },
    {
      "id": 5,
      "content": "<|thou|>",
      "single_word": false,
      "lstrip": false,
      "rstrip": false,
      "normalized": false,
      "special": true
    },
    {
      "id": 6,
      "content": "<|thee|>",
      "single_word": false,
      "lstrip": false,
      "rstrip": false,
      "normalized": false,
      "special": true
    },
    {
      "id": 7,
      "content": "<|thy|>",
      "single_word": false,
      "lstrip": false,
      "rstrip": false,
      "normalized": false,
      "special": true
    },
    {
      "id": 8,
      "content": "<|thine|>",
      "single_word": false,
      "lstrip": false,
      "rstrip": false,
      "normalized": false,
      "special": true
    },
    {
      "id": 9,
      "content": "<|hast|>",
      "single_word": false,
      "lstrip": false,
      "rstrip": false,
      "normalized": false,
      "special": true
    },
    {
      "id": 10,
      "content": "<|hath|>",
      "single_word": false,
      "lstrip": false,
      "rstrip": false,
      "normalized": false,
      "special": true
    },
    {
      "id": 11,
      "content": "<|doth|>",
      "single_word": false,
      "lstrip": false,
      "rstrip": false,
      "normalized": false,
      "special": true
    },
    {
      "id": 12,
      "content": "<|dost|>",
      "single_word": false,
      "lstrip": false,
      "rstrip": false,
      "normalized": false,
      "special": true
    },
    {
      "id": 13,
      "content": "<|quoth|>",
      "single_word": false,
      "lstrip": false,
      "rstrip": false,
      "normalized": false,
      "special": true
    },
    {
      "id": 14,
      "content": "<|verily|>",
      "single_word": false,
      "lstrip": false,
      "rstrip": false,
      "normalized": false,
      "special": true
    },
    {
      "id": 15,
      "content": "<|indeed|>",
      "single_word": false,
      "lstrip": false,
      "rstrip": false,
      "normalized": false,
      "special": true
    },
    {
      "id": 16,
      "content": "<|forsooth|>",
      "single_word": false,
      "lstrip": false,
      "rstrip": false,
      "normalized": false,
      "special": true
    },
    {
      "id": 17,
      "content": "<|london|>",
      "single_word": false,
      "lstrip": false,
      "rstrip": false,
      "normalized": false,
      "special": true
    },
    {
      "id": 18,
      "content": "<|thames|>",
      "single_word": false,
      "lstrip": false,
      "rstrip": false,
      "normalized": false,
      "special": true
    },
    {
      "id": 19,
      "content": "<|westminster|>",
      "single_word": false,
      "lstrip": false,
      "rstrip": false,
      "normalized": false,
      "special": true
    },
    {
      "id": 20,
      "content": "<|tower|>",
      "single_word": false,
      "lstrip": false,
      "rstrip": false,
      "normalized": false,
      "special": true
    },
    {
      "id": 21,
      "content": "<|newgate|>",
      "single_word": false,
      "lstrip": false,
      "rstrip": false,
      "normalized": false,
      "special": true
    },
    {
      "id": 22,
      "content": "<|southwark|>",
      "single_word": false,
      "lstrip": false,
      "rstrip": false,
      "normalized": false,
      "special": true
    },
    {
      "id": 23,
      "content": "<|cheapside|>",
      "single_word": false,
      "lstrip": false,
      "rstrip": false,
      "normalized": false,
      "special": true
    },
    {
      "id": 24,
      "content": "<|tudor|>",
      "single_word": false,
      "lstrip": false,
      "rstrip": false,
      "normalized": false,
      "special": true
    },
    {
      "id": 25,
      "content": "<|stuart|>",
      "single_word": false,
      "lstrip": false,
      "rstrip": false,
      "normalized": false,
      "special": true
    },
    {
      "id": 26,
      "content": "<|georgian|>",
      "single_word": false,
      "lstrip": false,
      "rstrip": false,
      "normalized": false,
      "special": true
    },
    {
      "id": 27,
      "content": "<|regency|>",
      "single_word": false,
      "lstrip": false,
      "rstrip": false,
      "normalized": false,
      "special": true
    },
    {
      "id": 28,
      "content": "<|perchance|>",
      "single_word": false,
      "lstrip": false,
      "rstrip": false,
      "normalized": false,
      "special": true
    },
    {
      "id": 29,
      "content": "<|anon|>",
      "single_word": false,
      "lstrip": false,
      "rstrip": false,
      "normalized": false,
      "special": true
    },
    {
      "id": 30,
      "content": "<|ere|>",
      "single_word": false,
      "lstrip": false,
      "rstrip": false,
      "normalized": false,
      "special": true
    },
    {
      "id": 31,
      "content": "<|whilst|>",
      "single_word": false,
      "lstrip": false,
      "rstrip": false,
      "normalized": false,
      "special": true
    },
    {
      "id": 32,
      "content": "<|betwixt|>",
      "single_word": false,
      "lstrip": false,
      "rstrip": false,
      "normalized": false,
      "special": true
    },
    {
      "id": 33,
      "content": "<|amongst|>",
      "single_word": false,
      "lstrip": false,
      "rstrip": false,
      "normalized": false,
      "special": true
    },
    {
      "id": 34,
      "content": "<|prithee|>",
      "single_word": false,
      "lstrip": false,
      "rstrip": false,
      "normalized": false,
      "special": true
    },
    {
      "id": 35,
      "content": "<|pray|>",
      "single_word": false,
      "lstrip": false,
      "rstrip": false,
      "normalized": false,
      "special": true
    },
    {
      "id": 36,
      "content": "<|year|>",
      "single_word": false,
      "lstrip": false,
      "rstrip": false,
      "normalized": false,
      "special": true
    },
    {
      "id": 37,
      "content": "<|date|>",
      "single_word": false,
      "lstrip": false,
      "rstrip": false,
      "normalized": false,
      "special": true
    },
    {
      "id": 38,
      "content": "<|name|>",
      "single_word": false,
      "lstrip": false,
      "rstrip": false,
      "normalized": false,
      "special": true
    },
    {
      "id": 39,
      "content": "<|place|>",
      "single_word": false,
      "lstrip": false,
      "rstrip": false,
      "normalized": false,
      "special": true
    },
    {
      "id": 40,
      "content": "<|chapter|>",
      "single_word": false,
      "lstrip": false,
      "rstrip": false,
      "normalized": false,
      "special": true
    },
    {
      "id": 41,
      "content": "<|verse|>",
      "single_word": false,
      "lstrip": false,
      "rstrip": false,
      "normalized": false,
      "special": true
    },
    {
      "id": 42,
      "content": "<|quote|>",
      "single_word": false,
      "lstrip": false,
      "rstrip": false,
      "normalized": false,
      "special": true
    },
    {
      "id": 43,
      "content": "<|speech|>",
      "single_word": false,
      "lstrip": false,
      "rstrip": false,
      "normalized": false,
      "special": true
    }
  ],
  "normalizer": {
    "type": "Sequence",
    "normalizers": [
      {
        "type": "NFD"
      },
      {
        "type": "StripAccents"
      }
    ]
  },
  "pre_tokenizer": {
    "type": "Sequence",
    "pretokenizers": [
      {
        "type": "WhitespaceSplit"
      },
      {
        "type": "Punctuation",
        "behavior": "Isolated"
      }
    ]
  },
  "post_processor": {
    "type": "TemplateProcessing",
    "single": [
      {
        "SpecialToken": {
          "id": "<|startoftext|>",
          "type_id": 0
        }
      },
      {
        "Sequence": {
          "id": "A",
          "type_id": 0
        }
      },
      {
        "SpecialToken": {
          "id": "<|endoftext|>",
          "type_id": 0
        }
      }
    ],
    "pair": [
      {
        "Sequence": {
          "id": "A",
          "type_id": 0
        }
      },
      {
        "Sequence": {
          "id": "B",
          "type_id": 1
        }
      }
    ],
    "special_tokens": {
      "<|endoftext|>": {
        "id": "<|endoftext|>",
        "ids": [
          0
        ],
        "tokens": [
          "<|endoftext|>"
        ]
      },
      "<|startoftext|>": {
        "id": "<|startoftext|>",
        "ids": [
          1
        ],
        "tokens": [
          "<|startoftext|>"
        ]
      }
    }
  },
  "decoder": null,
  "model": {
    "type": "BPE",
    "dropout": null,
    "unk_token": null,
    "continuing_subword_prefix": "##",
    "end_of_word_suffix": null,
    "fuse_unk": false,
    "byte_fallback": false,
    "ignore_merges": false,
    "vocab": {
      "<|endoftext|>": 0,
      "<|startoftext|>": 1,
      "<|pad|>": 2,
      "<|unk|>": 3,
      "<|mask|>": 4,
      "<|thou|>": 5,
      "<|thee|>": 6,
      "<|thy|>": 7,
      "<|thine|>": 8,
      "<|hast|>": 9,
      "<|hath|>": 10,
      "<|doth|>": 11,
      "<|dost|>": 12,
      "<|quoth|>": 13,
      "<|verily|>": 14,
      "<|indeed|>": 15,
      "<|forsooth|>": 16,
      "<|london|>": 17,
      "<|thames|>": 18,
      "<|westminster|>": 19,
      "<|tower|>": 20,
      "<|newgate|>": 21,
      "<|southwark|>": 22,
      "<|cheapside|>": 23,
      "<|tudor|>": 24,
      "<|stuart|>": 25,
      "<|georgian|>": 26,
      "<|regency|>": 27,
      "<|perchance|>": 28,
      "<|anon|>": 29,
      "<|ere|>": 30,
      "<|whilst|>": 31,
      "<|betwixt|>": 32,
      "<|amongst|>": 33,
      "<|prithee|>": 34,
      "<|pray|>": 35,
      "<|year|>": 36,
      "<|date|>": 37,
      "<|name|>": 38,
      "<|place|>": 39,
      "<|chapter|>": 40,
      "<|verse|>": 41,
      "<|quote|>": 42,
      "<|speech|>": 43,
      "!": 44,
      "\"": 45,
      "#": 46,
      "$": 47,
      "%": 48,
      "&": 49,
      "'": 50,
      "(": 51,
      ")": 52,
      "*": 53,
      "+": 54,
      ",": 55,
      "-": 56,
      ".": 57,
      "/": 58,
      "0": 59,
      "1": 60,
      "2": 61,
      "3": 62,
      "4": 63,
      "5": 64,
      "6": 65,
      "7": 66,
      "8": 67,
      "9": 68,
      ":": 69,
      ";": 70,
      "<": 71,
      "=": 72,
      ">": 73,
      "?": 74,
      "@": 75,
      "A": 76,
      "B": 77,
      "C": 78,
      "D": 79,
      "E": 80,
      "F": 81,
      "G": 82,
      "H": 83,
      "I": 84,
      "J": 85,
      "K": 86,
      "L": 87,
      "M": 88,
      "N": 89,
      "O": 90,
      "P": 91,
      "Q": 92,
      "R": 93,
      "S": 94,
      "T": 95,
      "U": 96,
      "V": 97,
      "W": 98,
      "X": 99,
      "Y": 100,
      "Z": 101,
      "[": 102,
      "\\": 103,
      "]": 104,
      "^": 105,
      "_": 106,
      "`": 107,
      "a": 108,
      "b": 109,
      "c": 110,
      "d": 111,
      "e": 112,
      "f": 113,
      "g": 114,
      "h": 115,
      "i": 116,
      "j": 117,
      "k": 118,
      "l": 119,
      "m": 120,
      "n": 121,
      "o": 122,
      "p": 123,
      "q": 124,
      "r": 125,
      "s": 126,
      "t": 127,
      "u": 128,
      "v": 129,
      "w": 130,
      "x": 131,
      "y": 132,
      "z": 133,
      "{": 134,
      "|": 135,
      "}": 136,
      "~": 137,
      "¡": 138,
      "¢": 139,
      "£": 140,
      "¥": 141,
      "¦": 142,
      "§": 143,
      "©": 144,
      "«": 145,
      "¬": 146,
      "­": 147,
      "®": 148,
      "°": 149,
      "±": 150,
      "²": 151,
      "³": 152,
      "¶": 153,
      "·": 154,
      "¹": 155,
      "º": 156,
      "»": 157,
      "¼": 158,
      "½": 159,
      "¾": 160,
      "¿": 161,
      "Æ": 162,
      "×": 163,
      "Þ": 164,
      "ß": 165,
      "æ": 166,
      "ð": 167,
      "÷": 168,
      "ø": 169,
      "þ": 170,
      "ı": 171,
      "ł": 172,
      "Œ": 173,
      "œ": 174,
      "ſ": 175,
      "Ʒ": 176,
      "ə": 177,
      "ʃ": 178,
      "ʒ": 179,
      "˖": 180,
      "˙": 181,
      "˜": 182,
      "Α": 183,
      "Γ": 184,
      "Δ": 185,
      "Ε": 186,
      "Η": 187,
      "Θ": 188,
      "Ι": 189,
      "Κ": 190,
      "Ο": 191,
      "Π": 192,
      "Τ": 193,
      "Υ": 194,
      "Χ": 195,
      "Ω": 196,
      "α": 197,
      "β": 198,
      "γ": 199,
      "δ": 200,
      "ε": 201,
      "ζ": 202,
      "η": 203,
      "θ": 204,
      "ι": 205,
      "κ": 206,
      "λ": 207,
      "μ": 208,
      "ν": 209,
      "ξ": 210,
      "ο": 211,
      "π": 212,
      "ρ": 213,
      "ς": 214,
      "σ": 215,
      "τ": 216,
      "υ": 217,
      "φ": 218,
      "χ": 219,
      "ψ": 220,
      "ω": 221,
      "а": 222,
      "б": 223,
      "и": 224,
      "к": 225,
      "р": 226,
      "с": 227,
      "؁": 228,
      "،": 229,
      "؏": 230,
      "؛": 231,
      "؟": 232,
      "ء": 233,
      "ا": 234,
      "ب": 235,
      "ة": 236,
      "ت": 237,
      "ث": 238,
      "ج": 239,
      "ح": 240,
      "خ": 241,
      "د": 242,
      "ذ": 243,
      "ر": 244,
      "ز": 245,
      "س": 246,
      "ش": 247,
      "ص": 248,
      "ض": 249,
      "ط": 250,
      "ظ": 251,
      "ع": 252,
      "غ": 253,
      "ػ": 254,
      "ـ": 255,
      "ف": 256,
      "ق": 257,
      "ك": 258,
      "ل": 259,
      "م": 260,
      "ن": 261,
      "ه": 262,
      "و": 263,
      "ى": 264,
      "ي": 265,
      "٠": 266,
      "١": 267,
      "٢": 268,
      "٣": 269,
      "٤": 270,
      "٥": 271,
      "٦": 272,
      "٨": 273,
      "٩": 274,
      "٭": 275,
      "ٴ": 276,
      "ٹ": 277,
      "پ": 278,
      "چ": 279,
      "ڈ": 280,
      "ڑ": 281,
      "ژ": 282,
      "ک": 283,
      "ڪ": 284,
      "گ": 285,
      "ں": 286,
      "ھ": 287,
      "ہ": 288,
      "ۃ": 289,
      "ی": 290,
      "ے": 291,
      "۔": 292,
      "ە": 293,
      "۰": 294,
      "۱": 295,
      "۲": 296,
      "۳": 297,
      "۴": 298,
      "۵": 299,
      "۶": 300,
      "۷": 301,
      "۸": 302,
      "۹": 303,
      "‌": 304,
      "‎": 305,
      "‏": 306,
      "–": 307,
      "—": 308,
      "‘": 309,
      "’": 310,
      "‚": 311,
      "“": 312,
      "”": 313,
      "„": 314,
      "†": 315,
      "‡": 316,
      "•": 317,
      "…": 318,
      "‪": 319,
      "‫": 320,
      "⁁": 321,
      "⁄": 322,
      "⁊": 323,
      "⁓": 324,
      "⁰": 325,
      "⁴": 326,
      "⁵": 327,
      "⁶": 328,
      "⁷": 329,
      "⁸": 330,
      "⁹": 331,
      "₀": 332,
      "₁": 333,
      "₂": 334,
      "₃": 335,
      "₄": 336,
      "₉": 337,
      "€": 338,
      "℞": 339,
      "™": 340,
      "℥": 341,
      "⅑": 342,
      "⅓": 343,
      "⅔": 344,
      "⅗": 345,
      "⅘": 346,
      "⅙": 347,
      "⅚": 348,
      "⅛": 349,
      "⅞": 350,
      "ↄ": 351,
      "↑": 352,
      "↓": 353,
      "∕": 354,
      "⏑": 355,
      "─": 356,
      "│": 357,
      "┌": 358,
      "┐": 359,
      "┬": 360,
      "┴": 361,
      "■": 362,
      "□": 363,
      "▲": 364,
      "►": 365,
      "▼": 366,
      "◄": 367,
      "◦": 368,
      "◻": 369,
      "☞": 370,
      "☩": 371,
      "♦": 372,
      "✓": 373,
      "⸗": 374,
      "⸺": 375,
      "ꝑ": 376,
      "ꝓ": 377,
      "ꝗ": 378,
      "ꝙ": 379,
      "ꝛ": 380,
      "ꝝ": 381,
      "ꝭ": 382,
      "ꝰ": 383,
      "ꝶ": 384,
      "ﬀ": 385,
      "ﷺ": 386,
      "﷽": 387,
      "﻿": 388,
      "＋": 389,
      "－": 390,
      "##e": 391,
      "##l": 392,
      "##g": 393,
      "##r": 394,
      "##i": 395,
      "##n": 396,
      "##u": 397,
      "##s": 398,
      "##o": 399,
      "##f": 400,
      "##m": 401,
      "##y": 402,
      "##p": 403,
      "##v": 404,
      "##T": 405,
      "##M": 406,
      "##4": 407,
      "##5": 408,
      "##3": 409,
      "##H": 410,
      "##I": 411,
      "##t": 412,
      "##O": 413,
      "##S": 414,
      "##P": 415,
      "##C": 416,
      "##A": 417,
      "##L": 418,
      "##a": 419,
      "##6": 420,
      "##k": 421,
      "##w": 422,
      "##ا": 423,
      "##ي": 424,
      "##ی": 425,
      "##N": 426,
      "##E": 427,
      "##c": 428,
      "##7": 429,
      "##B": 430,
      "##æ": 431,
      "##h": 432,
      "##d": 433,
      "##b": 434,
      "##9": 435,
      "##j": 436,
      "##z": 437,
      "##J": 438,
      "##x": 439,
      "##K": 440,
      "##G": 441,
      "##D": 442,
      "##8": 443,
      "##0": 444,
      "##€": 445,
      "##F": 446,
      "##U": 447,
      "##Q": 448,
      "##°": 449,
      "##ع": 450,
      "##د": 451,
      "##X": 452,
      "##1": 453,
      "##®": 454,
      "##Y": 455,
      "##ت": 456,
      "##ح": 457,
      "##ب": 458,
      "##R": 459,
      "##Z": 460,
      "##¬": 461,
      "##V": 462,
      "##q": 463,
      "##2": 464,
      "##W": 465,
      "##£": 466,
      "##ٹ": 467,
      "##ھ": 468,
      "##™": 469,
      "##و": 470,
      "##ل": 471,
      "##پ": 472,
      "##ſ": 473,
      "##ک": 474,
      "##م": 475,
      "##ش": 476,
      "##ر": 477,
      "##ن": 478,
      "##±": 479,
      "##œ": 480,
      "##χ": 481,
      "##θ": 482,
      "##υ": 483,
      "##ο": 484,
      "##ς": 485,
      "##¥": 486,
      "##ے": 487,
      "##ہ": 488,
      "##ق": 489,
      "##‏": 490,
      "##©": 491,
      "##■": 492,
      "##ز": 493,
      "##ص": 494,
      "##ں": 495,
      "##ث": 496,
      "##¢": 497,
      "##Æ": 498,
      "##ف": 499,
      "##چ": 500,
      "##α": 501,
      "##ρ": 502,
      "##ε": 503,
      "##ν": 504,
      "##س": 505,
      "##ج": 506,
      "##خ": 507,
      "##گ": 508,
      "##½": 509,
      "##ڈ": 510,
      "##غ": 511,
      "##μ": 512,
      "##τ": 513,
      "##ω": 514,
      "##ڑ": 515,
      "##¾": 516,
      "##ظ": 517,
      "##º": 518,
      "##ꝰ": 519,
      "##ء": 520,
      "##ض": 521,
      "##¼": 522,
      "##ذ": 523,
      "##˙": 524,
      "##ط": 525,
      "##φ": 526,
      "##▼": 527,
      "##۰": 528,
      "##×": 529,
      "##٨": 530,
      "##٩": 531,
      "##؁": 532,
      "##þ": 533,
      "##ι": 534,
      "##π": 535,
      "##ꝛ": 536,
      "##٥": 537,
      "##λ": 538,
      "##σ": 539,
      "##γ": 540,
      "##٦": 541,
      "##Œ": 542,
      "##ه": 543,
      "##‎": 544,
      "##ژ": 545,
      "##ß": 546,
      "##٤": 547,
      "##⁄": 548,
      "##₁": 549,
      "##₂": 550,
      "##ξ": 551,
      "##۵": 552,
      "##ى": 553,
      "##٠": 554,
      "##۲": 555,
      "##κ": 556,
      "##η": 557,
      "##►": 558,
      "##۳": 559,
      "##ꝗ": 560,
      "##١": 561,
      "##٢": 562,
      "##δ": 563,
      "##ꝶ": 564,
      "##ʃ": 565,
      "##۴": 566,
      "##۸": 567,
      "##۷": 568,
      "##ł": 569,
      "##˜": 570,
      "##۱": 571,
      "##₃": 572,
      "##♦": 573,
      "##Þ": 574,
      "##ψ": 575,
      "##ı": 576,
      "##⅓": 577,
      "##⁰": 578,
      "##□": 579,
      "##¹": 580,
      "##ە": 581,
      "##؏": 582,
      "##۶": 583,
      "##ـ": 584,
      "##ə": 585,
      "##‌": 586,
      "##۹": 587,
      "##ꝙ": 588,
      "##ٴ": 589,
      "##¦": 590,
      "##✓": 591,
      "##‫": 592,
      "##ۃ": 593,
      "##٣": 594,
      "##β": 595,
      "##₀": 596,
      "##─": 597,
      "##┴": 598,
      "##┐": 599,
      "##²": 600,
      "##＋": 601,
      "##ꝝ": 602,
      "##÷": 603,
      "##₉": 604,
      "##ة": 605,
      "##ك": 606,
      "##‪": 607,
      "##∕": 608,
      "##┬": 609,
      "##ػ": 610,
      "##⏑": 611,
      "##⅛": 612,
      "##ʒ": 613,
      "##⁴": 614,
      "##⁵": 615,
      "##₄": 616,
      "##ζ": 617,
      "##ꝭ": 618,
      "##ﬀ": 619,
      "##ø": 620,
      "##˖": 621,
      "##ð": 622,
      "##he": 623,
      "the": 624,
      "##er": 625,
      "##on": 626,
      "##in": 627,
      "of": 628,
      "##es": 629,
      "##nd": 630,
      "##at": 631,
      "##en": 632,
      "##ed": 633,
      "##or": 634,
      "##ar": 635,
      "##is": 636,
      "##ou": 637,
      "##it": 638,
      "##an": 639,
      "in": 640,
      "and": 641,
      "to": 642,
      "##re": 643,
      "##al": 644,
      "##ing": 645,
      "##ic": 646,
      "th": 647,
      "##as": 648,
      "##om": 649,
      "##ion": 650,
      "##ll": 651,
      "##ent": 652,
      "##le": 653,
      "be": 654,
      "##et": 655,
      "##ur": 656,
      "##ce": 657,
      "##st": 658,
      "##ot": 659,
      "##ly": 660,
      "##ct": 661,
      "wh": 662,
      "##se": 663,
      "##ut": 664,
      "##ve": 665,
      "##ir": 666,
      "##ad": 667,
      "##id": 668,
      "##ow": 669,
      "that": 670,
      "on": 671,
      "##im": 672,
      "re": 673,
      "##am": 674,
      "for": 675,
      "it": 676,
      "##ig": 677,
      "##ol": 678,
      "##ith": 679,
      "de": 680,
      "##ro": 681,
      "is": 682,
      "##ch": 683,
      "##ter": 684,
      "as": 685,
      "##us": 686,
      "with": 687,
      "an": 688,
      "he": 689,
      "was": 690,
      "##um": 691,
      "##il": 692,
      "##ich": 693,
      "##ay": 694,
      "by": 695,
      "con": 696,
      "##ver": 697,
      "##ul": 698,
      "The": 699,
      "at": 700,
      "##ation": 701,
      "##her": 702,
      "which": 703,
      "st": 704,
      "##ra": 705,
      "ha": 706,
      "##ess": 707,
      "##ri": 708,
      "##em": 709,
      "his": 710,
      "##ld": 711,
      "su": 712,
      "ex": 713,
      "##pe": 714,
      "##ain": 715,
      "##ill": 716,
      "or": 717,
      "##rom": 718,
      "se": 719,
      "##our": 720,
      "##os": 721,
      "not": 722,
      "##ht": 723,
      "##od": 724,
      "##th": 725,
      "##qu": 726,
      "from": 727,
      "##ie": 728,
      "##est": 729,
      "##if": 730,
      "##ab": 731,
      "##ge": 732,
      "##ant": 733,
      "##ist": 734,
      "##la": 735,
      "##ate": 736,
      "##ere": 737,
      "com": 738,
      "##nt": 739,
      "pro": 740,
      "##art": 741,
      "##all": 742,
      "this": 743,
      "##ore": 744,
      "##ers": 745,
      "ne": 746,
      "##pp": 747,
      "have": 748,
      "sh": 749,
      "##ous": 750,
      "##ight": 751,
      "qu": 752,
      "##ard": 753,
      "##ould": 754,
      "we": 755,
      "##ci": 756,
      "##el": 757,
      "had": 758,
      "18": 759,
      "are": 760,
      "so": 761,
      "##ect": 762,
      "pr": 763,
      "##ak": 764,
      "al": 765,
      "me": 766,
      "you": 767,
      "her": 768,
      "but": 769,
      "##cc": 770,
      "##ort": 771,
      "##pt": 772,
      "##un": 773,
      "##iv": 774,
      "##ib": 775,
      "##per": 776,
      "ch": 777,
      "##ord": 778,
      "whe": 779,
      "le": 780,
      "##ac": 781,
      "all": 782,
      "##ure": 783,
      "##ast": 784,
      "##ond": 785,
      "##ity": 786,
      "##oug": 787,
      "##ome": 788,
      "##ies": 789,
      "ab": 790,
      "la": 791,
      "##ine": 792,
      "##ther": 793,
      "##ag": 794,
      "##ame": 795,
      "##ive": 796,
      "were": 797,
      "##ose": 798,
      "##ust": 799,
      "my": 800,
      "un": 801,
      "##ong": 802,
      "up": 803,
      "ob": 804,
      "##ence": 805,
      "Mr": 806,
      "##ound": 807,
      "##ell": 808,
      "et": 809,
      "him": 810,
      "##op": 811,
      "en": 812,
      "##to": 813,
      "##ance": 814,
      "##ff": 815,
      "man": 816,
      "ad": 817,
      "sa": 818,
      "their": 819,
      "##ans": 820,
      "they": 821,
      "##ia": 822,
      "##te": 823,
      "des": 824,
      "one": 825,
      "been": 826,
      "Th": 827,
      "##ost": 828,
      "##ions": 829,
      "##ry": 830,
      "##reat": 831,
      "##ire": 832,
      "17": 833,
      "##erv": 834,
      "##ind": 835,
      "##out": 836,
      "part": 837,
      "ar": 838,
      "who": 839,
      "##ment": 840,
      "no": 841,
      "##able": 842,
      "##ish": 843,
      "##ap": 844,
      "##ud": 845,
      "##ery": 846,
      "there": 847,
      "##ated": 848,
      "##ck": 849,
      "per": 850,
      "##and": 851,
      "##li": 852,
      "other": 853,
      "##ary": 854,
      "In": 855,
      "##ount": 856,
      "she": 857,
      "##ok": 858,
      "##ber": 859,
      "##ass": 860,
      "them": 861,
      "tr": 862,
      "do": 863,
      "fe": 864,
      "##ough": 865,
      "im": 866,
      "##oll": 867,
      "pl": 868,
      "##ne": 869,
      "##one": 870,
      "Ch": 871,
      "will": 872,
      "dis": 873,
      "##ue": 874,
      "##ood": 875,
      "##av": 876,
      "##ice": 877,
      "##og": 878,
      "##sel": 879,
      "##ii": 880,
      "##ub": 881,
      "cont": 882,
      "##ces": 883,
      "##au": 884,
      "16": 885,
      "its": 886,
      "res": 887,
      "some": 888,
      "##les": 889,
      "##ke": 890,
      "##ations": 891,
      "sp": 892,
      "##ens": 893,
      "when": 894,
      "very": 895,
      "has": 896,
      "St": 897,
      "tw": 898,
      "any": 899,
      "##own": 900,
      "##itt": 901,
      "pre": 902,
      "##che": 903,
      "more": 904,
      "##ime": 905,
      "##ical": 906,
      "##ite": 907,
      "##ars": 908,
      "comp": 909,
      "##fer": 910,
      "15": 911,
      "am": 912,
      "ag": 913,
      "##oy": 914,
      "##ert": 915,
      "would": 916,
      "It": 917,
      "upon": 918,
      "lo": 919,
      "##ru": 920,
      "##ade": 921,
      "ap": 922,
      "Se": 923,
      "said": 924,
      "great": 925,
      "into": 926,
      "may": 927,
      "##ction": 928,
      "##ree": 929,
      "##ide": 930,
      "than": 931,
      "##ng": 932,
      "##ced": 933,
      "form": 934,
      "10": 935,
      "##int": 936,
      "li": 937,
      "##ally": 938,
      "if": 939,
      "##res": 940,
      "##ran": 941,
      "##ach": 942,
      "sub": 943,
      "acc": 944,
      "##ents": 945,
      "wor": 946,
      "##fore": 947,
      "Re": 948,
      "po": 949,
      "##act": 950,
      "He": 951,
      "##fter": 952,
      "##nder": 953,
      "##age": 954,
      "cl": 955,
      "##hed": 956,
      "##land": 957,
      "##ition": 958,
      "rem": 959,
      "these": 960,
      "##are": 961,
      "##ph": 962,
      "being": 963,
      "##ven": 964,
      "us": 965,
      "Lond": 966,
      "par": 967,
      "can": 968,
      "##iss": 969,
      "out": 970,
      "two": 971,
      "##ress": 972,
      "##ip": 973,
      "##ake": 974,
      "cons": 975,
      "time": 976,
      "same": 977,
      "pla": 978,
      "12": 979,
      "co": 980,
      "pres": 981,
      "##ark": 982,
      "##ons": 983,
      "##ace": 984,
      "comm": 985,
      "##ater": 986,
      "##self": 987,
      "##ious": 988,
      "pe": 989,
      "kn": 990,
      "##serv": 991,
      "ye": 992,
      "##urn": 993,
      "##ft": 994,
      "fir": 995,
      "ever": 996,
      "##ings": 997,
      "made": 998,
      "##io": 999,
      "##ult": 1000,
      "##ward": 1001,
      "##ise": 1002,
      "app": 1003,
      "br": 1004,
      "##du": 1005,
      "##uch": 1006,
      "##wn": 1007,
      "##cl": 1008,
      "dif": 1009,
      "then": 1010,
      "dist": 1011,
      "sur": 1012,
      "ind": 1013,
      "such": 1014,
      "##so": 1015,
      "##ays": 1016,
      "##ont": 1017,
      "##ick": 1018,
      "##ject": 1019,
      "gr": 1020,
      "about": 1021,
      "inter": 1022,
      "##ory": 1023,
      "##erm": 1024,
      "An": 1025,
      "now": 1026,
      "##old": 1027,
      "De": 1028,
      "ac": 1029,
      "##cri": 1030,
      "##end": 1031,
      "##ian": 1032,
      "##ath": 1033,
      "after": 1034,
      "only": 1035,
      "fl": 1036,
      "appe": 1037,
      "what": 1038,
      "##pl": 1039,
      "##ile": 1040,
      "Ar": 1041,
      "##iz": 1042,
      "##ady": 1043,
      "our": 1044,
      "spe": 1045,
      "##ign": 1046,
      "those": 1047,
      "your": 1048,
      "found": 1049,
      "##ix": 1050,
      "imp": 1051,
      "vol": 1052,
      "##ug": 1053,
      "##ase": 1054,
      "##ull": 1055,
      "long": 1056,
      "And": 1057,
      "first": 1058,
      "##que": 1059,
      "ro": 1060,
      "##ular": 1061,
      "##other": 1062,
      "les": 1063,
      "most": 1064,
      "Jo": 1065,
      "rep": 1066,
      "where": 1067,
      "##ener": 1068,
      "So": 1069,
      "##ON": 1070,
      "11": 1071,
      "bet": 1072,
      "But": 1073,
      "##we": 1074,
      "could": 1075,
      "##ang": 1076,
      "##oss": 1077,
      "much": 1078,
      "observ": 1079,
      "##ved": 1080,
      "##ER": 1081,
      "London": 1082,
      "##air": 1083,
      "should": 1084,
      "sm": 1085,
      "how": 1086,
      "##ety": 1087,
      "14": 1088,
      "thr": 1089,
      "##orm": 1090,
      "##ors": 1091,
      "under": 1092,
      "##ubl": 1093,
      "Sir": 1094,
      "est": 1095,
      "##ep": 1096,
      "again": 1097,
      "##co": 1098,
      "##ied": 1099,
      "em": 1100,
      "##ale": 1101,
      "30": 1102,
      "##oth": 1103,
      "sc": 1104,
      "##ought": 1105,
      "##hn": 1106,
      "gl": 1107,
      "##ric": 1108,
      "before": 1109,
      "##ble": 1110,
      "att": 1111,
      "du": 1112,
      "like": 1113,
      "##als": 1114,
      "13": 1115,
      "also": 1116,
      "well": 1117,
      "must": 1118,
      "Lord": 1119,
      "##ove": 1120,
      "##ks": 1121,
      "##pect": 1122,
      "##rit": 1123,
      "##ather": 1124,
      "##ving": 1125,
      "##ife": 1126,
      "##ract": 1127,
      "bl": 1128,
      "This": 1129,
      "##ches": 1130,
      "off": 1131,
      "cor": 1132,
      "##ouse": 1133,
      "nat": 1134,
      "##ily": 1135,
      "aut": 1136,
      "##ild": 1137,
      "##eth": 1138,
      "##ittle": 1139,
      "##pos": 1140,
      "over": 1141,
      "20": 1142,
      "##igh": 1143,
      "##led": 1144,
      "##ning": 1145,
      "##ty": 1146,
      "##ider": 1147,
      "hand": 1148,
      "##atter": 1149,
      "##ness": 1150,
      "##AN": 1151,
      "present": 1152,
      "sec": 1153,
      "##ins": 1154,
      "##red": 1155,
      "##ained": 1156,
      "Wh": 1157,
      "##ron": 1158,
      "every": 1159,
      "19": 1160,
      "##HE": 1161,
      "ele": 1162,
      "##ower": 1163,
      "little": 1164,
      "Com": 1165,
      "29": 1166,
      "near": 1167,
      "##ner": 1168,
      "bec": 1169,
      "##iam": 1170,
      "did": 1171,
      "car": 1172,
      "count": 1173,
      "##ished": 1174,
      "Le": 1175,
      "go": 1176,
      "##ful": 1177,
      "supp": 1178,
      "ext": 1179,
      "##lie": 1180,
      "ret": 1181,
      "inst": 1182,
      "see": 1183,
      "pass": 1184,
      "##ates": 1185,
      "##vo": 1186,
      "bo": 1187,
      "##ss": 1188,
      "##etter": 1189,
      "##II": 1190,
      "op": 1191,
      "inf": 1192,
      "##ial": 1193,
      "differ": 1194,
      "Eng": 1195,
      "##irc": 1196,
      "occ": 1197,
      "John": 1198,
      "rec": 1199,
      "No": 1200,
      "gra": 1201,
      "know": 1202,
      "##hen": 1203,
      "##der": 1204,
      "good": 1205,
      "##00": 1206,
      "place": 1207,
      "Par": 1208,
      "##ollow": 1209,
      "gener": 1210,
      "shall": 1211,
      "appear": 1212,
      "##ink": 1213,
      "##man": 1214,
      "##ES": 1215,
      "##ren": 1216,
      "giv": 1217,
      "many": 1218,
      "##ack": 1219,
      "end": 1220,
      "water": 1221,
      "##ently": 1222,
      "ear": 1223,
      "##ffect": 1224,
      "int": 1225,
      "Ne": 1226,
      "Pro": 1227,
      "##ined": 1228,
      "through": 1229,
      "##ciety": 1230,
      "##cess": 1231,
      "##ibus": 1232,
      "##ible": 1233,
      "On": 1234,
      "reg": 1235,
      "fol": 1236,
      "even": 1237,
      "##ae": 1238,
      "##vers": 1239,
      "pur": 1240,
      "call": 1241,
      "own": 1242,
      "tak": 1243,
      "Co": 1244,
      "day": 1245,
      "might": 1246,
      "char": 1247,
      "follow": 1248,
      "##AL": 1249,
      "Ed": 1250,
      "circ": 1251,
      "inc": 1252,
      "Dr": 1253,
      "##be": 1254,
      "##ween": 1255,
      "##TI": 1256,
      "##und": 1257,
      "add": 1258,
      "min": 1259,
      "##ves": 1260,
      "OF": 1261,
      "consider": 1262,
      "##ement": 1263,
      "que": 1264,
      "##ave": 1265,
      "182": 1266,
      "##ys": 1267,
      "##ier": 1268,
      "##ution": 1269,
      "between": 1270,
      "exp": 1271,
      "##cip": 1272,
      "each": 1273,
      "##ertain": 1274,
      "##ures": 1275,
      "##ium": 1276,
      "THE": 1277,
      "mem": 1278,
      "##AR": 1279,
      "without": 1280,
      "ev": 1281,
      "lar": 1282,
      "##ene": 1283,
      "21": 1284,
      "##ail": 1285,
      "##ior": 1286,
      "##ited": 1287,
      "##ts": 1288,
      "small": 1289,
      "num": 1290,
      "##cul": 1291,
      "rel": 1292,
      "last": 1293,
      "##ither": 1294,
      "old": 1295,
      "var": 1296,
      "##ating": 1297,
      "ass": 1298,
      "exper": 1299,
      "By": 1300,
      "point": 1301,
      "##ause": 1302,
      "equ": 1303,
      "##wards": 1304,
      "te": 1305,
      "##ual": 1306,
      "pers": 1307,
      "##ret": 1308,
      "Mar": 1309,
      "##ention": 1310,
      "work": 1311,
      "ce": 1312,
      "Cl": 1313,
      "##ict": 1314,
      "##hor": 1315,
      "##its": 1316,
      "##cript": 1317,
      "pa": 1318,
      "##ince": 1319,
      "##get": 1320,
      "##ury": 1321,
      "##ances": 1322,
      "##ius": 1323,
      "25": 1324,
      "ent": 1325,
      "new": 1326,
      "22": 1327,
      "seem": 1328,
      "look": 1329,
      "Ex": 1330,
      "##atis": 1331,
      "##ock": 1332,
      "See": 1333,
      "##ton": 1334,
      "having": 1335,
      "##ux": 1336,
      "##ute": 1337,
      "col": 1338,
      "cur": 1339,
      "183": 1340,
      "To": 1341,
      "det": 1342,
      "produ": 1343,
      "cent": 1344,
      "down": 1345,
      "Pr": 1346,
      "##alf": 1347,
      "##tend": 1348,
      "##ceed": 1349,
      "never": 1350,
      "es": 1351,
      "Es": 1352,
      "We": 1353,
      "mon": 1354,
      "Society": 1355,
      "##imes": 1356,
      "years": 1357,
      "poss": 1358,
      "##agn": 1359,
      "ref": 1360,
      "ins": 1361,
      "three": 1362,
      "24": 1363,
      "Ph": 1364,
      "here": 1365,
      "mo": 1366,
      "##ane": 1367,
      "##EN": 1368,
      "##ived": 1369,
      "Will": 1370,
      "say": 1371,
      "ph": 1372,
      "##ames": 1373,
      "ed": 1374,
      "##ient": 1375,
      "At": 1376,
      "##ities": 1377,
      "publ": 1378,
      "##ais": 1379,
      "though": 1380,
      "##ple": 1381,
      "##ps": 1382,
      "conf": 1383,
      "ey": 1384,
      "dans": 1385,
      "As": 1386,
      "Al": 1387,
      "##gh": 1388,
      "yet": 1389,
      "##ried": 1390,
      "##ley": 1391,
      "##ours": 1392,
      "qui": 1393,
      "##OR": 1394,
      "Or": 1395,
      "23": 1396,
      "##par": 1397,
      "light": 1398,
      "##ever": 1399,
      "trans": 1400,
      "himself": 1401,
      "dire": 1402,
      "read": 1403,
      "year": 1404,
      "mar": 1405,
      "##oc": 1406,
      "##ott": 1407,
      "##omet": 1408,
      "Me": 1409,
      "act": 1410,
      "##me": 1411,
      "##oun": 1412,
      "sever": 1413,
      "##ants": 1414,
      "tra": 1415,
      "men": 1416,
      "##orth": 1417,
      "house": 1418,
      "##ines": 1419,
      "##outh": 1420,
      "make": 1421,
      "sim": 1422,
      "bod": 1423,
      "Tr": 1424,
      "##urch": 1425,
      "contin": 1426,
      "sol": 1427,
      "both": 1428,
      "##cy": 1429,
      "certain": 1430,
      "Ca": 1431,
      "28": 1432,
      "aw": 1433,
      "met": 1434,
      "cour": 1435,
      "##reet": 1436,
      "feet": 1437,
      "rece": 1438,
      "##ately": 1439,
      "name": 1440,
      "way": 1441,
      "26": 1442,
      "another": 1443,
      "##aint": 1444,
      "##ains": 1445,
      "27": 1446,
      "##fe": 1447,
      "Be": 1448,
      "di": 1449,
      "une": 1450,
      "Br": 1451,
      "Con": 1452,
      "still": 1453,
      "##uring": 1454,
      "##ait": 1455,
      "partic": 1456,
      "tem": 1457,
      "set": 1458,
      "##vent": 1459,
      "ser": 1460,
      "whole": 1461,
      "above": 1462,
      "##olog": 1463,
      "##ged": 1464,
      "const": 1465,
      "##ude": 1466,
      "##ica": 1467,
      "fri": 1468,
      "sl": 1469,
      "head": 1470,
      "Am": 1471,
      "too": 1472,
      "red": 1473,
      "mor": 1474,
      "Ro": 1475,
      "##med": 1476,
      "Sc": 1477,
      "##ific": 1478,
      "##IN": 1479,
      "##ope": 1480,
      "##ords": 1481,
      "##ern": 1482,
      "ke": 1483,
      "##ata": 1484,
      "Ma": 1485,
      "##ides": 1486,
      "Ge": 1487,
      "##ments": 1488,
      "##ened": 1489,
      "port": 1490,
      "##iew": 1491,
      "given": 1492,
      "think": 1493,
      "perf": 1494,
      "dou": 1495,
      "beg": 1496,
      "##pend": 1497,
      "##ages": 1498,
      "find": 1499,
      "ca": 1500,
      "effect": 1501,
      "##cted": 1502,
      "account": 1503,
      "prop": 1504,
      "author": 1505,
      "##hing": 1506,
      "dec": 1507,
      "just": 1508,
      "##oyal": 1509,
      "prin": 1510,
      "##hes": 1511,
      "Esq": 1512,
      "mer": 1513,
      "kind": 1514,
      "called": 1515,
      "ple": 1516,
      "##ina": 1517,
      "Bar": 1518,
      "experim": 1519,
      "wr": 1520,
      "ill": 1521,
      "far": 1522,
      "side": 1523,
      "large": 1524,
      "different": 1525,
      "##up": 1526,
      "##cept": 1527,
      "King": 1528,
      "##de": 1529,
      "fo": 1530,
      "For": 1531,
      "taken": 1532,
      "bre": 1533,
      "thought": 1534,
      "##ative": 1535,
      "##inal": 1536,
      "land": 1537,
      "few": 1538,
      "##rist": 1539,
      "val": 1540,
      "fig": 1541,
      "##of": 1542,
      "##pr": 1543,
      "Mrs": 1544,
      "##ham": 1545,
      "She": 1546,
      "che": 1547,
      "friend": 1548,
      "four": 1549,
      "less": 1550,
      "letter": 1551,
      "Col": 1552,
      "inde": 1553,
      "##vel": 1554,
      "dra": 1555,
      "##ably": 1556,
      "##aster": 1557,
      "If": 1558,
      "##quir": 1559,
      "##ows": 1560,
      "several": 1561,
      "il": 1562,
      "take": 1563,
      "young": 1564,
      "come": 1565,
      "William": 1566,
      "subject": 1567,
      "##ature": 1568,
      "rest": 1569,
      "There": 1570,
      "##bed": 1571,
      "return": 1572,
      "power": 1573,
      "while": 1574,
      "##eng": 1575,
      "##wer": 1576,
      "##bt": 1577,
      "cr": 1578,
      "respect": 1579,
      "ve": 1580,
      "thus": 1581,
      "el": 1582,
      "conc": 1583,
      "second": 1584,
      "sy": 1585,
      "air": 1586,
      "##orn": 1587,
      "La": 1588,
      "##ield": 1589,
      "40": 1590,
      "##xt": 1591,
      "##br": 1592,
      "8vo": 1593,
      "life": 1594,
      "vis": 1595,
      "cal": 1596,
      "8°": 1597,
      "obt": 1598,
      "##ued": 1599,
      "##une": 1600,
      "therefore": 1601,
      "##less": 1602,
      "exam": 1603,
      "##ax": 1604,
      "magn": 1605,
      "use": 1606,
      "art": 1607,
      "give": 1608,
      "##lish": 1609,
      "serv": 1610,
      "AN": 1611,
      "order": 1612,
      "##osed": 1613,
      "##IC": 1614,
      "state": 1615,
      "str": 1616,
      "181": 1617,
      "##cover": 1618,
      "##ople": 1619,
      "33": 1620,
      "inv": 1621,
      "tri": 1622,
      "31": 1623,
      "##IS": 1624,
      "##ister": 1625,
      "##iqu": 1626,
      "del": 1627,
      "##not": 1628,
      "Hen": 1629,
      "put": 1630,
      "Ob": 1631,
      "New": 1632,
      "however": 1633,
      "suff": 1634,
      "half": 1635,
      "##uc": 1636,
      "##ason": 1637,
      "##aps": 1638,
      "##ann": 1639,
      "##ollect": 1640,
      "against": 1641,
      "##entle": 1642,
      "Is": 1643,
      "mod": 1644,
      "##ural": 1645,
      "##men": 1646,
      "##ien": 1647,
      "Christ": 1648,
      "ing": 1649,
      "vo": 1650,
      "Car": 1651,
      "Thom": 1652,
      "##ident": 1653,
      "exc": 1654,
      "##ster": 1655,
      "country": 1656,
      "lib": 1657,
      "Ad": 1658,
      "mot": 1659,
      "32": 1660,
      "##alk": 1661,
      "seen": 1662,
      "##OL": 1663,
      "Hist": 1664,
      "##IL": 1665,
      "##ured": 1666,
      "Sp": 1667,
      "dep": 1668,
      "35": 1669,
      "manner": 1670,
      "right": 1671,
      "##ford": 1672,
      "high": 1673,
      "Comm": 1674,
      "fam": 1675,
      "term": 1676,
      "turn": 1677,
      "Pl": 1678,
      "Fr": 1679,
      "##ination": 1680,
      "general": 1681,
      "184": 1682,
      "You": 1683,
      "Rev": 1684,
      "night": 1685,
      "whom": 1686,
      "Lady": 1687,
      "##unt": 1688,
      "result": 1689,
      "##ms": 1690,
      "34": 1691,
      "44": 1692,
      "left": 1693,
      "##aking": 1694,
      "##EL": 1695,
      "##orum": 1696,
      "ter": 1697,
      "##urs": 1698,
      "opp": 1699,
      "adm": 1700,
      "case": 1701,
      "aff": 1702,
      "bel": 1703,
      "##ament": 1704,
      "50": 1705,
      "heart": 1706,
      "object": 1707,
      "law": 1708,
      "princip": 1709,
      "##lied": 1710,
      "##fic": 1711,
      "following": 1712,
      "##aut": 1713,
      "er": 1714,
      "number": 1715,
      "##ones": 1716,
      "##osition": 1717,
      "##any": 1718,
      "full": 1719,
      "##gether": 1720,
      "Sec": 1721,
      "##oman": 1722,
      "interest": 1723,
      "36": 1724,
      "means": 1725,
      "matter": 1726,
      "Miss": 1727,
      "parts": 1728,
      "Char": 1729,
      "proper": 1730,
      "war": 1731,
      "sent": 1732,
      "##oud": 1733,
      "##ob": 1734,
      "Paris": 1735,
      "people": 1736,
      "nature": 1737,
      "##ange": 1738,
      "Vol": 1739,
      "##ases": 1740,
      "came": 1741,
      "son": 1742,
      "room": 1743,
      "among": 1744,
      "enter": 1745,
      "##ross": 1746,
      "##rew": 1747,
      "##ues": 1748,
      "##den": 1749,
      "##use": 1750,
      "necess": 1751,
      "##ote": 1752,
      "That": 1753,
      "adv": 1754,
      "bu": 1755,
      "##ling": 1756,
      "##nal": 1757,
      "observed": 1758,
      "##most": 1759,
      "ou": 1760,
      "##ices": 1761,
      "##AC": 1762,
      "quant": 1763,
      "England": 1764,
      "fr": 1765,
      "div": 1766,
      "##lor": 1767,
      "##US": 1768,
      "They": 1769,
      "mind": 1770,
      "back": 1771,
      "hum": 1772,
      "##bert": 1773,
      "##ized": 1774,
      "Ind": 1775,
      "##ways": 1776,
      "def": 1777,
      "orig": 1778,
      "cop": 1779,
      "observations": 1780,
      "former": 1781,
      "##aining": 1782,
      "Sh": 1783,
      "plus": 1784,
      "45": 1785,
      "whose": 1786,
      "during": 1787,
      "ang": 1788,
      "##iness": 1789,
      "##ten": 1790,
      "anim": 1791,
      "Royal": 1792,
      "##ird": 1793,
      "acid": 1794,
      "deg": 1795,
      "37": 1796,
      "prob": 1797,
      "took": 1798,
      "hy": 1799,
      "ut": 1800,
      "ii": 1801,
      "Ab": 1802,
      "##iter": 1803,
      "street": 1804,
      "surf": 1805,
      "38": 1806,
      "med": 1807,
      "When": 1808,
      "##vern": 1809,
      "##ison": 1810,
      "tion": 1811,
      "mean": 1812,
      "##here": 1813,
      "happ": 1814,
      "Bo": 1815,
      "gentle": 1816,
      "##ased": 1817,
      "body": 1818,
      "##sequ": 1819,
      "##ai": 1820,
      "others": 1821,
      "##ule": 1822,
      "paper": 1823,
      "Thomas": 1824,
      "##ony": 1825,
      "##lack": 1826,
      "bar": 1827,
      "tre": 1828,
      "##eter": 1829,
      "##pper": 1830,
      "##ided": 1831,
      "Po": 1832,
      "view": 1833,
      "39": 1834,
      "Cor": 1835,
      "##ET": 1836,
      "May": 1837,
      "##ee": 1838,
      "known": 1839,
      "His": 1840,
      "fact": 1841,
      "common": 1842,
      "remark": 1843,
      "gu": 1844,
      "180": 1845,
      "within": 1846,
      "disc": 1847,
      "elect": 1848,
      "once": 1849,
      "ann": 1850,
      "##ique": 1851,
      "inches": 1852,
      "4to": 1853,
      "occas": 1854,
      "always": 1855,
      "since": 1856,
      "leng": 1857,
      "sil": 1858,
      "##itted": 1859,
      "##lu": 1860,
      "away": 1861,
      "##ruct": 1862,
      "pri": 1863,
      "##row": 1864,
      "fa": 1865,
      "##ording": 1866,
      "Ear": 1867,
      "nothing": 1868,
      "circum": 1869,
      "##att": 1870,
      "sum": 1871,
      "##ually": 1872,
      "cannot": 1873,
      "##sh": 1874,
      "ans": 1875,
      "##ett": 1876,
      "##UR": 1877,
      "descri": 1878,
      "##ense": 1879,
      "Un": 1880,
      "line": 1881,
      "##AT": 1882,
      "person": 1883,
      "belie": 1884,
      "cap": 1885,
      "cle": 1886,
      "till": 1887,
      "tell": 1888,
      "book": 1889,
      "God": 1890,
      "public": 1891,
      "##rib": 1892,
      "##acter": 1893,
      "James": 1894,
      "Go": 1895,
      "soon": 1896,
      "Mem": 1897,
      "best": 1898,
      "hor": 1899,
      "##bers": 1900,
      "##enn": 1901,
      "world": 1902,
      "au": 1903,
      "particular": 1904,
      "comple": 1905,
      "pol": 1906,
      "##inted": 1907,
      "mom": 1908,
      "cell": 1909,
      "done": 1910,
      "41": 1911,
      "##ales": 1912,
      "child": 1913,
      "##ised": 1914,
      "##cil": 1915,
      "length": 1916,
      "##rum": 1917,
      "Du": 1918,
      "either": 1919,
      "48": 1920,
      "##mb": 1921,
      "##TION": 1922,
      "##posed": 1923,
      "##uss": 1924,
      "exist": 1925,
      "used": 1926,
      "late": 1927,
      "nor": 1928,
      "179": 1929,
      "Letter": 1930,
      "super": 1931,
      "42": 1932,
      "##ets": 1933,
      "##mon": 1934,
      "ord": 1935,
      "wind": 1936,
      "##ges": 1937,
      "##cient": 1938,
      "fine": 1939,
      "##cription": 1940,
      "##iod": 1941,
      "ma": 1942,
      "vols": 1943,
      "thing": 1944,
      "00": 1945,
      "##elt": 1946,
      "II": 1947,
      "course": 1948,
      "sit": 1949,
      "discover": 1950,
      "##selves": 1951,
      "##ences": 1952,
      "##alt": 1953,
      "don": 1954,
      "##ger": 1955,
      "##ume": 1956,
      "round": 1957,
      "##ief": 1958,
      "43": 1959,
      "express": 1960,
      "Brit": 1961,
      "##lle": 1962,
      "ten": 1963,
      "##idence": 1964,
      "spir": 1965,
      "4°": 1966,
      "unt": 1967,
      "##iis": 1968,
      "##amp": 1969,
      "Fran": 1970,
      "home": 1971,
      "six": 1972,
      "Phil": 1973,
      "##by": 1974,
      "times": 1975,
      "##iver": 1976,
      "incl": 1977,
      "stand": 1978,
      "short": 1979,
      "ver": 1980,
      "hon": 1981,
      "##ility": 1982,
      "English": 1983,
      "together": 1984,
      "Geor": 1985,
      "subst": 1986,
      "Qu": 1987,
      "almost": 1988,
      "##itude": 1989,
      "Henry": 1990,
      "lady": 1991,
      "succ": 1992,
      "From": 1993,
      "##oph": 1994,
      "next": 1995,
      "##omen": 1996,
      "hist": 1997,
      "##atic": 1998,
      "sing": 1999,
      "feel": 2000,
      "47": 2001,
      "46": 2002,
      "##gg": 2003,
      "##ool": 2004,
      "55": 2005,
      "hands": 2006,
      "father": 2007,
      "Ire": 2008,
      "surface": 2009,
      "##ille": 2010,
      "import": 2011,
      "##ives": 2012,
      "##ared": 2013,
      "show": 2014,
      "##raph": 2015,
      "Ant": 2016,
      "##unic": 2017,
      "##ism": 2018,
      "answer": 2019,
      "##iles": 2020,
      "##pose": 2021,
      "189": 2022,
      "proceed": 2023,
      "##haps": 2024,
      "Do": 2025,
      "determ": 2026,
      "mention": 2027,
      "love": 2028,
      "##medi": 2029,
      "##iar": 2030,
      "bro": 2031,
      "towards": 2032,
      "nearly": 2033,
      "need": 2034,
      "Fe": 2035,
      "because": 2036,
      "bus": 2037,
      "mark": 2038,
      "eyes": 2039,
      "##laim": 2040,
      "##ank": 2041,
      "open": 2042,
      "##ung": 2043,
      "occasion": 2044,
      "fell": 2045,
      "perfect": 2046,
      "brought": 2047,
      "experiments": 2048,
      "fur": 2049,
      "##OS": 2050,
      "colour": 2051,
      "days": 2052,
      "Pe": 2053,
      "went": 2054,
      "does": 2055,
      "Of": 2056,
      "prof": 2057,
      "let": 2058,
      "What": 2059,
      "##ploy": 2060,
      "Ireland": 2061,
      "##osp": 2062,
      "##ney": 2063,
      "indeed": 2064,
      "##asure": 2065,
      "incre": 2066,
      "52": 2067,
      "##reen": 2068,
      "dear": 2069,
      "49": 2070,
      "##resent": 2071,
      "care": 2072,
      "glass": 2073,
      "178": 2074,
      "ste": 2075,
      "##inct": 2076,
      "Ir": 2077,
      "expl": 2078,
      "cond": 2079,
      "##lic": 2080,
      "earth": 2081,
      "cause": 2082,
      "death": 2083,
      "doubt": 2084,
      "ov": 2085,
      "strong": 2086,
      "better": 2087,
      "mus": 2088,
      "##erve": 2089,
      "ground": 2090,
      "whether": 2091,
      "57": 2092,
      "##idge": 2093,
      "##ec": 2094,
      "53": 2095,
      "moment": 2096,
      "##oney": 2097,
      "##isc": 2098,
      "56": 2099,
      "employ": 2100,
      "least": 2101,
      "fre": 2102,
      "##son": 2103,
      "Lat": 2104,
      "##uted": 2105,
      "##inc": 2106,
      "quite": 2107,
      "##ov": 2108,
      "##iol": 2109,
      "pour": 2110,
      "possess": 2111,
      "##az": 2112,
      "prov": 2113,
      "Coll": 2114,
      "pat": 2115,
      "espe": 2116,
      "der": 2117,
      "period": 2118,
      "##mer": 2119,
      "##ilt": 2120,
      "quantity": 2121,
      "success": 2122,
      "obs": 2123,
      "door": 2124,
      "##alog": 2125,
      "##ishop": 2126,
      "writ": 2127,
      "rather": 2128,
      "##ying": 2129,
      "beaut": 2130,
      "54": 2131,
      "reason": 2132,
      "prom": 2133,
      "##idd": 2134,
      "Gr": 2135,
      "##ining": 2136,
      "Aug": 2137,
      "Arch": 2138,
      "Pa": 2139,
      "CO": 2140,
      "##tended": 2141,
      "meet": 2142,
      "appro": 2143,
      "58": 2144,
      "##mo": 2145,
      "##ethod": 2146,
      "gave": 2147,
      "##ula": 2148,
      "Dubl": 2149,
      "My": 2150,
      "stone": 2151,
      "bed": 2152,
      "abs": 2153,
      "town": 2154,
      "vari": 2155,
      "##ctions": 2156,
      "##avour": 2157,
      "sw": 2158,
      "dev": 2159,
      "##ched": 2160,
      "Man": 2161,
      "Art": 2162,
      "king": 2163,
      "circumst": 2164,
      "51": 2165,
      "##cies": 2166,
      "With": 2167,
      "tlie": 2168,
      "greater": 2169,
      "distance": 2170,
      "##ilar": 2171,
      "extre": 2172,
      "##aux": 2173,
      "George": 2174,
      "fall": 2175,
      "Capt": 2176,
      "Not": 2177,
      "action": 2178,
      "appears": 2179,
      "according": 2180,
      "und": 2181,
      "pie": 2182,
      "##inary": 2183,
      "##ready": 2184,
      "These": 2185,
      "Her": 2186,
      "##ixed": 2187,
      "Rich": 2188,
      "Dublin": 2189,
      "Per": 2190,
      "##estion": 2191,
      "saw": 2192,
      "60": 2193,
      "ves": 2194,
      "character": 2195,
      "Ju": 2196,
      "##itions": 2197,
      "59": 2198,
      "ask": 2199,
      "##ash": 2200,
      "church": 2201,
      "sun": 2202,
      "poor": 2203,
      "face": 2204,
      "immedi": 2205,
      "Sm": 2206,
      "received": 2207,
      "##af": 2208,
      "purpose": 2209,
      "##ape": 2210,
      "##ette": 2211,
      "House": 2212,
      "##ustr": 2213,
      "##iii": 2214,
      "All": 2215,
      "pet": 2216,
      "already": 2217,
      "placed": 2218,
      "##pond": 2219,
      "ir": 2220,
      "true": 2221,
      "Observ": 2222,
      "##ls": 2223,
      "various": 2224,
      "latter": 2225,
      "##rag": 2226,
      "lim": 2227,
      "consequ": 2228,
      "hard": 2229,
      "##oe": 2230,
      "##ui": 2231,
      "gen": 2232,
      "##ah": 2233,
      "ant": 2234,
      "##ules": 2235,
      "equal": 2236,
      "sk": 2237,
      "regard": 2238,
      "sou": 2239,
      "perhaps": 2240,
      "##ully": 2241,
      "Bur": 2242,
      "Mon": 2243,
      "##rie": 2244,
      "themselves": 2245,
      "opin": 2246,
      "##yl": 2247,
      "##aw": 2248,
      "##ists": 2249,
      "eng": 2250,
      "temper": 2251,
      "fort": 2252,
      "continued": 2253,
      "ep": 2254,
      "eas": 2255,
      "conn": 2256,
      "##ici": 2257,
      "##IT": 2258,
      "lab": 2259,
      "plant": 2260,
      "##tern": 2261,
      "Then": 2262,
      "says": 2263,
      "formed": 2264,
      "wife": 2265,
      "morning": 2266,
      "##ission": 2267,
      "##ital": 2268,
      "av": 2269,
      "appeared": 2270,
      "##ato": 2271,
      "spec": 2272,
      "beh": 2273,
      "##uth": 2274,
      "##ached": 2275,
      "itself": 2276,
      "appar": 2277,
      "##astle": 2278,
      "blood": 2279,
      "force": 2280,
      "IN": 2281,
      "##cell": 2282,
      "##aring": 2283,
      "ment": 2284,
      "How": 2285,
      "accom": 2286,
      "sus": 2287,
      "##arn": 2288,
      "diffic": 2289,
      "##iff": 2290,
      "##oke": 2291,
      "##utes": 2292,
      "##ores": 2293,
      "##pted": 2294,
      "natural": 2295,
      "##ograph": 2296,
      "##rodu": 2297,
      "##alth": 2298,
      "often": 2299,
      "Acc": 2300,
      "want": 2301,
      "##ris": 2302,
      "collect": 2303,
      "##ivers": 2304,
      "things": 2305,
      "##stem": 2306,
      "myself": 2307,
      "##yn": 2308,
      "##bur": 2309,
      "Trans": 2310,
      "iron": 2311,
      "cry": 2312,
      "##ini": 2313,
      "cou": 2314,
      "motion": 2315,
      "proport": 2316,
      "##gan": 2317,
      "heard": 2318,
      "five": 2319,
      "##ots": 2320,
      "Ste": 2321,
      "86": 2322,
      "words": 2323,
      "lead": 2324,
      "black": 2325,
      "III": 2326,
      "Earl": 2327,
      "passed": 2328,
      "press": 2329,
      "##mn": 2330,
      "plan": 2331,
      "bur": 2332,
      "##gen": 2333,
      "dest": 2334,
      "##used": 2335,
      "Church": 2336,
      "cut": 2337,
      "obl": 2338,
      "tub": 2339,
      "Count": 2340,
      "sign": 2341,
      "deep": 2342,
      "##hem": 2343,
      "represent": 2344,
      "##ibr": 2345,
      "treat": 2346,
      "##ring": 2347,
      "concl": 2348,
      "##cing": 2349,
      "Irish": 2350,
      "condu": 2351,
      "ee": 2352,
      "mis": 2353,
      "##ator": 2354,
      "AND": 2355,
      "sont": 2356,
      "leg": 2357,
      "##ler": 2358,
      "eye": 2359,
      "Ac": 2360,
      "month": 2361,
      "sch": 2362,
      "##ati": 2363,
      "##rench": 2364,
      "Maj": 2365,
      "trou": 2366,
      "tou": 2367,
      "som": 2368,
      "necessary": 2369,
      "Gra": 2370,
      "produced": 2371,
      "difficult": 2372,
      "##well": 2373,
      "##OC": 2374,
      "refer": 2375,
      "similar": 2376,
      "Charles": 2377,
      "sea": 2378,
      "exh": 2379,
      "scar": 2380,
      "##atus": 2381,
      "##ables": 2382,
      "##read": 2383,
      "woman": 2384,
      "money": 2385,
      "Que": 2386,
      "ox": 2387,
      "portion": 2388,
      "seems": 2389,
      "fore": 2390,
      "##LE": 2391,
      "177": 2392,
      "##fort": 2393,
      "affect": 2394,
      "hope": 2395,
      "Nor": 2396,
      "##atio": 2397,
      "Ep": 2398,
      "##wise": 2399,
      "##ards": 2400,
      "##ted": 2401,
      "Su": 2402,
      "kne": 2403,
      "unc": 2404,
      "##erning": 2405,
      "##app": 2406,
      "seemed": 2407,
      "keep": 2408,
      "magnet": 2409,
      "##ember": 2410,
      "told": 2411,
      "##cis": 2412,
      "Med": 2413,
      "prev": 2414,
      "except": 2415,
      "af": 2416,
      "##reg": 2417,
      "free": 2418,
      "mother": 2419,
      "##lo": 2420,
      "method": 2421,
      "##yr": 2422,
      "heat": 2423,
      "##ulph": 2424,
      "Fig": 2425,
      "##quired": 2426,
      "id": 2427,
      "ax": 2428,
      "##owed": 2429,
      "oper": 2430,
      "Im": 2431,
      "##enty": 2432,
      "inform": 2433,
      "Oh": 2434,
      "degree": 2435,
      "##AM": 2436,
      "wall": 2437,
      "158": 2438,
      "sort": 2439,
      "ge": 2440,
      "##ral": 2441,
      "##ught": 2442,
      "lay": 2443,
      "Cal": 2444,
      "French": 2445,
      "West": 2446,
      "word": 2447,
      "bas": 2448,
      "post": 2449,
      "En": 2450,
      "age": 2451,
      "obtained": 2452,
      "##OP": 2453,
      "Har": 2454,
      "##rop": 2455,
      "##uf": 2456,
      "##RE": 2457,
      "June": 2458,
      "flu": 2459,
      "xv": 2460,
      "separ": 2461,
      "added": 2462,
      "influ": 2463,
      "##ros": 2464,
      "##cend": 2465,
      "dem": 2466,
      "family": 2467,
      "vel": 2468,
      "Jan": 2469,
      "##vered": 2470,
      "probably": 2471,
      "believe": 2472,
      "ll": 2473,
      "##ired": 2474,
      "entire": 2475,
      "jo": 2476,
      "dark": 2477,
      "wood": 2478,
      "requ": 2479,
      "leav": 2480,
      "until": 2481,
      "##augh": 2482,
      "##ize": 2483,
      "000": 2484,
      "##iment": 2485,
      "##ting": 2486,
      "north": 2487,
      "##ole": 2488,
      "described": 2489,
      "Can": 2490,
      "CH": 2491,
      "able": 2492,
      "Des": 2493,
      "Jour": 2494,
      "lie": 2495,
      "##fully": 2496,
      "##lex": 2497,
      "decl": 2498,
      "vessel": 2499,
      "nerv": 2500,
      "##gy": 2501,
      "##por": 2502,
      "##ometimes": 2503,
      "Richard": 2504,
      "##illed": 2505,
      "white": 2506,
      "cum": 2507,
      "##uced": 2508,
      "##ics": 2509,
      "low": 2510,
      "close": 2511,
      "##ressed": 2512,
      "bene": 2513,
      "##ters": 2514,
      "persons": 2515,
      "History": 2516,
      "opinion": 2517,
      "ere": 2518,
      "making": 2519,
      "considerable": 2520,
      "##ites": 2521,
      "held": 2522,
      "##port": 2523,
      "fire": 2524,
      "business": 2525,
      "Captain": 2526,
      "hour": 2527,
      "fin": 2528,
      "Em": 2529,
      "##ouncil": 2530,
      "eff": 2531,
      "Reg": 2532,
      "##ected": 2533,
      "##lect": 2534,
      "##ats": 2535,
      "sens": 2536,
      "system": 2537,
      "Sur": 2538,
      "dim": 2539,
      "further": 2540,
      "##uten": 2541,
      "175": 2542,
      "##vey": 2543,
      "appearance": 2544,
      "places": 2545,
      "brother": 2546,
      "Gl": 2547,
      "##ounds": 2548,
      "##ald": 2549,
      "Hon": 2550,
      "nom": 2551,
      "table": 2552,
      "##akes": 2553,
      "mur": 2554,
      "position": 2555,
      "sir": 2556,
      "become": 2557,
      "belong": 2558,
      "mere": 2559,
      "grand": 2560,
      "##bit": 2561,
      "enough": 2562,
      "question": 2563,
      "##iving": 2564,
      "Well": 2565,
      "mentioned": 2566,
      "France": 2567,
      "##wing": 2568,
      "##itten": 2569,
      "arri": 2570,
      "Robert": 2571,
      "March": 2572,
      "##atch": 2573,
      "pract": 2574,
      "Port": 2575,
      "arm": 2576,
      "##usion": 2577,
      "July": 2578,
      "Dig": 2579,
      "##atisf": 2580,
      "situ": 2581,
      "je": 2582,
      "##stand": 2583,
      "Edward": 2584,
      "Cam": 2585,
      "gentleman": 2586,
      "proportion": 2587,
      "##berg": 2588,
      "ide": 2589,
      "non": 2590,
      "##oir": 2591,
      "##ED": 2592,
      "Gener": 2593,
      "##ta": 2594,
      "70": 2595,
      "hold": 2596,
      "returned": 2597,
      "chief": 2598,
      "expect": 2599,
      "complete": 2600,
      "Now": 2601,
      "##bon": 2602,
      "Ox": 2603,
      "diam": 2604,
      "Queen": 2605,
      "class": 2606,
      "Cour": 2607,
      "jud": 2608,
      "##RAN": 2609,
      "Pres": 2610,
      "pay": 2611,
      "##cent": 2612,
      "possible": 2613,
      "62": 2614,
      "estab": 2615,
      "##ma": 2616,
      "Ann": 2617,
      "sure": 2618,
      "acqu": 2619,
      "sud": 2620,
      "##let": 2621,
      "##ries": 2622,
      "direct": 2623,
      "results": 2624,
      "became": 2625,
      "scarce": 2626,
      "176": 2627,
      "herself": 2628,
      "ave": 2629,
      "##els": 2630,
      "##ingu": 2631,
      "##though": 2632,
      "##apers": 2633,
      "##ered": 2634,
      "speak": 2635,
      "enc": 2636,
      "Mo": 2637,
      "get": 2638,
      "##inn": 2639,
      "##AS": 2640,
      "concerning": 2641,
      "Scot": 2642,
      "##ality": 2643,
      "Apr": 2644,
      "dr": 2645,
      "past": 2646,
      "distinct": 2647,
      "den": 2648,
      "thick": 2649,
      "##respond": 2650,
      "##rent": 2651,
      "squ": 2652,
      "south": 2653,
      "##TER": 2654,
      "One": 2655,
      "##erous": 2656,
      "direction": 2657,
      "clear": 2658,
      "66": 2659,
      "pot": 2660,
      "ft": 2661,
      "##ENT": 2662,
      "ancient": 2663,
      "third": 2664,
      "##iful": 2665,
      "##ising": 2666,
      "heav": 2667,
      "##ified": 2668,
      "pen": 2669,
      "64": 2670,
      "159": 2671,
      "comb": 2672,
      "change": 2673,
      "frequ": 2674,
      "occur": 2675,
      "communic": 2676,
      "alone": 2677,
      "quar": 2678,
      "weight": 2679,
      "foot": 2680,
      "stran": 2681,
      "63": 2682,
      "contr": 2683,
      "published": 2684,
      "##ze": 2685,
      "eight": 2686,
      "Ag": 2687,
      "exact": 2688,
      "going": 2689,
      "##TIONS": 2690,
      "##ream": 2691,
      "##uses": 2692,
      "Mad": 2693,
      "series": 2694,
      "vir": 2695,
      "Sch": 2696,
      "##ror": 2697,
      "sometimes": 2698,
      "##iously": 2699,
      "Prof": 2700,
      "office": 2701,
      "##ips": 2702,
      "immediately": 2703,
      "conv": 2704,
      "##owers": 2705,
      "experiment": 2706,
      "boy": 2707,
      "##iddle": 2708,
      "##ork": 2709,
      "wit": 2710,
      "corre": 2711,
      "bra": 2712,
      "Ap": 2713,
      "daugh": 2714,
      "afterwards": 2715,
      "##bury": 2716,
      "##bour": 2717,
      "##OM": 2718,
      "Oct": 2719,
      "chang": 2720,
      "fac": 2721,
      "render": 2722,
      "avec": 2723,
      "80": 2724,
      "ast": 2725,
      "ae": 2726,
      "pos": 2727,
      "leave": 2728,
      "satisf": 2729,
      "Cat": 2730,
      "Duke": 2731,
      "##ience": 2732,
      "##irm": 2733,
      "history": 2734,
      "Dav": 2735,
      "copy": 2736,
      "##val": 2737,
      "##empt": 2738,
      "wee": 2739,
      "hear": 2740,
      "sudden": 2741,
      "##cial": 2742,
      "##ICAL": 2743,
      "##ken": 2744,
      "Tw": 2745,
      "Je": 2746,
      "##ellow": 2747,
      "##bs": 2748,
      "rev": 2749,
      "felt": 2750,
      "##airs": 2751,
      "##lf": 2752,
      "works": 2753,
      "Pat": 2754,
      "human": 2755,
      "generally": 2756,
      "animal": 2757,
      "##AP": 2758,
      "##icient": 2759,
      "##position": 2760,
      "100": 2761,
      "Digit": 2762,
      "sem": 2763,
      "got": 2764,
      "##itution": 2765,
      "si": 2766,
      "hours": 2767,
      "##gar": 2768,
      "bran": 2769,
      "##ething": 2770,
      "considered": 2771,
      "65": 2772,
      "##icul": 2773,
      "##pped": 2774,
      "61": 2775,
      "early": 2776,
      "impro": 2777,
      "##rict": 2778,
      "Pet": 2779,
      "walk": 2780,
      "##ita": 2781,
      "emb": 2782,
      "Gu": 2783,
      "Digitized": 2784,
      "road": 2785,
      "##olved": 2786,
      "gold": 2787,
      "##ometer": 2788,
      "##adem": 2789,
      "##undred": 2790,
      "forth": 2791,
      "##III": 2792,
      "circumstances": 2793,
      "cold": 2794,
      "Sy": 2795,
      "##alle": 2796,
      "##osoph": 2797,
      "##ested": 2798,
      "died": 2799,
      "##vell": 2800,
      "##angu": 2801,
      "looked": 2802,
      "##cr": 2803,
      "Mac": 2804,
      "mass": 2805,
      "IV": 2806,
      "Mor": 2807,
      "75": 2808,
      "twenty": 2809,
      "##uit": 2810,
      "##wh": 2811,
      "##onn": 2812,
      "occup": 2813,
      "bes": 2814,
      "##arch": 2815,
      "priv": 2816,
      "written": 2817,
      "After": 2818,
      "April": 2819,
      "##AND": 2820,
      "build": 2821,
      "##ledge": 2822,
      "##bran": 2823,
      "introdu": 2824,
      "##ca": 2825,
      "##ively": 2826,
      "fif": 2827,
      "arran": 2828,
      "cross": 2829,
      "sal": 2830,
      "Feb": 2831,
      "along": 2832,
      "fil": 2833,
      "attention": 2834,
      "pas": 2835,
      "Part": 2836,
      "amount": 2837,
      "##mber": 2838,
      "##xx": 2839,
      "knew": 2840,
      "phys": 2841,
      "species": 2842,
      "ib": 2843,
      "thou": 2844,
      "difference": 2845,
      "infer": 2846,
      "worth": 2847,
      "##ivid": 2848,
      "##arum": 2849,
      "General": 2850,
      "influence": 2851,
      "ces": 2852,
      "stri": 2853,
      "fair": 2854,
      "166": 2855,
      "west": 2856,
      "Council": 2857,
      "##ari": 2858,
      "original": 2859,
      "##laimed": 2860,
      "hig": 2861,
      "something": 2862,
      "##ght": 2863,
      "visit": 2864,
      "consist": 2865,
      "##ument": 2866,
      "##onder": 2867,
      "slight": 2868,
      "lost": 2869,
      "68": 2870,
      "##ift": 2871,
      "cases": 2872,
      "##acy": 2873,
      "neg": 2874,
      "evening": 2875,
      "ded": 2876,
      "run": 2877,
      "value": 2878,
      "Mean": 2879,
      "##cious": 2880,
      "conce": 2881,
      "Sept": 2882,
      "##ection": 2883,
      "##day": 2884,
      "stud": 2885,
      "Yes": 2886,
      "sulph": 2887,
      "##essor": 2888,
      "prepar": 2889,
      "##raction": 2890,
      "##oo": 2891,
      "##bre": 2892,
      "##antly": 2893,
      "Eli": 2894,
      "164": 2895,
      "centre": 2896,
      "Amer": 2897,
      "clock": 2898,
      "##atur": 2899,
      "77": 2900,
      "##itud": 2901,
      "height": 2902,
      "Fol": 2903,
      "XX": 2904,
      "PH": 2905,
      "rais": 2906,
      "cryst": 2907,
      "6d": 2908,
      "##no": 2909,
      "167": 2910,
      "##jo": 2911,
      "asc": 2912,
      "hundred": 2913,
      "swe": 2914,
      "174": 2915,
      "origin": 2916,
      "##thing": 2917,
      "67": 2918,
      "North": 2919,
      "##ctor": 2920,
      "preced": 2921,
      "spirit": 2922,
      "##ode": 2923,
      "later": 2924,
      "##way": 2925,
      "##esty": 2926,
      "Kil": 2927,
      "168": 2928,
      "Ber": 2929,
      "bodies": 2930,
      "employed": 2931,
      "##uded": 2932,
      "##istance": 2933,
      "struct": 2934,
      "east": 2935,
      "repe": 2936,
      "turned": 2937,
      "kept": 2938,
      "hel": 2939,
      "##oura": 2940,
      "72": 2941,
      "##oved": 2942,
      "govern": 2943,
      "##owing": 2944,
      "figure": 2945,
      "##ises": 2946,
      "Here": 2947,
      "sin": 2948,
      "substance": 2949,
      "die": 2950,
      "##oms": 2951,
      "##cks": 2952,
      "important": 2953,
      "ru": 2954,
      "notice": 2955,
      "honour": 2956,
      "favour": 2957,
      "temperature": 2958,
      "master": 2959,
      "letters": 2960,
      "exhib": 2961,
      "RO": 2962,
      "taking": 2963,
      "South": 2964,
      "ti": 2965,
      "##arr": 2966,
      "instrum": 2967,
      "ec": 2968,
      "ell": 2969,
      "##cience": 2970,
      "##tt": 2971,
      "##itto": 2972,
      "##illes": 2973,
      "although": 2974,
      "support": 2975,
      "##va": 2976,
      "replied": 2977,
      "pun": 2978,
      "##rey": 2979,
      "##ship": 2980,
      "learn": 2981,
      "Bl": 2982,
      "ur": 2983,
      "led": 2984,
      "##ING": 2985,
      "Account": 2986,
      "British": 2987,
      "real": 2988,
      "voice": 2989,
      "begin": 2990,
      "pi": 2991,
      "bott": 2992,
      "began": 2993,
      "##liament": 2994,
      "Ang": 2995,
      "dut": 2996,
      "Edin": 2997,
      "deux": 2998,
      "Mary": 2999,
      "friends": 3000,
      "thy": 3001,
      "Mart": 3002,
      "August": 3003,
      "suc": 3004,
      "cette": 3005,
      "carried": 3006,
      "Christian": 3007,
      "ai": 3008,
      "##ico": 3009,
      "##aries": 3010,
      "lat": 3011,
      "devel": 3012,
      "diss": 3013,
      "173": 3014,
      "Wal": 3015,
      "Tre": 3016,
      "tit": 3017,
      "inch": 3018,
      "##bey": 3019,
      "##omy": 3020,
      "lower": 3021,
      "##oly": 3022,
      "69": 3023,
      "##erc": 3024,
      "extra": 3025,
      "172": 3026,
      "arch": 3027,
      "##ouses": 3028,
      "fluid": 3029,
      "##umb": 3030,
      "da": 3031,
      "##jus": 3032,
      "##iform": 3033,
      "##ills": 3034,
      "century": 3035,
      "alter": 3036,
      "Flor": 3037,
      "perform": 3038,
      "##ruction": 3039,
      "truth": 3040,
      "##now": 3041,
      "gir": 3042,
      "##agh": 3043,
      "wish": 3044,
      "depend": 3045,
      "calcul": 3046,
      "##ulation": 3047,
      "bring": 3048,
      "play": 3049,
      "##uck": 3050,
      "Lou": 3051,
      "prot": 3052,
      "lad": 3053,
      "correspond": 3054,
      "Some": 3055,
      "##roy": 3056,
      "description": 3057,
      "##itte": 3058,
      "Don": 3059,
      "##ils": 3060,
      "##cially": 3061,
      "list": 3062,
      "containing": 3063,
      "fi": 3064,
      "sle": 3065,
      "laid": 3066,
      "Observations": 3067,
      "electric": 3068,
      "daughter": 3069,
      "vers": 3070,
      "oppos": 3071,
      "offer": 3072,
      "children": 3073,
      "city": 3074,
      "Tra": 3075,
      "##ision": 3076,
      "arms": 3077,
      "##amber": 3078,
      "##ns": 3079,
      "##ingham": 3080,
      "pret": 3081,
      "top": 3082,
      "rap": 3083,
      "##culiar": 3084,
      "##amm": 3085,
      "Mont": 3086,
      "offic": 3087,
      "meme": 3088,
      "Min": 3089,
      "Court": 3090,
      "supposed": 3091,
      "greatest": 3092,
      "ST": 3093,
      "ty": 3094,
      "##RI": 3095,
      "neigh": 3096,
      "mater": 3097,
      "remain": 3098,
      "Inst": 3099,
      "157": 3100,
      "Great": 3101,
      "lines": 3102,
      "musc": 3103,
      "gives": 3104,
      "beautiful": 3105,
      "##ege": 3106,
      "##gr": 3107,
      "##pan": 3108,
      "points": 3109,
      "##na": 3110,
      "looking": 3111,
      "Orig": 3112,
      "##arm": 3113,
      "##OPH": 3114,
      "##vi": 3115,
      "membran": 3116,
      "Bishop": 3117,
      "fixed": 3118,
      "peculiar": 3119,
      "Hall": 3120,
      "tend": 3121,
      "##hip": 3122,
      "illustr": 3123,
      "##gress": 3124,
      "stood": 3125,
      "compar": 3126,
      "73": 3127,
      "Journal": 3128,
      "process": 3129,
      "Eliz": 3130,
      "solution": 3131,
      "organ": 3132,
      "Colon": 3133,
      "usual": 3134,
      "##aly": 3135,
      "160": 3136,
      "single": 3137,
      "##ounded": 3138,
      "##atory": 3139,
      "99": 3140,
      "Aut": 3141,
      "prim": 3142,
      "90": 3143,
      "mat": 3144,
      "fear": 3145,
      "base": 3146,
      "##oi": 3147,
      "mount": 3148,
      "cried": 3149,
      "Book": 3150,
      "gas": 3151,
      "##ological": 3152,
      "##ians": 3153,
      "##alis": 3154,
      "##ology": 3155,
      "meas": 3156,
      "distingu": 3157,
      "sold": 3158,
      "Eur": 3159,
      "sat": 3160,
      "asked": 3161,
      "##iques": 3162,
      "##ead": 3163,
      "##ody": 3164,
      "miles": 3165,
      "stru": 3166,
      "ball": 3167,
      "##riage": 3168,
      "01": 3169,
      "##mi": 3170,
      "Che": 3171,
      "##ption": 3172,
      "tot": 3173,
      "court": 3174,
      "stat": 3175,
      "ra": 3176,
      "conduct": 3177,
      "interesting": 3178,
      "##gn": 3179,
      "##min": 3180,
      "##enth": 3181,
      "appo": 3182,
      "secret": 3183,
      "peace": 3184,
      "##icle": 3185,
      "rad": 3186,
      "viol": 3187,
      "PHIL": 3188,
      "dom": 3189,
      "ought": 3190,
      "##ora": 3191,
      "grant": 3192,
      "85": 3193,
      "hast": 3194,
      "talk": 3195,
      "Ce": 3196,
      "sister": 3197,
      "mist": 3198,
      "##str": 3199,
      "piece": 3200,
      "##ousand": 3201,
      "##dom": 3202,
      "thin": 3203,
      "##ook": 3204,
      "middle": 3205,
      "##OSOPH": 3206,
      "gone": 3207,
      "terms": 3208,
      "##anc": 3209,
      "VOL": 3210,
      "knowledge": 3211,
      "##QU": 3212,
      "##ete": 3213,
      "171": 3214,
      "##itz": 3215,
      "##quis": 3216,
      "##uous": 3217,
      "War": 3218,
      "Pre": 3219,
      "Spe": 3220,
      "##fi": 3221,
      "84": 3222,
      "individ": 3223,
      "specim": 3224,
      "mil": 3225,
      "##OO": 3226,
      "prevent": 3227,
      "noble": 3228,
      "sufficient": 3229,
      "disp": 3230,
      "##SAC": 3231,
      "loc": 3232,
      "dead": 3233,
      "188": 3234,
      "ON": 3235,
      "fun": 3236,
      "sac": 3237,
      "Law": 3238,
      "tube": 3239,
      "71": 3240,
      "##nes": 3241,
      "##estig": 3242,
      "ther": 3243,
      "Dom": 3244,
      "Ven": 3245,
      "lord": 3246,
      "82": 3247,
      "report": 3248,
      "##go": 3249,
      "##lt": 3250,
      "extreme": 3251,
      "Castle": 3252,
      "Louis": 3253,
      "83": 3254,
      "##itting": 3255,
      "##utenberg": 3256,
      "imag": 3257,
      "ende": 3258,
      "Hy": 3259,
      "below": 3260,
      "Professor": 3261,
      "plain": 3262,
      "design": 3263,
      "##ura": 3264,
      "169": 3265,
      "##atum": 3266,
      "society": 3267,
      "remains": 3268,
      "longer": 3269,
      "liqu": 3270,
      "discovered": 3271,
      "answered": 3272,
      "Les": 3273,
      "really": 3274,
      "Latin": 3275,
      "cast": 3276,
      "printed": 3277,
      "suppose": 3278,
      "##field": 3279,
      "##enance": 3280,
      "drawn": 3281,
      "74": 3282,
      "minutes": 3283,
      "##bes": 3284,
      "green": 3285,
      "feu": 3286,
      "sett": 3287,
      "thousand": 3288,
      "##ires": 3289,
      "##what": 3290,
      "##imate": 3291,
      "Let": 3292,
      "silver": 3293,
      "comme": 3294,
      "addition": 3295,
      "##itation": 3296,
      "principal": 3297,
      "observation": 3298,
      "becom": 3299,
      "Dec": 3300,
      "simple": 3301,
      "din": 3302,
      "##rif": 3303,
      "##aged": 3304,
      "remarkable": 3305,
      "##CH": 3306,
      "attend": 3307,
      "##ensis": 3308,
      "Dan": 3309,
      "##utions": 3310,
      "etc": 3311,
      "iv": 3312,
      "stones": 3313,
      "##ques": 3314,
      "condition": 3315,
      "##ola": 3316,
      "hus": 3317,
      "purs": 3318,
      "fer": 3319,
      "##rees": 3320,
      "else": 3321,
      "structure": 3322,
      "exclaimed": 3323,
      "##racts": 3324,
      "advant": 3325,
      "Off": 3326,
      "##ging": 3327,
      "especially": 3328,
      "esc": 3329,
      "vill": 3330,
      "Street": 3331,
      "minute": 3332,
      "##omm": 3333,
      "##olution": 3334,
      "PHILOSOPH": 3335,
      "##burgh": 3336,
      "##fl": 3337,
      "plate": 3338,
      "TRAN": 3339,
      "##ander": 3340,
      "volume": 3341,
      "trad": 3342,
      "double": 3343,
      "preserv": 3344,
      "exter": 3345,
      "veget": 3346,
      "##itive": 3347,
      "##iments": 3348,
      "##LI": 3349,
      "acquaint": 3350,
      "entirely": 3351,
      "sides": 3352,
      "relative": 3353,
      "##band": 3354,
      "161": 3355,
      "Cont": 3356,
      "##OCI": 3357,
      "produce": 3358,
      "iii": 3359,
      "somewhat": 3360,
      "evidence": 3361,
      "##ittee": 3362,
      "##gin": 3363,
      "stra": 3364,
      "leaves": 3365,
      "##uary": 3366,
      "entered": 3367,
      "##icles": 3368,
      "Land": 3369,
      "78": 3370,
      "tres": 3371,
      "prison": 3372,
      "170": 3373,
      "laws": 3374,
      "76": 3375,
      "PR": 3376,
      "##umed": 3377,
      "hyd": 3378,
      "idea": 3379,
      "##amed": 3380,
      "##arden": 3381,
      "months": 3382,
      "grad": 3383,
      "##ios": 3384,
      "##ugh": 3385,
      "river": 3386,
      "Te": 3387,
      "Sw": 3388,
      "bear": 3389,
      "79": 3390,
      "field": 3391,
      "transl": 3392,
      "easily": 3393,
      "RE": 3394,
      "pp": 3395,
      "##SACTIONS": 3396,
      "Tem": 3397,
      "due": 3398,
      "phil": 3399,
      "ado": 3400,
      "forms": 3401,
      "detail": 3402,
      "test": 3403,
      "paid": 3404,
      "names": 3405,
      "##aces": 3406,
      "pal": 3407,
      "##ino": 3408,
      "why": 3409,
      "##yond": 3410,
      "langu": 3411,
      "Scotland": 3412,
      "pain": 3413,
      "##ency": 3414,
      "##ession": 3415,
      "nous": 3416,
      "Project": 3417,
      "school": 3418,
      "remember": 3419,
      "help": 3420,
      "81": 3421,
      "##rs": 3422,
      "pop": 3423,
      "nit": 3424,
      "thir": 3425,
      "Thus": 3426,
      "creat": 3427,
      "Secret": 3428,
      "stated": 3429,
      "exec": 3430,
      "indic": 3431,
      "bad": 3432,
      "Paul": 3433,
      "##aid": 3434,
      "pu": 3435,
      "furn": 3436,
      "##iled": 3437,
      "angle": 3438,
      "87": 3439,
      "Gree": 3440,
      "phen": 3441,
      "##iers": 3442,
      "##OT": 3443,
      "##eral": 3444,
      "##verse": 3445,
      "SOCI": 3446,
      "applied": 3447,
      "Europe": 3448,
      "Life": 3449,
      "##fs": 3450,
      "88": 3451,
      "##emb": 3452,
      "dil": 3453,
      "understand": 3454,
      "dang": 3455,
      "agree": 3456,
      "behind": 3457,
      "##opes": 3458,
      "Old": 3459,
      "##IES": 3460,
      "##rical": 3461,
      "##iae": 3462,
      "##OU": 3463,
      "covered": 3464,
      "Sam": 3465,
      "ess": 3466,
      "vi": 3467,
      "ship": 3468,
      "##inent": 3469,
      "##ym": 3470,
      "size": 3471,
      "upper": 3472,
      "pend": 3473,
      "##oted": 3474,
      "presented": 3475,
      "Mag": 3476,
      "President": 3477,
      "cost": 3478,
      "##ani": 3479,
      "proc": 3480,
      "Gutenberg": 3481,
      "particularly": 3482,
      "##pir": 3483,
      "##aire": 3484,
      "##lement": 3485,
      "##ara": 3486,
      "step": 3487,
      "Two": 3488,
      "deli": 3489,
      "##vert": 3490,
      "Pri": 3491,
      "College": 3492,
      "accur": 3493,
      "applic": 3494,
      "##iction": 3495,
      "fle": 3496,
      "Govern": 3497,
      "observe": 3498,
      "##lin": 3499,
      "Kn": 3500,
      "passage": 3501,
      "PHILOSOPHICAL": 3502,
      "lands": 3503,
      "ot": 3504,
      "contained": 3505,
      "Fo": 3506,
      "consequence": 3507,
      "move": 3508,
      "Res": 3509,
      "Wor": 3510,
      "coming": 3511,
      "##soci": 3512,
      "vent": 3513,
      "pleasure": 3514,
      "effects": 3515,
      "tro": 3516,
      "mais": 3517,
      "mult": 3518,
      "date": 3519,
      "neither": 3520,
      "chem": 3521,
      "##ili": 3522,
      "##bridge": 3523,
      "Green": 3524,
      "hath": 3525,
      "succeed": 3526,
      "beyond": 3527,
      "##mit": 3528,
      "proposed": 3529,
      "salt": 3530,
      "##unity": 3531,
      "##ference": 3532,
      "Ser": 3533,
      "##umin": 3534,
      "scarcely": 3535,
      "TRANSACTIONS": 3536,
      "##bo": 3537,
      "viz": 3538,
      "pretty": 3539,
      "##hood": 3540,
      "##iding": 3541,
      "##resh": 3542,
      "Goog": 3543,
      "square": 3544,
      "##ibly": 3545,
      "bound": 3546,
      "rapid": 3547,
      "##ETY": 3548,
      "##enny": 3549,
      "AL": 3550,
      "##ush": 3551,
      "note": 3552,
      "tions": 3553,
      "165": 3554,
      "carry": 3555,
      "##rim": 3556,
      "removed": 3557,
      "curious": 3558,
      "Water": 3559,
      "Wil": 3560,
      "required": 3561,
      "por": 3562,
      "deal": 3563,
      "measure": 3564,
      "##mitted": 3565,
      "Histor": 3566,
      "##atever": 3567,
      "command": 3568,
      "Dun": 3569,
      "extrem": 3570,
      "labour": 3571,
      "books": 3572,
      "##aught": 3573,
      "attempt": 3574,
      "none": 3575,
      "presence": 3576,
      "ped": 3577,
      "Rem": 3578,
      "dinner": 3579,
      "12mo": 3580,
      "Jac": 3581,
      "Fl": 3582,
      "opposite": 3583,
      "SOCIETY": 3584,
      "##lands": 3585,
      "##cher": 3586,
      "##bor": 3587,
      "##YAL": 3588,
      "houses": 3589,
      "perfectly": 3590,
      "meeting": 3591,
      "##OND": 3592,
      "pra": 3593,
      "instance": 3594,
      "exceed": 3595,
      "histor": 3596,
      "thee": 3597,
      "intell": 3598,
      "followed": 3599,
      "City": 3600,
      "leur": 3601,
      "likewise": 3602,
      "##ias": 3603,
      "depart": 3604,
      "##ational": 3605,
      "Exper": 3606,
      "##ishing": 3607,
      "fem": 3608,
      "##rick": 3609,
      "##eds": 3610,
      "giving": 3611,
      "pray": 3612,
      "aux": 3613,
      "##issim": 3614,
      "inquir": 3615,
      "##reng": 3616,
      "tli": 3617,
      "##EM": 3618,
      "##abeth": 3619,
      "##aneous": 3620,
      "service": 3621,
      "rare": 3622,
      "Er": 3623,
      "##ano": 3624,
      "Bra": 3625,
      "relig": 3626,
      "party": 3627,
      "jour": 3628,
      "convers": 3629,
      "##och": 3630,
      "perce": 3631,
      "##racted": 3632,
      "##mosp": 3633,
      "##ids": 3634,
      "Academ": 3635,
      "extent": 3636,
      "needle": 3637,
      "carbon": 3638,
      "husband": 3639,
      "animals": 3640,
      "dro": 3641,
      "prove": 3642,
      "Google": 3643,
      "##hab": 3644,
      "ago": 3645,
      "Germ": 3646,
      "connected": 3647,
      "diameter": 3648,
      "Majesty": 3649,
      "shown": 3650,
      "page": 3651,
      "progress": 3652,
      "oblig": 3653,
      "countenance": 3654,
      "investig": 3655,
      "live": 3656,
      "relating": 3657,
      "##anced": 3658,
      "##hire": 3659,
      "Mal": 3660,
      "##mond": 3661,
      "certainly": 3662,
      "##CC": 3663,
      "VI": 3664,
      "property": 3665,
      "ram": 3666,
      "neighbour": 3667,
      "##ification": 3668,
      "Roman": 3669,
      "York": 3670,
      "##uments": 3671,
      "##uel": 3672,
      "156": 3673,
      "Parliament": 3674,
      "excell": 3675,
      "bit": 3676,
      "send": 3677,
      "numerous": 3678,
      "remained": 3679,
      "fut": 3680,
      "Nov": 3681,
      "##ourse": 3682,
      "sugg": 3683,
      "##actions": 3684,
      "imper": 3685,
      "determined": 3686,
      "trees": 3687,
      "##ulis": 3688,
      "cos": 3689,
      "##ospital": 3690,
      "##ois": 3691,
      "happy": 3692,
      "##elle": 3693,
      "##AG": 3694,
      "price": 3695,
      "demand": 3696,
      "Jul": 3697,
      "Af": 3698,
      "dri": 3699,
      "##itary": 3700,
      "edition": 3701,
      "arg": 3702,
      "##aa": 3703,
      "##itate": 3704,
      "Lib": 3705,
      "iss": 3706,
      "ready": 3707,
      "sound": 3708,
      "merc": 3709,
      "##ression": 3710,
      "##TH": 3711,
      "compl": 3712,
      "touch": 3713,
      "gall": 3714,
      "seven": 3715,
      "##ogn": 3716,
      "##inter": 3717,
      "coll": 3718,
      "mut": 3719,
      "##osa": 3720,
      "##ulated": 3721,
      "vessels": 3722,
      "##lected": 3723,
      "inn": 3724,
      "county": 3725,
      "regular": 3726,
      "Elizabeth": 3727,
      "IR": 3728,
      "##22": 3729,
      "##ishes": 3730,
      "self": 3731,
      "##kes": 3732,
      "Sax": 3733,
      "ordinary": 3734,
      "horse": 3735,
      "Francis": 3736,
      "##king": 3737,
      "develop": 3738,
      "cav": 3739,
      "##teen": 3740,
      "opened": 3741,
      "proved": 3742,
      "mag": 3743,
      "sole": 3744,
      "inj": 3745,
      "mill": 3746,
      "##arp": 3747,
      "frequently": 3748,
      "Up": 3749,
      "##alogue": 3750,
      "89": 3751,
      "##itor": 3752,
      "##wick": 3753,
      "Jose": 3754,
      "bright": 3755,
      "phenomen": 3756,
      "##ua": 3757,
      "streng": 3758,
      "week": 3759,
      "##ouve": 3760,
      "Oxford": 3761,
      "ine": 3762,
      "fail": 3763,
      "cust": 3764,
      "magnetic": 3765,
      "sight": 3766,
      "##icular": 3767,
      "##ically": 3768,
      "##oire": 3769,
      "##iere": 3770,
      "##alys": 3771,
      "##ear": 3772,
      "chamber": 3773,
      "company": 3774,
      "Bel": 3775,
      "##urer": 3776,
      "pleas": 3777,
      "health": 3778,
      "draw": 3779,
      "##cope": 3780,
      "##osing": 3781,
      "##IST": 3782,
      "strange": 3783,
      "filled": 3784,
      "Why": 3785,
      "Baron": 3786,
      "ven": 3787,
      "fru": 3788,
      "hur": 3789,
      "##pic": 3790,
      "papers": 3791,
      "Comp": 3792,
      "##rief": 3793,
      "dimin": 3794,
      "##ials": 3795,
      "rich": 3796,
      "fit": 3797,
      "subs": 3798,
      "wonder": 3799,
      "paralle": 3800,
      "receive": 3801,
      "hither": 3802,
      "raised": 3803,
      "##ante": 3804,
      "##era": 3805,
      "White": 3806,
      "objects": 3807,
      "##pell": 3808,
      "El": 3809,
      "Mus": 3810,
      "sor": 3811,
      "##ronom": 3812,
      "Smith": 3813,
      "##form": 3814,
      "Nove": 3815,
      "dry": 3816,
      "instead": 3817,
      "98": 3818,
      "##wich": 3819,
      "sym": 3820,
      "imposs": 3821,
      "##stone": 3822,
      "##ba": 3823,
      "arc": 3824,
      "descend": 3825,
      "star": 3826,
      "Dis": 3827,
      "Cr": 3828,
      "##worth": 3829,
      "Ath": 3830,
      "asse": 3831,
      "soft": 3832,
      "##ourable": 3833,
      "Ba": 3834,
      "living": 3835,
      "Alex": 3836,
      "##rid": 3837,
      "sup": 3838,
      "grav": 3839,
      "Mat": 3840,
      "atmosp": 3841,
      "suddenly": 3842,
      "Sol": 3843,
      "flo": 3844,
      "log": 3845,
      "pieces": 3846,
      "ROYAL": 3847,
      "stars": 3848,
      "Cur": 3849,
      "mine": 3850,
      "##ixt": 3851,
      "##OG": 3852,
      "current": 3853,
      "fellow": 3854,
      "forward": 3855,
      "##IR": 3856,
      "Ast": 3857,
      "Prince": 3858,
      "tone": 3859,
      "mouth": 3860,
      "##ni": 3861,
      "pict": 3862,
      "theory": 3863,
      "sto": 3864,
      "space": 3865,
      "Edinburgh": 3866,
      "instrument": 3867,
      "hot": 3868,
      "girl": 3869,
      "##ancy": 3870,
      "fast": 3871,
      "charge": 3872,
      "95": 3873,
      "increase": 3874,
      "sense": 3875,
      "##ELL": 3876,
      "##SS": 3877,
      "bell": 3878,
      "##UL": 3879,
      "sand": 3880,
      "cloud": 3881,
      "passing": 3882,
      "##ali": 3883,
      "copper": 3884,
      "##tered": 3885,
      "wide": 3886,
      "##aving": 3887,
      "rays": 3888,
      "TH": 3889,
      "##hel": 3890,
      "cele": 3891,
      "##ops": 3892,
      "96": 3893,
      "Pol": 3894,
      "avo": 3895,
      "##uff": 3896,
      "##very": 3897,
      "Report": 3898,
      "##EC": 3899,
      "establish": 3900,
      "afford": 3901,
      "185": 3902,
      "Joseph": 3903,
      "##attle": 3904,
      "quick": 3905,
      "civ": 3906,
      "Const": 3907,
      "##ensity": 3908,
      "makes": 3909,
      "surpr": 3910,
      "pure": 3911,
      "##uding": 3912,
      "Fir": 3913,
      "contact": 3914,
      "liter": 3915,
      "##ingly": 3916,
      "##ension": 3917,
      "02": 3918,
      "dont": 3919,
      "mort": 3920,
      "thor": 3921,
      "soul": 3922,
      "vert": 3923,
      "97": 3924,
      "mode": 3925,
      "##ey": 3926,
      "##ests": 3927,
      "fib": 3928,
      "contains": 3929,
      "##cts": 3930,
      "horiz": 3931,
      "whatever": 3932,
      "preceding": 3933,
      "wat": 3934,
      "##aled": 3935,
      "merely": 3936,
      "existence": 3937,
      "##yle": 3938,
      "beginning": 3939,
      "trade": 3940,
      "constit": 3941,
      "Inde": 3942,
      "Colonel": 3943,
      "Black": 3944,
      "circle": 3945,
      "twel": 3946,
      "comes": 3947,
      "opport": 3948,
      "maint": 3949,
      "ren": 3950,
      "##ival": 3951,
      "ont": 3952,
      "quel": 3953,
      "virt": 3954,
      "obtain": 3955,
      "Voy": 3956,
      "##umes": 3957,
      "sn": 3958,
      "blue": 3959,
      "##iy": 3960,
      "##UM": 3961,
      "##chan": 3962,
      "distrib": 3963,
      "built": 3964,
      "faith": 3965,
      "broken": 3966,
      "fat": 3967,
      "rose": 3968,
      "hydro": 3969,
      "Libr": 3970,
      "94": 3971,
      "##asc": 3972,
      "Tom": 3973,
      "State": 3974,
      "January": 3975,
      "##action": 3976,
      "grains": 3977,
      "forg": 3978,
      "cat": 3979,
      "hair": 3980,
      "Prin": 3981,
      "Secretary": 3982,
      "adj": 3983,
      "maj": 3984,
      "##pus": 3985,
      "##ente": 3986,
      "Pal": 3987,
      "agre": 3988,
      "##ulum": 3989,
      "East": 3990,
      "190": 3991,
      "tree": 3992,
      "powers": 3993,
      "##itch": 3994,
      "##oup": 3995,
      "Add": 3996,
      "##itable": 3997,
      "163": 3998,
      "front": 3999,
      "delight": 4000,
      "Letters": 4001,
      "larger": 4002,
      "ol": 4003,
      "IS": 4004,
      "##uv": 4005,
      "Antiqu": 4006,
      "##ensive": 4007,
      "principles": 4008,
      "93": 4009,
      "##aste": 4010,
      "elle": 4011,
      "##atures": 4012,
      "proof": 4013,
      "science": 4014,
      "poet": 4015,
      "bottom": 4016,
      "Publ": 4017,
      "03": 4018,
      "wild": 4019,
      "nerves": 4020,
      "Philosoph": 4021,
      "loss": 4022,
      "91": 4023,
      "##AD": 4024,
      "##astic": 4025,
      "##aires": 4026,
      "anx": 4027,
      "##ech": 4028,
      "axis": 4029,
      "marked": 4030,
      "contrary": 4031,
      "Lie": 4032,
      "##erted": 4033,
      "instant": 4034,
      "bor": 4035,
      "##UN": 4036,
      "situation": 4037,
      "divers": 4038,
      "162": 4039,
      "rise": 4040,
      "na": 4041,
      "neat": 4042,
      "duty": 4043,
      "impossible": 4044,
      "sla": 4045,
      "##iel": 4046,
      "increased": 4047,
      "moon": 4048,
      "##uls": 4049,
      "ci": 4050,
      "rect": 4051,
      "probable": 4052,
      "apart": 4053,
      "grow": 4054,
      "plat": 4055,
      "fully": 4056,
      "##rill": 4057,
      "##char": 4058,
      "mad": 4059,
      "trust": 4060,
      "##iced": 4061,
      "##lace": 4062,
      "inhab": 4063,
      "destroy": 4064,
      "##inity": 4065,
      "superior": 4066,
      "spot": 4067,
      "rock": 4068,
      "window": 4069,
      "##iling": 4070,
      "easy": 4071,
      "endeavour": 4072,
      "coun": 4073,
      "tout": 4074,
      "cre": 4075,
      "##IV": 4076,
      "examined": 4077,
      "##cribed": 4078,
      "repeated": 4079,
      "frag": 4080,
      "os": 4081,
      "inte": 4082,
      "##joy": 4083,
      "coast": 4084,
      "anything": 4085,
      "fait": 4086,
      "##ems": 4087,
      "Memoir": 4088,
      "private": 4089,
      "prec": 4090,
      "advantage": 4091,
      "learned": 4092,
      "##ipp": 4093,
      "##iting": 4094,
      "##ipt": 4095,
      "Park": 4096,
      "spring": 4097,
      "##dem": 4098,
      "##met": 4099,
      "##atre": 4100,
      "intended": 4101,
      "Obs": 4102,
      "correct": 4103,
      "Cambridge": 4104,
      "##uce": 4105,
      "Int": 4106,
      "habit": 4107,
      "break": 4108,
      "expression": 4109,
      "follows": 4110,
      "##ares": 4111,
      "##igned": 4112,
      "Folio": 4113,
      "divided": 4114,
      "composed": 4115,
      "##ERS": 4116,
      "##iant": 4117,
      "India": 4118,
      "##aching": 4119,
      "155": 4120,
      "Mer": 4121,
      "TO": 4122,
      "plants": 4123,
      "equally": 4124,
      "Muse": 4125,
      "tin": 4126,
      "Red": 4127,
      "address": 4128,
      "##pet": 4129,
      "gentlemen": 4130,
      "##aria": 4131,
      "difficulty": 4132,
      "Fitz": 4133,
      "oxy": 4134,
      "Pen": 4135,
      "##ELAND": 4136,
      "##ering": 4137,
      "yellow": 4138,
      "exactly": 4139,
      "##ements": 4140,
      "##ints": 4141,
      "04": 4142,
      "##rate": 4143,
      "distant": 4144,
      "Cloud": 4145,
      "ses": 4146,
      "##ville": 4147,
      "Ben": 4148,
      "cru": 4149,
      "##oses": 4150,
      "spect": 4151,
      "##hest": 4152,
      "##ds": 4153,
      "##ael": 4154,
      "glo": 4155,
      "##ordinary": 4156,
      "expected": 4157,
      "plates": 4158,
      "desp": 4159,
      "tor": 4160,
      "dress": 4161,
      "Phys": 4162,
      "ta": 4163,
      "Dece": 4164,
      "language": 4165,
      "peu": 4166,
      "Just": 4167,
      "cult": 4168,
      "allow": 4169,
      "Nich": 4170,
      "around": 4171,
      "od": 4172,
      "entit": 4173,
      "burn": 4174,
      "sour": 4175,
      "##cs": 4176,
      "relie": 4177,
      "##lished": 4178,
      "admir": 4179,
      "Table": 4180,
      "92": 4181,
      "Collect": 4182,
      "lately": 4183,
      "Ins": 4184,
      "Ill": 4185,
      "186": 4186,
      "Nat": 4187,
      "Sal": 4188,
      "warm": 4189,
      "start": 4190,
      "ign": 4191,
      "##ening": 4192,
      "government": 4193,
      "building": 4194,
      "tu": 4195,
      "##othe": 4196,
      "information": 4197,
      "parish": 4198,
      "ni": 4199,
      "collection": 4200,
      "##KS": 4201,
      "foreign": 4202,
      "XV": 4203,
      "##ti": 4204,
      "##eness": 4205,
      "formation": 4206,
      "ladies": 4207,
      "##poses": 4208,
      "Ly": 4209,
      "Britain": 4210,
      "parallel": 4211,
      "example": 4212,
      "##ray": 4213,
      "quarter": 4214,
      "Bot": 4215,
      "rate": 4216,
      "notes": 4217,
      "CHAP": 4218,
      "struck": 4219,
      "##gment": 4220,
      "##inite": 4221,
      "famil": 4222,
      "##ommend": 4223,
      "##ker": 4224,
      "Gal": 4225,
      "compan": 4226,
      "metal": 4227,
      "future": 4228,
      "otherwise": 4229,
      "##cer": 4230,
      "slow": 4231,
      "##uis": 4232,
      "states": 4233,
      "bird": 4234,
      "breat": 4235,
      "##ige": 4236,
      "Ah": 4237,
      "##aped": 4238,
      "##aded": 4239,
      "tur": 4240,
      "oblong": 4241,
      "##ufact": 4242,
      "States": 4243,
      "Val": 4244,
      "decom": 4245,
      "possession": 4246,
      "Mil": 4247,
      "05": 4248,
      "Sub": 4249,
      "cler": 4250,
      "##ability": 4251,
      "##aker": 4252,
      "libert": 4253,
      "IRELAND": 4254,
      "ri": 4255,
      "strength": 4256,
      "##rait": 4257,
      "##lend": 4258,
      "wa": 4259,
      "members": 4260,
      "purch": 4261,
      "dise": 4262,
      "forme": 4263,
      "celebr": 4264,
      "##amb": 4265,
      "##sec": 4266,
      "cho": 4267,
      "cand": 4268,
      "oe": 4269,
      "evid": 4270,
      "Author": 4271,
      "respecting": 4272,
      "Magn": 4273,
      "ie": 4274,
      "##ties": 4275,
      "Anne": 4276,
      "branches": 4277,
      "ho": 4278,
      "ANTI": 4279,
      "##body": 4280,
      "higher": 4281,
      "title": 4282,
      "Wood": 4283,
      "Where": 4284,
      "appre": 4285,
      "sweet": 4286,
      "women": 4287,
      "witness": 4288,
      "##aff": 4289,
      "Pers": 4290,
      "wire": 4291,
      "##hens": 4292,
      "solid": 4293,
      "Walter": 4294,
      "##olas": 4295,
      "eleg": 4296,
      "importance": 4297,
      "lords": 4298,
      "##ccles": 4299,
      "Long": 4300,
      "##ored": 4301,
      "lived": 4302,
      "Transactions": 4303,
      "excellent": 4304,
      "imm": 4305,
      "##ams": 4306,
      "surr": 4307,
      "Ele": 4308,
      "##uable": 4309,
      "Joh": 4310,
      "Master": 4311,
      "1825": 4312,
      "stream": 4313,
      "writing": 4314,
      "alto": 4315,
      "##anks": 4316,
      "##IG": 4317,
      "##TS": 4318,
      "drawing": 4319,
      "becomes": 4320,
      "level": 4321,
      "accept": 4322,
      "appointed": 4323,
      "##atione": 4324,
      "unless": 4325,
      "Such": 4326,
      "##lla": 4327,
      "San": 4328,
      "likely": 4329,
      "mic": 4330,
      "improve": 4331,
      "LL": 4332,
      "##umn": 4333,
      "##TR": 4334,
      "walls": 4335,
      "##ican": 4336,
      "##with": 4337,
      "enjoy": 4338,
      "Sl": 4339,
      "extend": 4340,
      "Small": 4341,
      "principle": 4342,
      "feuilles": 4343,
      "mid": 4344,
      "recommend": 4345,
      "record": 4346,
      "8®": 4347,
      "brev": 4348,
      "##ylind": 4349,
      "Ke": 4350,
      "##umber": 4351,
      "##ibility": 4352,
      "##duc": 4353,
      "allowed": 4354,
      "Octo": 4355,
      "ditto": 4356,
      "chiefly": 4357,
      "##ague": 4358,
      "Bart": 4359,
      "America": 4360,
      "bread": 4361,
      "##rund": 4362,
      "arrang": 4363,
      "##iner": 4364,
      "fro": 4365,
      "##AB": 4366,
      "##ID": 4367,
      "fal": 4368,
      "##ped": 4369,
      "besides": 4370,
      "Burgh": 4371,
      "feelings": 4372,
      "##othes": 4373,
      "arrived": 4374,
      "alt": 4375,
      "hitherto": 4376,
      "##aine": 4377,
      "reb": 4378,
      "##the": 4379,
      "Rome": 4380,
      "reign": 4381,
      "##ify": 4382,
      "Cloudy": 4383,
      "##pse": 4384,
      "rendered": 4385,
      "##bing": 4386,
      "try": 4387,
      "facts": 4388,
      "feeling": 4389,
      "Good": 4390,
      "subjects": 4391,
      "Peter": 4392,
      "delic": 4393,
      "broad": 4394,
      "Hill": 4395,
      "omn": 4396,
      "electricity": 4397,
      "##ask": 4398,
      "##lier": 4399,
      "##van": 4400,
      "van": 4401,
      "pros": 4402,
      "Ham": 4403,
      "Martin": 4404,
      "##eles": 4405,
      "##arrow": 4406,
      "JO": 4407,
      "187": 4408,
      "Second": 4409,
      "coach": 4410,
      "##CE": 4411,
      "ANTIQU": 4412,
      "ColL": 4413,
      "##asons": 4414,
      "formerly": 4415,
      "06": 4416,
      "gro": 4417,
      "contain": 4418,
      "spoke": 4419,
      "resemb": 4420,
      "Read": 4421,
      "constant": 4422,
      "Lo": 4423,
      "degrees": 4424,
      "Ald": 4425,
      "lips": 4426,
      "pale": 4427,
      "DE": 4428,
      "fla": 4429,
      "distinguished": 4430,
      "prem": 4431,
      "##aken": 4432,
      "diff": 4433,
      "pressure": 4434,
      "hyp": 4435,
      "prepared": 4436,
      "Il": 4437,
      "numbers": 4438,
      "##erick": 4439,
      "Fine": 4440,
      "variety": 4441,
      "dread": 4442,
      "##itudes": 4443,
      "wait": 4444,
      "dece": 4445,
      "wid": 4446,
      "grat": 4447,
      "operation": 4448,
      "represented": 4449,
      "##ike": 4450,
      "entitled": 4451,
      "yield": 4452,
      "##aven": 4453,
      "yourself": 4454,
      "food": 4455,
      "Mark": 4456,
      "##gate": 4457,
      "recollect": 4458,
      "causes": 4459,
      "voL": 4460,
      "concern": 4461,
      "Epist": 4462,
      "November": 4463,
      "##ye": 4464,
      "Diss": 4465,
      "autres": 4466,
      "capt": 4467,
      "##iana": 4468,
      "standing": 4469,
      "useful": 4470,
      "fresh": 4471,
      "twelve": 4472,
      "Univers": 4473,
      "ring": 4474,
      "oil": 4475,
      "cylind": 4476,
      "conven": 4477,
      "modern": 4478,
      "comfort": 4479,
      "##wood": 4480,
      "univers": 4481,
      "Ital": 4482,
      "mal": 4483,
      "##ik": 4484,
      "##gs": 4485,
      "extraordinary": 4486,
      "named": 4487,
      "precip": 4488,
      "desire": 4489,
      "reduced": 4490,
      "fart": 4491,
      "lime": 4492,
      "glad": 4493,
      "##olute": 4494,
      "152": 4495,
      "##con": 4496,
      "Arm": 4497,
      "NE": 4498,
      "dig": 4499,
      "recover": 4500,
      "##AY": 4501,
      "Imp": 4502,
      "analys": 4503,
      "Ell": 4504,
      "LOND": 4505,
      "box": 4506,
      "elles": 4507,
      "##OW": 4508,
      "pub": 4509,
      "chair": 4510,
      "##inus": 4511,
      "High": 4512,
      "Febru": 4513,
      "Museum": 4514,
      "fish": 4515,
      "##plic": 4516,
      "takes": 4517,
      "highly": 4518,
      "##nex": 4519,
      "assist": 4520,
      "##inis": 4521,
      "shell": 4522,
      "antiqu": 4523,
      "##umph": 4524,
      "married": 4525,
      "##een": 4526,
      "thoughts": 4527,
      "evident": 4528,
      "##iu": 4529,
      "supply": 4530,
      "Gutenberg™": 4531,
      "##ih": 4532,
      "Cons": 4533,
      "claim": 4534,
      "beauty": 4535,
      "fav": 4536,
      "watch": 4537,
      "orn": 4538,
      "##ox": 4539,
      "opportunity": 4540,
      "##kn": 4541,
      "ens": 4542,
      "chemical": 4543,
      "##igence": 4544,
      "sleep": 4545,
      "bones": 4546,
      "uncle": 4547,
      "Vir": 4548,
      "ff": 4549,
      "tl": 4550,
      "island": 4551,
      "Mis": 4552,
      "##low": 4553,
      "plane": 4554,
      "##ero": 4555,
      "##lem": 4556,
      "United": 4557,
      "##inum": 4558,
      "circumstance": 4559,
      "wine": 4560,
      "vibr": 4561,
      "VIII": 4562,
      "yes": 4563,
      "altogether": 4564,
      "cred": 4565,
      "joy": 4566,
      "##fast": 4567,
      "reached": 4568,
      "County": 4569,
      "entert": 4570,
      "Arund": 4571,
      "earn": 4572,
      "royal": 4573,
      "relation": 4574,
      "authority": 4575,
      "##osph": 4576,
      "CHAPTER": 4577,
      "October": 4578,
      "##acon": 4579,
      "angles": 4580,
      "Di": 4581,
      "associ": 4582,
      "figures": 4583,
      "lod": 4584,
      "crown": 4585,
      "thrown": 4586,
      "##add": 4587,
      "##ARIES": 4588,
      "##rupt": 4589,
      "changes": 4590,
      "LONDON": 4591,
      "attended": 4592,
      "shows": 4593,
      "Mich": 4594,
      "glob": 4595,
      "ascertain": 4596,
      "youth": 4597,
      "doing": 4598,
      "##ples": 4599,
      "speaking": 4600,
      "December": 4601,
      "story": 4602,
      "##asing": 4603,
      "across": 4604,
      "polar": 4605,
      "Et": 4606,
      "Rom": 4607,
      "beneath": 4608,
      "application": 4609,
      "##ria": 4610,
      "board": 4611,
      "##ously": 4612,
      "##chant": 4613,
      "dischar": 4614,
      "##cd": 4615,
      "belonging": 4616,
      "##ciences": 4617,
      "##uct": 4618,
      "elev": 4619,
      "rain": 4620,
      "examination": 4621,
      "##ially": 4622,
      "##arily": 4623,
      "quad": 4624,
      "established": 4625,
      "section": 4626,
      "Tit": 4627,
      "polit": 4628,
      "proceeded": 4629,
      "February": 4630,
      "##NE": 4631,
      "usually": 4632,
      "sell": 4633,
      "sed": 4634,
      "Bro": 4635,
      "##ana": 4636,
      "firm": 4637,
      "aud": 4638,
      "##criptions": 4639,
      "main": 4640,
      "Right": 4641,
      "valuable": 4642,
      "remarks": 4643,
      "##unc": 4644,
      "##orts": 4645,
      "parties": 4646,
      "hardly": 4647,
      "Tur": 4648,
      "enl": 4649,
      "preserved": 4650,
      "worthy": 4651,
      "##ws": 4652,
      "singular": 4653,
      "consequently": 4654,
      "bless": 4655,
      "seat": 4656,
      "Whe": 4657,
      "individual": 4658,
      "##fect": 4659,
      "##ARD": 4660,
      "punct": 4661,
      "garden": 4662,
      "##osis": 4663,
      "apparent": 4664,
      "Louisa": 4665,
      "tender": 4666,
      "151": 4667,
      "ones": 4668,
      "thence": 4669,
      "Sim": 4670,
      "Committee": 4671,
      "##ij": 4672,
      "##utation": 4673,
      "folio": 4674,
      "##XX": 4675,
      "##ilst": 4676,
      "Ver": 4677,
      "##under": 4678,
      "weather": 4679,
      "##ashion": 4680,
      "require": 4681,
      "First": 4682,
      "capable": 4683,
      "Sto": 4684,
      "sulphur": 4685,
      "hat": 4686,
      "entre": 4687,
      "etre": 4688,
      "Rel": 4689,
      "cit": 4690,
      "nine": 4691,
      "Another": 4692,
      "exposed": 4693,
      "entr": 4694,
      "membrane": 4695,
      "Meet": 4696,
      "Si": 4697,
      "enem": 4698,
      "##irth": 4699,
      "David": 4700,
      "##igne": 4701,
      "##ha": 4702,
      "##enced": 4703,
      "##otion": 4704,
      "##oles": 4705,
      "Rec": 4706,
      "scene": 4707,
      "demon": 4708,
      "##raw": 4709,
      "##rors": 4710,
      "amongst": 4711,
      "reference": 4712,
      "project": 4713,
      "fourth": 4714,
      "natur": 4715,
      "##appe": 4716,
      "Act": 4717,
      "##bles": 4718,
      "##cco": 4719,
      "introduced": 4720,
      "sale": 4721,
      "##uing": 4722,
      "##isse": 4723,
      "##estern": 4724,
      "Ess": 4725,
      "##oration": 4726,
      "station": 4727,
      "travell": 4728,
      "farther": 4729,
      "##hend": 4730,
      "occupied": 4731,
      "##bl": 4732,
      "fee": 4733,
      "expressed": 4734,
      "Arundel": 4735,
      "##oon": 4736,
      "##ration": 4737,
      "##ager": 4738,
      "qf": 4739,
      "engaged": 4740,
      "##side": 4741,
      "greatly": 4742,
      "ete": 4743,
      "##arks": 4744,
      "##illing": 4745,
      "ibid": 4746,
      "max": 4747,
      "LI": 4748,
      "dent": 4749,
      "##where": 4750,
      "pointed": 4751,
      "castle": 4752,
      "##eties": 4753,
      "##ida": 4754,
      "##orther": 4755,
      "civil": 4756,
      "Bally": 4757,
      "##race": 4758,
      "vast": 4759,
      "accompan": 4760,
      "bot": 4761,
      "whence": 4762,
      "conversation": 4763,
      "##rage": 4764,
      "phenomena": 4765,
      "band": 4766,
      "glab": 4767,
      "Arth": 4768,
      "cro": 4769,
      "##bis": 4770,
      "Town": 4771,
      "Sk": 4772,
      "##hness": 4773,
      "matters": 4774,
      "depos": 4775,
      "##rible": 4776,
      "Bu": 4777,
      "nombre": 4778,
      "founded": 4779,
      "##ories": 4780,
      "Afric": 4781,
      "##uscript": 4782,
      "grave": 4783,
      "ANTIQUARIES": 4784,
      "Bell": 4785,
      "ful": 4786,
      "uns": 4787,
      "brain": 4788,
      "gradually": 4789,
      "##AV": 4790,
      "##cn": 4791,
      "##oul": 4792,
      "substances": 4793,
      "pounds": 4794,
      "chap": 4795,
      "Library": 4796,
      "attached": 4797,
      "##inations": 4798,
      "org": 4799,
      "##oped": 4800,
      "Mur": 4801,
      "taste": 4802,
      "weak": 4803,
      "veloc": 4804,
      "atmosphere": 4805,
      "Ord": 4806,
      "Catalogue": 4807,
      "rot": 4808,
      "happened": 4809,
      "cover": 4810,
      "##idi": 4811,
      "excl": 4812,
      "particul": 4813,
      "Hig": 4814,
      "pair": 4815,
      "error": 4816,
      "tried": 4817,
      "mach": 4818,
      "##ecture": 4819,
      "subsequ": 4820,
      "hom": 4821,
      "Having": 4822,
      "08": 4823,
      "##ols": 4824,
      "##quer": 4825,
      "##imum": 4826,
      "tt": 4827,
      "##ented": 4828,
      "Card": 4829,
      "cord": 4830,
      "##bra": 4831,
      "Major": 4832,
      "tbe": 4833,
      "thirty": 4834,
      "##don": 4835,
      "tables": 4836,
      "nation": 4837,
      "1828": 4838,
      "cel": 4839,
      "cas": 4840,
      "experience": 4841,
      "##rant": 4842,
      "contrib": 4843,
      "##hers": 4844,
      "chlor": 4845,
      "occurred": 4846,
      "basi": 4847,
      "Hor": 4848,
      "Mess": 4849,
      "shape": 4850,
      "flor": 4851,
      "legs": 4852,
      "##isions": 4853,
      "explan": 4854,
      "wrong": 4855,
      "admitted": 4856,
      "Philip": 4857,
      "collected": 4858,
      "cu": 4859,
      "born": 4860,
      "caused": 4861,
      "Abbey": 4862,
      "affection": 4863,
      "evidently": 4864,
      "derived": 4865,
      "##riet": 4866,
      "wrote": 4867,
      "##iti": 4868,
      "throughout": 4869,
      "##fa": 4870,
      "completely": 4871,
      "153": 4872,
      "Island": 4873,
      "##vere": 4874,
      "##iciently": 4875,
      "analog": 4876,
      "##ishment": 4877,
      "news": 4878,
      "tim": 4879,
      "narrow": 4880,
      "##ORY": 4881,
      "consideration": 4882,
      "gravity": 4883,
      "hence": 4884,
      "##GE": 4885,
      "ly": 4886,
      "justice": 4887,
      "extremely": 4888,
      "provided": 4889,
      "inhabit": 4890,
      "granted": 4891,
      "##irs": 4892,
      "oxygen": 4893,
      "opening": 4894,
      "hill": 4895,
      "Its": 4896,
      "neck": 4897,
      "rent": 4898,
      "##oni": 4899,
      "##uni": 4900,
      "Del": 4901,
      "depth": 4902,
      "measures": 4903,
      "fashion": 4904,
      "ia": 4905,
      "coloured": 4906,
      "trouble": 4907,
      "Sil": 4908,
      "##sell": 4909,
      "liber": 4910,
      "##NO": 4911,
      "Ref": 4912,
      "handsome": 4913,
      "##ieur": 4914,
      "ident": 4915,
      "style": 4916,
      "therm": 4917,
      "ends": 4918,
      "07": 4919,
      "har": 4920,
      "prince": 4921,
      "154": 4922,
      "mercury": 4923,
      "gran": 4924,
      "whis": 4925,
      "##rd": 4926,
      "##itated": 4927,
      "Arthur": 4928,
      "uniform": 4929,
      "irreg": 4930,
      "sous": 4931,
      "reading": 4932,
      "pleased": 4933,
      "Ext": 4934,
      "colours": 4935,
      "Lim": 4936,
      "continue": 4937,
      "Plate": 4938,
      "infl": 4939,
      "cot": 4940,
      "Birm": 4941,
      "smaller": 4942,
      "vict": 4943,
      "muscles": 4944,
      "edge": 4945,
      "##zen": 4946,
      "##lique": 4947,
      "150": 4948,
      "##یں": 4949,
      "forces": 4950,
      "##vis": 4951,
      "stay": 4952,
      "murder": 4953,
      "adopted": 4954,
      "PL": 4955,
      "qual": 4956,
      "interv": 4957,
      "capital": 4958,
      "bank": 4959,
      "2s": 4960,
      "Who": 4961,
      "Cop": 4962,
      "native": 4963,
      "Bes": 4964,
      "##fortun": 4965,
      "affected": 4966,
      "chance": 4967,
      "discovery": 4968,
      "succeeded": 4969,
      "Dep": 4970,
      "moved": 4971,
      "particles": 4972,
      "Liter": 4973,
      "looks": 4974,
      "muri": 4975,
      "celebrated": 4976,
      "cer": 4977,
      "09": 4978,
      "Ev": 4979,
      "Svo": 4980,
      "##aments": 4981,
      "altern": 4982,
      "determine": 4983,
      "dam": 4984,
      "turning": 4985,
      "Wall": 4986,
      "4®": 4987,
      "Fellow": 4988,
      "voy": 4989,
      "leaving": 4990,
      "Corn": 4991,
      "Cla": 4992,
      "merid": 4993,
      "Public": 4994,
      "##fit": 4995,
      "manufact": 4996,
      "fond": 4997,
      "FOR": 4998,
      "rapp": 4999,
      "1830": 5000,
      "grace": 5001,
      "teeth": 5002,
      "Your": 5003,
      "##illa": 5004,
      "directed": 5005,
      "summer": 5006,
      "##amin": 5007,
      "mel": 5008,
      "addressed": 5009,
      "##udes": 5010,
      "##hall": 5011,
      "contem": 5012,
      "##more": 5013,
      "san": 5014,
      "fruit": 5015,
      "##owd": 5016,
      "save": 5017,
      "##istry": 5018,
      "##pel": 5019,
      "##icis": 5020,
      "##stood": 5021,
      "recogn": 5022,
      "serve": 5023,
      "##ieure": 5024,
      "##bus": 5025,
      "##gypt": 5026,
      "foliis": 5027,
      "Knight": 5028,
      "Our": 5029,
      "practice": 5030,
      "saying": 5031,
      "##ede": 5032,
      "September": 5033,
      "safe": 5034,
      "Paper": 5035,
      "##chen": 5036,
      "elected": 5037,
      "##mack": 5038,
      "##itur": 5039,
      "horizont": 5040,
      "danger": 5041,
      "Gen": 5042,
      "quiet": 5043,
      "obliged": 5044,
      "##ena": 5045,
      "Was": 5046,
      "female": 5047,
      "changed": 5048,
      "xiv": 5049,
      "##vy": 5050,
      "walked": 5051,
      "Treas": 5052,
      "quantities": 5053,
      "##orthern": 5054,
      "marriage": 5055,
      "##ST": 5056,
      "cha": 5057,
      "Dire": 5058,
      "##ione": 5059,
      "##ctr": 5060,
      "Their": 5061,
      "Burghley": 5062,
      "Fer": 5063,
      "200": 5064,
      "##etic": 5065,
      "referred": 5066,
      "forming": 5067,
      "##ization": 5068,
      "sufficiently": 5069,
      "Rob": 5070,
      "possibly": 5071,
      "resolved": 5072,
      "remaining": 5073,
      "om": 5074,
      "ammon": 5075,
      "##kins": 5076,
      "##NG": 5077,
      "tal": 5078,
      "##gal": 5079,
      "accident": 5080,
      "Fair": 5081,
      "visible": 5082,
      "rub": 5083,
      "##uting": 5084,
      "##rab": 5085,
      "##com": 5086,
      "copies": 5087,
      "Der": 5088,
      "va": 5089,
      "tears": 5090,
      "##pping": 5091,
      "partie": 5092,
      "##lly": 5093,
      "##het": 5094,
      "drink": 5095,
      "scale": 5096,
      "prisoner": 5097,
      "engra": 5098,
      "distur": 5099,
      "##wed": 5100,
      "winter": 5101,
      "Mayor": 5102,
      "instances": 5103,
      "Av": 5104,
      "##acters": 5105,
      "aid": 5106,
      "Nicholas": 5107,
      "whilst": 5108,
      "liberty": 5109,
      "convey": 5110,
      "##ussi": 5111,
      "crystall": 5112,
      "highest": 5113,
      "Fort": 5114,
      "##apel": 5115,
      "hi": 5116,
      "bien": 5117,
      "##antes": 5118,
      "Four": 5119,
      "experien": 5120,
      "Fa": 5121,
      "Wales": 5122,
      "gilt": 5123,
      "ordered": 5124,
      "eat": 5125,
      "##UB": 5126,
      "hall": 5127,
      "Hence": 5128,
      "philosoph": 5129,
      "utter": 5130,
      "##kenny": 5131,
      "desir": 5132,
      "Hospital": 5133,
      "mixed": 5134,
      "meant": 5135,
      "heavy": 5136,
      "Patrick": 5137,
      "lic": 5138,
      "seeing": 5139,
      "fix": 5140,
      "previously": 5141,
      "Ger": 5142,
      "##edy": 5143,
      "##qual": 5144,
      "Bat": 5145,
      "Fri": 5146,
      "##oso": 5147,
      "##ama": 5148,
      "Time": 5149,
      "##eur": 5150,
      "delivered": 5151,
      "obser": 5152,
      "##lection": 5153,
      "enab": 5154,
      "##atom": 5155,
      "views": 5156,
      "brown": 5157,
      "educ": 5158,
      "##pi": 5159,
      "rh": 5160,
      "lying": 5161,
      "##cket": 5162,
      "##iche": 5163,
      "12°": 5164,
      "including": 5165,
      "##rt": 5166,
      "inquiry": 5167,
      "##bid": 5168,
      "##geon": 5169,
      "##usted": 5170,
      "Gall": 5171,
      "1826": 5172,
      "accompl": 5173,
      "Natural": 5174,
      "Cent": 5175,
      "Greek": 5176,
      "directly": 5177,
      "##ned": 5178,
      "##ump": 5179,
      "Met": 5180,
      "Mars": 5181,
      "ay": 5182,
      "Government": 5183,
      "manif": 5184,
      "absolute": 5185,
      "EX": 5186,
      "Burn": 5187,
      "##inate": 5188,
      "sche": 5189,
      "##alla": 5190,
      "##isp": 5191,
      "branch": 5192,
      "Tracts": 5193,
      "communication": 5194,
      "Mount": 5195,
      "##ades": 5196,
      "191": 5197,
      "ja": 5198,
      "served": 5199,
      "1827": 5200,
      "ack": 5201,
      "lies": 5202,
      "Stat": 5203,
      "obsc": 5204,
      "wealth": 5205,
      "ejus": 5206,
      "accompanied": 5207,
      "coal": 5208,
      "##bi": 5209,
      "perpend": 5210,
      "previous": 5211,
      "##rupted": 5212,
      "Ditto": 5213,
      "specimen": 5214,
      "1824": 5215,
      "Members": 5216,
      "dwell": 5217,
      "CON": 5218,
      "##come": 5219,
      "excess": 5220,
      "spread": 5221,
      "Edm": 5222,
      "Gre": 5223,
      "acquainted": 5224,
      "translated": 5225,
      "pul": 5226,
      "##icks": 5227,
      "cloth": 5228,
      "servant": 5229,
      "Os": 5230,
      "##ram": 5231,
      "compass": 5232,
      "1822": 5233,
      "ils": 5234,
      "Light": 5235,
      "apply": 5236,
      "spirits": 5237,
      "Kilkenny": 5238,
      "essent": 5239,
      "##ieurs": 5240,
      "Lu": 5241,
      "##owder": 5242,
      "mont": 5243,
      "countries": 5244,
      "##ocks": 5245,
      "##minster": 5246,
      "Nature": 5247,
      "##right": 5248,
      "purposes": 5249,
      "N°": 5250,
      "##ming": 5251,
      "forty": 5252,
      "AR": 5253,
      "fing": 5254,
      "specimens": 5255,
      "##unk": 5256,
      "displ": 5257,
      "Cant": 5258,
      "possessed": 5259,
      "##oes": 5260,
      "##iU": 5261,
      "##xim": 5262,
      "##mes": 5263,
      "sevent": 5264,
      "##icus": 5265,
      "##pa": 5266,
      "1831": 5267,
      "xx": 5268,
      "Ass": 5269,
      "VII": 5270,
      "Span": 5271,
      "toward": 5272,
      "compre": 5273,
      "##olk": 5274,
      "##ners": 5275,
      "Chron": 5276,
      "performed": 5277,
      "neighbourhood": 5278,
      "Chem": 5279,
      "Papers": 5280,
      "##ESS": 5281,
      "Est": 5282,
      "##IX": 5283,
      "brief": 5284,
      "interior": 5285,
      "attrib": 5286,
      "##gu": 5287,
      "##pert": 5288,
      "heads": 5289,
      "nav": 5290,
      "ray": 5291,
      "##hold": 5292,
      "faint": 5293,
      "##verted": 5294,
      "compared": 5295,
      "ments": 5296,
      "cra": 5297,
      "write": 5298,
      "##aph": 5299,
      "local": 5300,
      "##bishop": 5301,
      "Notes": 5302,
      "eld": 5303,
      "division": 5304,
      "Clare": 5305,
      "tong": 5306,
      "apparatus": 5307,
      "separated": 5308,
      "##etting": 5309,
      "mathem": 5310,
      "rejo": 5311,
      "##earches": 5312,
      "custom": 5313,
      "season": 5314,
      "offered": 5315,
      "please": 5316,
      "Michael": 5317,
      "discuss": 5318,
      "paint": 5319,
      "exped": 5320,
      "Spain": 5321,
      "Far": 5322,
      "reply": 5323,
      "rocks": 5324,
      "##known": 5325,
      "advanced": 5326,
      "ascend": 5327,
      "study": 5328,
      "hang": 5329,
      "##icum": 5330,
      "Works": 5331,
      "Cap": 5332,
      "Academy": 5333,
      "lac": 5334,
      "Ho": 5335,
      "independ": 5336,
      "district": 5337,
      "accordingly": 5338,
      "Incip": 5339,
      "closed": 5340,
      "Equ": 5341,
      "member": 5342,
      "namely": 5343,
      "##illy": 5344,
      "immediate": 5345,
      "##burg": 5346,
      "fibres": 5347,
      "Jones": 5348,
      "##OD": 5349,
      "##hol": 5350,
      "extensive": 5351,
      "tax": 5352,
      "stom": 5353,
      "properties": 5354,
      "MS": 5355,
      "##pire": 5356,
      "Scott": 5357,
      "Treat": 5358,
      "##ek": 5359,
      "mi": 5360,
      "vain": 5361,
      "ult": 5362,
      "portions": 5363,
      "acknow": 5364,
      "pages": 5365,
      "undert": 5366,
      "Prov": 5367,
      "1823": 5368,
      "##estions": 5369,
      "gaz": 5370,
      "subt": 5371,
      "recent": 5372,
      "articles": 5373,
      "roll": 5374,
      "splend": 5375,
      "LE": 5376,
      "##BER": 5377,
      "##pton": 5378,
      "sen": 5379,
      "memory": 5380,
      "Hab": 5381,
      "rid": 5382,
      "evil": 5383,
      "Egypt": 5384,
      "especes": 5385,
      "ble": 5386,
      "autre": 5387,
      "separate": 5388,
      "mixt": 5389,
      "Bi": 5390,
      "reader": 5391,
      "unto": 5392,
      "hab": 5393,
      "##rang": 5394,
      "trial": 5395,
      "access": 5396,
      "understood": 5397,
      "Yet": 5398,
      "consists": 5399,
      "exerc": 5400,
      "Sav": 5401,
      "sive": 5402,
      "##ona": 5403,
      "destroyed": 5404,
      "gar": 5405,
      "120": 5406,
      "Birmingham": 5407,
      "##eme": 5408,
      "##aches": 5409,
      "readily": 5410,
      "rising": 5411,
      "hu": 5412,
      "hors": 5413,
      "Oper": 5414,
      "vac": 5415,
      "mechan": 5416,
      "Which": 5417,
      "guard": 5418,
      "Cy": 5419,
      "Tower": 5420,
      "crit": 5421,
      "encore": 5422,
      "1835": 5423,
      "partly": 5424,
      "Inter": 5425,
      "##olly": 5426,
      "##pelled": 5427,
      "##ellum": 5428,
      "construction": 5429,
      "flat": 5430,
      "plantes": 5431,
      "##iorum": 5432,
      "journey": 5433,
      "moins": 5434,
      "Bib": 5435,
      "##oli": 5436,
      "Company": 5437,
      "pan": 5438,
      "situated": 5439,
      "School": 5440,
      "extended": 5441,
      "apparently": 5442,
      "University": 5443,
      "Vice": 5444,
      "##rane": 5445,
      "##otten": 5446,
      "carefully": 5447,
      "##ked": 5448,
      "genre": 5449,
      "Gentle": 5450,
      "##asm": 5451,
      "##cia": 5452,
      "edges": 5453,
      "Samuel": 5454,
      "bul": 5455,
      "rank": 5456,
      "##OUS": 5457,
      "##oda": 5458,
      "Upon": 5459,
      "##onge": 5460,
      "##noon": 5461,
      "cla": 5462,
      "conclusion": 5463,
      "naturally": 5464,
      "Ter": 5465,
      "Wind": 5466,
      "Ve": 5467,
      "Lords": 5468,
      "necessity": 5469,
      "steps": 5470,
      "sick": 5471,
      "##aunt": 5472,
      "##UT": 5473,
      "solemn": 5474,
      "gate": 5475,
      "demonstr": 5476,
      "Hel": 5477,
      "carriage": 5478,
      "Cath": 5479,
      "suffer": 5480,
      "officers": 5481,
      "race": 5482,
      "peut": 5483,
      "Commission": 5484,
      "##road": 5485,
      "##chester": 5486,
      "suspic": 5487,
      "hydrogen": 5488,
      "##retched": 5489,
      "Cas": 5490,
      "##ington": 5491,
      "##ushed": 5492,
      "exhibited": 5493,
      "deb": 5494,
      "passion": 5495,
      "bal": 5496,
      "lin": 5497,
      "Wm": 5498,
      "afores": 5499,
      "finding": 5500,
      "Plan": 5501,
      "Den": 5502,
      "##je": 5503,
      "shut": 5504,
      "##ella": 5505,
      "total": 5506,
      "Som": 5507,
      "equation": 5508,
      "wise": 5509,
      "##eper": 5510,
      "##can": 5511,
      "##rand": 5512,
      "##oa": 5513,
      "corresponding": 5514,
      "disappe": 5515,
      "kingdom": 5516,
      "##TON": 5517,
      "Common": 5518,
      "Office": 5519,
      "admit": 5520,
      "commence": 5521,
      "##rm": 5522,
      "Cast": 5523,
      "vic": 5524,
      "kinds": 5525,
      "1st": 5526,
      "##uli": 5527,
      "stopped": 5528,
      "fortune": 5529,
      "article": 5530,
      "bow": 5531,
      "##oned": 5532,
      "Westminster": 5533,
      "Cork": 5534,
      "Did": 5535,
      "aware": 5536,
      "##rence": 5537,
      "##itute": 5538,
      "Conn": 5539,
      "##allic": 5540,
      "enabled": 5541,
      "aforesaid": 5542,
      "powerful": 5543,
      "multip": 5544,
      "##uction": 5545,
      "orders": 5546,
      "##DS": 5547,
      "positive": 5548,
      "1841": 5549,
      "##hew": 5550,
      "Fell": 5551,
      "cup": 5552,
      "Home": 5553,
      "##ras": 5554,
      "fund": 5555,
      "sex": 5556,
      "knows": 5557,
      "heaven": 5558,
      "slightly": 5559,
      "lordship": 5560,
      "specific": 5561,
      "arrangement": 5562,
      "German": 5563,
      "ih": 5564,
      "irregular": 5565,
      "Gold": 5566,
      "Position": 5567,
      "Alexander": 5568,
      "Pass": 5569,
      "earnest": 5570,
      "##teenth": 5571,
      "writer": 5572,
      "AT": 5573,
      "afternoon": 5574,
      "Stone": 5575,
      "waters": 5576,
      "Ul": 5577,
      "excited": 5578,
      "tab": 5579,
      "##ensions": 5580,
      "tide": 5581,
      "characters": 5582,
      "details": 5583,
      "drew": 5584,
      "##ala": 5585,
      "Ha": 5586,
      "pill": 5587,
      "##ounced": 5588,
      "confir": 5589,
      "absence": 5590,
      "absor": 5591,
      "assemb": 5592,
      "arranged": 5593,
      "conve": 5594,
      "espece": 5595,
      "display": 5596,
      "text": 5597,
      "sensible": 5598,
      "composition": 5599,
      "##change": 5600,
      "astronom": 5601,
      "Sa": 5602,
      "App": 5603,
      "bis": 5604,
      "roof": 5605,
      "precise": 5606,
      "##ilis": 5607,
      "##uns": 5608,
      "Hol": 5609,
      "1829": 5610,
      "morrow": 5611,
      "Sea": 5612,
      "rule": 5613,
      "##etch": 5614,
      "Proceed": 5615,
      "stock": 5616,
      "##enses": 5617,
      "smile": 5618,
      "continu": 5619,
      "erect": 5620,
      "lives": 5621,
      "assured": 5622,
      "##aris": 5623,
      "inhabitants": 5624,
      "More": 5625,
      "dream": 5626,
      "Doctor": 5627,
      "religion": 5628,
      "inscription": 5629,
      "Highness": 5630,
      "false": 5631,
      "Dut": 5632,
      "informed": 5633,
      "Ball": 5634,
      "Holl": 5635,
      "aussi": 5636,
      "##urches": 5637,
      "floor": 5638,
      "Bri": 5639,
      "inferior": 5640,
      "spr": 5641,
      "pole": 5642,
      "upwards": 5643,
      "##onym": 5644,
      "ways": 5645,
      "teles": 5646,
      "vii": 5647,
      "lear": 5648,
      "tail": 5649,
      "##ustri": 5650,
      "phosph": 5651,
      "arter": 5652,
      "ef": 5653,
      "Nav": 5654,
      "##erable": 5655,
      "noticed": 5656,
      "3°": 5657,
      "##icked": 5658,
      "defend": 5659,
      "##bly": 5660,
      "Miscell": 5661,
      "nu": 5662,
      "1839": 5663,
      "medium": 5664,
      "ju": 5665,
      "##zz": 5666,
      "XXX": 5667,
      "Even": 5668,
      "Venet": 5669,
      "Head": 5670,
      "Johann": 5671,
      "doc": 5672,
      "unknown": 5673,
      "Bay": 5674,
      "clay": 5675,
      "showed": 5676,
      "Supp": 5677,
      "ice": 5678,
      "theor": 5679,
      "fallen": 5680,
      "brass": 5681,
      "##astern": 5682,
      "##acity": 5683,
      "visited": 5684,
      "##20": 5685,
      "fifty": 5686,
      "alle": 5687,
      "daily": 5688,
      "narr": 5689,
      "##mission": 5690,
      "##las": 5691,
      "American": 5692,
      "1820": 5693,
      "Survey": 5694,
      "dog": 5695,
      "vap": 5696,
      "suspect": 5697,
      "analysis": 5698,
      "eee": 5699,
      "trois": 5700,
      "Very": 5701,
      "weeks": 5702,
      "discourse": 5703,
      "god": 5704,
      "abund": 5705,
      "tru": 5706,
      "1836": 5707,
      "##insi": 5708,
      "nerve": 5709,
      "##IA": 5710,
      "happiness": 5711,
      "ej": 5712,
      "sad": 5713,
      "##eal": 5714,
      "minister": 5715,
      "Chap": 5716,
      "dign": 5717,
      "##oken": 5718,
      "Decl": 5719,
      "Meeting": 5720,
      "ran": 5721,
      "special": 5722,
      "escape": 5723,
      "bishop": 5724,
      "##for": 5725,
      "entrance": 5726,
      "trouve": 5727,
      "maid": 5728,
      "##rel": 5729,
      "Margar": 5730,
      "##head": 5731,
      "transpar": 5732,
      "Found": 5733,
      "temp": 5734,
      "additional": 5735,
      "Philosophical": 5736,
      "##ees": 5737,
      "cool": 5738,
      "##isk": 5739,
      "cub": 5740,
      "##ILL": 5741,
      "stomach": 5742,
      "1821": 5743,
      "Commons": 5744,
      "nervous": 5745,
      "gather": 5746,
      "assistance": 5747,
      "suffered": 5748,
      "1840": 5749,
      "##standing": 5750,
      "MAR": 5751,
      "Among": 5752,
      "Distance": 5753,
      "BY": 5754,
      "Tri": 5755,
      "1819": 5756,
      "Wel": 5757,
      "outside": 5758,
      "stands": 5759,
      "Var": 5760,
      "Frank": 5761,
      "burst": 5762,
      "cart": 5763,
      "Jacob": 5764,
      "birth": 5765,
      "##irt": 5766,
      "whisper": 5767,
      "wel": 5768,
      "horses": 5769,
      "settled": 5770,
      "Fred": 5771,
      "dated": 5772,
      "While": 5773,
      "bord": 5774,
      "##bb": 5775,
      "tho": 5776,
      "compound": 5777,
      "proceedings": 5778,
      "##ldom": 5779,
      "Edmund": 5780,
      "AD": 5781,
      "showing": 5782,
      "comparison": 5783,
      "Wol": 5784,
      "Bre": 5785,
      "ber": 5786,
      "production": 5787,
      "sharp": 5788,
      "path": 5789,
      "##rary": 5790,
      "sep": 5791,
      "Pap": 5792,
      "##omb": 5793,
      "1834": 5794,
      "judge": 5795,
      "mir": 5796,
      "##estic": 5797,
      "trace": 5798,
      "sake": 5799,
      "vit": 5800,
      "##rest": 5801,
      "pref": 5802,
      "Rep": 5803,
      "##ifying": 5804,
      "violent": 5805,
      "reach": 5806,
      "##ertained": 5807,
      "CL": 5808,
      "##olic": 5809,
      "##ographical": 5810,
      "crystals": 5811,
      "latitude": 5812,
      "bearing": 5813,
      "obv": 5814,
      "Madame": 5815,
      "##gend": 5816,
      "exert": 5817,
      "aa": 5818,
      "oo": 5819,
      "touching": 5820,
      "ba": 5821,
      "ton": 5822,
      "##icted": 5823,
      "believed": 5824,
      "tiss": 5825,
      "##like": 5826,
      "shore": 5827,
      "silence": 5828,
      "nations": 5829,
      "jus": 5830,
      "picture": 5831,
      "accord": 5832,
      "reven": 5833,
      "##cclesi": 5834,
      "tomb": 5835,
      "liquid": 5836,
      "Jud": 5837,
      "##cientific": 5838,
      "##over": 5839,
      "##gl": 5840,
      "##یا": 5841,
      "roots": 5842,
      "Prop": 5843,
      "Brown": 5844,
      "##ALL": 5845,
      "Dist": 5846,
      "pag": 5847,
      "frequent": 5848,
      "mes": 5849,
      "perpendicular": 5850,
      "1832": 5851,
      "annual": 5852,
      "SS": 5853,
      "##ators": 5854,
      "##otes": 5855,
      "induced": 5856,
      "Foot": 5857,
      "dare": 5858,
      "gal": 5859,
      "poll": 5860,
      "Step": 5861,
      "event": 5862,
      "Bod": 5863,
      "##ori": 5864,
      "streets": 5865,
      "Mel": 5866,
      "##bled": 5867,
      "circular": 5868,
      "pendulum": 5869,
      "ingen": 5870,
      "meaning": 5871,
      "erected": 5872,
      "WOR": 5873,
      "site": 5874,
      "material": 5875,
      "disposed": 5876,
      "##rank": 5877,
      "central": 5878,
      "pap": 5879,
      "won": 5880,
      "straight": 5881,
      "oi": 5882,
      "##ardon": 5883,
      "celle": 5884,
      "ignor": 5885,
      "##ancing": 5886,
      "request": 5887,
      "strict": 5888,
      "Cler": 5889,
      "##rap": 5890,
      "creature": 5891,
      "ships": 5892,
      "append": 5893,
      "##pended": 5894,
      "proud": 5895,
      "1837": 5896,
      "manuscript": 5897,
      "treated": 5898,
      "##thern": 5899,
      "##hedral": 5900,
      "Newton": 5901,
      "Alb": 5902,
      "commonly": 5903,
      "##ulo": 5904,
      "10s": 5905,
      "goes": 5906,
      "Illustr": 5907,
      "elegant": 5908,
      "##gi": 5909,
      "explanation": 5910,
      "Pitt": 5911,
      "aunt": 5912,
      "breast": 5913,
      "##inced": 5914,
      "steam": 5915,
      "prevail": 5916,
      "leading": 5917,
      "oxide": 5918,
      "horizontal": 5919,
      "metals": 5920,
      "amb": 5921,
      "tract": 5922,
      "##LL": 5923,
      "##cel": 5924,
      "features": 5925,
      "potash": 5926,
      "Experiments": 5927,
      "BR": 5928,
      "disposition": 5929,
      "constitution": 5930,
      "##house": 5931,
      "commer": 5932,
      "##bot": 5933,
      "tran": 5934,
      "external": 5935,
      "LA": 5936,
      "101": 5937,
      "medic": 5938,
      "cellules": 5939,
      "Id": 5940,
      "##esses": 5941,
      "boys": 5942,
      "Str": 5943,
      "##ACK": 5944,
      "wholly": 5945,
      "velocity": 5946,
      "HIST": 5947,
      "corner": 5948,
      "tiie": 5949,
      "##aft": 5950,
      "regarded": 5951,
      "##ima": 5952,
      "Dissert": 5953,
      "SE": 5954,
      "Three": 5955,
      "birds": 5956,
      "Bru": 5957,
      "forced": 5958,
      "mission": 5959,
      "owing": 5960,
      "##asse": 5961,
      "##elles": 5962,
      "instruct": 5963,
      "ladyship": 5964,
      "Chair": 5965,
      "flowers": 5966,
      "hem": 5967,
      "united": 5968,
      "elements": 5969,
      "broke": 5970,
      "Att": 5971,
      "aug": 5972,
      "tum": 5973,
      "micros": 5974,
      "##anch": 5975,
      "bitter": 5976,
      "hopes": 5977,
      "quart": 5978,
      "##iber": 5979,
      "impression": 5980,
      "hes": 5981,
      "##pri": 5982,
      "##entes": 5983,
      "##aks": 5984,
      "##omp": 5985,
      "quod": 5986,
      "intensity": 5987,
      "anxious": 5988,
      "##rig": 5989,
      "##ATION": 5990,
      "clean": 5991,
      "Mill": 5992,
      "oh": 5993,
      "loved": 5994,
      "##unicated": 5995,
      "Indeed": 5996,
      "Messrs": 5997,
      "Member": 5998,
      "unfortun": 5999,
      "bore": 6000,
      "explain": 6001,
      "examine": 6002,
      "deeply": 6003,
      "popular": 6004,
      "music": 6005,
      "patron": 6006,
      "Jane": 6007,
      "Kill": 6008,
      "inse": 6009,
      "confidence": 6010,
      "artific": 6011,
      "inclined": 6012,
      "rough": 6013,
      "accounts": 6014,
      "MR": 6015,
      "##oria": 6016,
      "##ructed": 6017,
      "communicated": 6018,
      "calculated": 6019,
      "propos": 6020,
      "anno": 6021,
      "Remarks": 6022,
      "investigation": 6023,
      "estim": 6024,
      "brill": 6025,
      "confirm": 6026,
      "repair": 6027,
      "wished": 6028,
      "##icated": 6029,
      "##aked": 6030,
      "comparative": 6031,
      "ham": 6032,
      "termin": 6033,
      "Tor": 6034,
      "viii": 6035,
      "##yt": 6036,
      "Ga": 6037,
      "sought": 6038,
      "##bted": 6039,
      "Carol": 6040,
      "group": 6041,
      "sli": 6042,
      "speed": 6043,
      "ascertained": 6044,
      "unf": 6045,
      "severe": 6046,
      "Soci": 6047,
      "variation": 6048,
      "##uries": 6049,
      "soil": 6050,
      "1838": 6051,
      "##isher": 6052,
      "Price": 6053,
      "Serm": 6054,
      "105": 6055,
      "declared": 6056,
      "Florence": 6057,
      "supper": 6058,
      "View": 6059,
      "contents": 6060,
      "meridian": 6061,
      "alk": 6062,
      "accomp": 6063,
      "disease": 6064,
      "Holy": 6065,
      "apice": 6066,
      "tom": 6067,
      "doctr": 6068,
      "source": 6069,
      "Bon": 6070,
      "quality": 6071,
      "tongue": 6072,
      "Ye": 6073,
      "twice": 6074,
      "Davy": 6075,
      "establishment": 6076,
      "Fellows": 6077,
      "Dif": 6078,
      "bold": 6079,
      "Description": 6080,
      "ornament": 6081,
      "materials": 6082,
      "##ography": 6083,
      "##lyt": 6084,
      "##acle": 6085,
      "distances": 6086,
      "##arium": 6087,
      "innoc": 6088,
      "Bet": 6089,
      "ratio": 6090,
      "tells": 6091,
      "attract": 6092,
      "About": 6093,
      "##piration": 6094,
      "fais": 6095,
      "##bro": 6096,
      "army": 6097,
      "striking": 6098,
      "appoint": 6099,
      "mountain": 6100,
      "rapidly": 6101,
      "aston": 6102,
      "##iit": 6103,
      "assumed": 6104,
      "##ان": 6105,
      "speech": 6106,
      "##hors": 6107,
      "ix": 6108,
      "Carl": 6109,
      "calf": 6110,
      "##ferred": 6111,
      "##ieu": 6112,
      "goods": 6113,
      "spoken": 6114,
      "pleasant": 6115,
      "egg": 6116,
      "attack": 6117,
      "recently": 6118,
      "strongly": 6119,
      "sav": 6120,
      "honest": 6121,
      "decided": 6122,
      "constantly": 6123,
      "Rh": 6124,
      "thinking": 6125,
      "ears": 6126,
      "affairs": 6127,
      "##IUS": 6128,
      "Jer": 6129,
      "sans": 6130,
      "##ja": 6131,
      "کے": 6132,
      "actually": 6133,
      "wanted": 6134,
      "tower": 6135,
      "Temple": 6136,
      "Every": 6137,
      "laugh": 6138,
      "desired": 6139,
      "Heaven": 6140,
      "interrupted": 6141,
      "Tho": 6142,
      "slowly": 6143,
      "tant": 6144,
      "reflect": 6145,
      "negative": 6146,
      "extremity": 6147,
      "rar": 6148,
      "##vels": 6149,
      "host": 6150,
      "##yer": 6151,
      "##atics": 6152,
      "furnished": 6153,
      "Bed": 6154,
      "Norm": 6155,
      "111": 6156,
      "serious": 6157,
      "##iscop": 6158,
      "range": 6159,
      "##isted": 6160,
      "##itors": 6161,
      "search": 6162,
      "suiv": 6163,
      "boat": 6164,
      "##po": 6165,
      "everything": 6166,
      "buried": 6167,
      "Pages": 6168,
      "aver": 6169,
      "quo": 6170,
      "events": 6171,
      "Cro": 6172,
      "ammonia": 6173,
      "quelques": 6174,
      "##oric": 6175,
      "servants": 6176,
      "chron": 6177,
      "Sciences": 6178,
      "active": 6179,
      "penet": 6180,
      "Tables": 6181,
      "##ulus": 6182,
      "fame": 6183,
      "##ench": 6184,
      "libri": 6185,
      "vig": 6186,
      "##OV": 6187,
      "ada": 6188,
      "130": 6189,
      "##ifer": 6190,
      "##ication": 6191,
      "pull": 6192,
      "##eem": 6193,
      "5s": 6194,
      "Down": 6195,
      "##sex": 6196,
      "deduced": 6197,
      "Bor": 6198,
      "classes": 6199,
      "bill": 6200,
      "ore": 6201,
      "1833": 6202,
      "Rog": 6203,
      "powder": 6204,
      "crowd": 6205,
      "Nic": 6206,
      "##opher": 6207,
      "satisfied": 6208,
      "sion": 6209,
      "laug": 6210,
      "vary": 6211,
      "Gil": 6212,
      "miss": 6213,
      "Africa": 6214,
      "##quire": 6215,
      "Sund": 6216,
      "village": 6217,
      "2d": 6218,
      "forget": 6219,
      "calm": 6220,
      "##uals": 6221,
      "seldom": 6222,
      "obst": 6223,
      "##cked": 6224,
      "promise": 6225,
      "4th": 6226,
      "bridge": 6227,
      "IX": 6228,
      "vul": 6229,
      "arise": 6230,
      "1818": 6231,
      "Princip": 6232,
      "clo": 6233,
      "image": 6234,
      "dur": 6235,
      "##edom": 6236,
      "##orious": 6237,
      "corpus": 6238,
      "Elect": 6239,
      "##ada": 6240,
      "##opp": 6241,
      "male": 6242,
      "##HN": 6243,
      "approach": 6244,
      "##kin": 6245,
      "Bow": 6246,
      "thereof": 6247,
      "##aves": 6248,
      "originally": 6249,
      "fu": 6250,
      "grew": 6251,
      "108": 6252,
      "Ces": 6253,
      "motions": 6254,
      "PAR": 6255,
      "Margaret": 6256,
      "sitting": 6257,
      "300": 6258,
      "Ward": 6259,
      "##omed": 6260,
      "##osen": 6261,
      "corn": 6262,
      "battle": 6263,
      "##cle": 6264,
      "trem": 6265,
      "mixture": 6266,
      "Grand": 6267,
      "expense": 6268,
      "##PP": 6269,
      "pron": 6270,
      "coat": 6271,
      "Adm": 6272,
      "surfaces": 6273,
      "running": 6274,
      "##oting": 6275,
      "abroad": 6276,
      "##raid": 6277,
      "yards": 6278,
      "##AU": 6279,
      "##onde": 6280,
      "instruments": 6281,
      "rend": 6282,
      "confined": 6283,
      "thickness": 6284,
      "joined": 6285,
      "directions": 6286,
      "Sat": 6287,
      "##sey": 6288,
      "Gar": 6289,
      "##IE": 6290,
      "##ician": 6291,
      "OR": 6292,
      "##IM": 6293,
      "tempor": 6294,
      "reasons": 6295,
      "metallic": 6296,
      "virtue": 6297,
      "dism": 6298,
      "dc": 6299,
      "revol": 6300,
      "Dev": 6301,
      "cultiv": 6302,
      "AB": 6303,
      "wli": 6304,
      "##este": 6305,
      "140": 6306,
      "##wers": 6307,
      "3s": 6308,
      "Boy": 6309,
      "ener": 6310,
      "Lion": 6311,
      "Proceedings": 6312,
      "fever": 6313,
      "##pent": 6314,
      "##atical": 6315,
      "opt": 6316,
      "tn": 6317,
      "intention": 6318,
      "occasioned": 6319,
      "enlar": 6320,
      "##acc": 6321,
      "acut": 6322,
      "Eg": 6323,
      "##ky": 6324,
      "Jes": 6325,
      "io": 6326,
      "During": 6327,
      "pit": 6328,
      "##arian": 6329,
      "supplied": 6330,
      "##dam": 6331,
      "smo": 6332,
      "tf": 6333,
      "apres": 6334,
      "plante": 6335,
      "poster": 6336,
      "Barb": 6337,
      "##acher": 6338,
      "major": 6339,
      "marks": 6340,
      "truly": 6341,
      "hole": 6342,
      "invent": 6343,
      "embry": 6344,
      "£1": 6345,
      "ages": 6346,
      "regret": 6347,
      "ED": 6348,
      "Archbishop": 6349,
      "fifth": 6350,
      "duties": 6351,
      "withd": 6352,
      "attraction": 6353,
      "##aient": 6354,
      "##amen": 6355,
      "intelligence": 6356,
      "Dur": 6357,
      "##using": 6358,
      "acted": 6359,
      "fly": 6360,
      "##occo": 6361,
      "##cop": 6362,
      "Prot": 6363,
      "stranger": 6364,
      "stairs": 6365,
      "##urity": 6366,
      "##istol": 6367,
      "explained": 6368,
      "cy": 6369,
      "storm": 6370,
      "seek": 6371,
      "ori": 6372,
      "northern": 6373,
      "Marquis": 6374,
      "requir": 6375,
      "imperfect": 6376,
      "differences": 6377,
      "##yd": 6378,
      "proble": 6379,
      "longitud": 6380,
      "##ulous": 6381,
      "103": 6382,
      "thanks": 6383,
      "windows": 6384,
      "Cong": 6385,
      "Sum": 6386,
      "##ste": 6387,
      "market": 6388,
      "##ston": 6389,
      "##UE": 6390,
      "##enes": 6391,
      "colon": 6392,
      "128": 6393,
      "Ves": 6394,
      "considerably": 6395,
      "agreed": 6396,
      "Cle": 6397,
      "##agement": 6398,
      "Op": 6399,
      "##TIC": 6400,
      "##rated": 6401,
      "skin": 6402,
      "Note": 6403,
      "practical": 6404,
      "125": 6405,
      "##shire": 6406,
      "##DE": 6407,
      "lance": 6408,
      "Had": 6409,
      "perpet": 6410,
      "##auc": 6411,
      "Italian": 6412,
      "Many": 6413,
      "cells": 6414,
      "infinite": 6415,
      "satisfaction": 6416,
      "Mort": 6417,
      "##thus": 6418,
      "almack": 6419,
      "knight": 6420,
      "steel": 6421,
      "##wen": 6422,
      "Though": 6423,
      "##ور": 6424,
      "##rived": 6425,
      "104": 6426,
      "102": 6427,
      "tubes": 6428,
      "lect": 6429,
      "Sold": 6430,
      "##inction": 6431,
      "107": 6432,
      "mountains": 6433,
      "famous": 6434,
      "##EST": 6435,
      "perceived": 6436,
      "Italy": 6437,
      "Cross": 6438,
      "##SE": 6439,
      "##uts": 6440,
      "##erved": 6441,
      "bone": 6442,
      "hero": 6443,
      "Memoirs": 6444,
      "thermometer": 6445,
      "Mic": 6446,
      "mile": 6447,
      "western": 6448,
      "##withstanding": 6449,
      "Besides": 6450,
      "##gra": 6451,
      "Fore": 6452,
      "profession": 6453,
      "Come": 6454,
      "advance": 6455,
      "##ea": 6456,
      "rig": 6457,
      "anter": 6458,
      "impress": 6459,
      "149": 6460,
      "column": 6461,
      "treatise": 6462,
      "moist": 6463,
      "whereas": 6464,
      "nearer": 6465,
      "##attery": 6466,
      "regul": 6467,
      "lit": 6468,
      "Nap": 6469,
      "##after": 6470,
      "##unes": 6471,
      "SP": 6472,
      "properly": 6473,
      "Clar": 6474,
      "##mense": 6475,
      "Dra": 6476,
      "moral": 6477,
      "perman": 6478,
      "prism": 6479,
      "Saxon": 6480,
      "xiii": 6481,
      "1844": 6482,
      "companion": 6483,
      "personal": 6484,
      "##erman": 6485,
      "writers": 6486,
      "110": 6487,
      "aur": 6488,
      "Offic": 6489,
      "thinks": 6490,
      "##lia": 6491,
      "respond": 6492,
      "fancy": 6493,
      "actual": 6494,
      "##ENTS": 6495,
      "OP": 6496,
      "aN": 6497,
      "##za": 6498,
      "##actory": 6499,
      "ourselves": 6500,
      "##phy": 6501,
      "Series": 6502,
      "Rain": 6503,
      "Son": 6504,
      "accurate": 6505,
      "Bull": 6506,
      "##ersed": 6507,
      "afraid": 6508,
      "mistress": 6509,
      "connex": 6510,
      "heated": 6511,
      "cheer": 6512,
      "Isa": 6513,
      "utmost": 6514,
      "Peace": 6515,
      "standard": 6516,
      "schol": 6517,
      "consisting": 6518,
      "Disc": 6519,
      "wherein": 6520,
      "element": 6521,
      "occasions": 6522,
      "Bank": 6523,
      "particulars": 6524,
      "bi": 6525,
      "##cean": 6526,
      "charged": 6527,
      "refract": 6528,
      "hollow": 6529,
      "Ld": 6530,
      "##ho": 6531,
      "##RY": 6532,
      "Those": 6533,
      "trib": 6534,
      "delicate": 6535,
      "fright": 6536,
      "Method": 6537,
      "eminent": 6538,
      "Sand": 6539,
      "nouve": 6540,
      "##AIN": 6541,
      "botan": 6542,
      "##ims": 6543,
      "500": 6544,
      "Ta": 6545,
      "yard": 6546,
      "beat": 6547,
      "symp": 6548,
      "experienced": 6549,
      "Mi": 6550,
      "contra": 6551,
      "Treasurer": 6552,
      "Portug": 6553,
      "129": 6554,
      "Edw": 6555,
      "memor": 6556,
      "persu": 6557,
      "Histoire": 6558,
      "##aisse": 6559,
      "HISTORY": 6560,
      "gross": 6561,
      "keeping": 6562,
      "unh": 6563,
      "pocket": 6564,
      "Mathem": 6565,
      "worse": 6566,
      "relations": 6567,
      "agreement": 6568,
      "residence": 6569,
      "##ese": 6570,
      "Wat": 6571,
      "Kent": 6572,
      "##itis": 6573,
      "perceive": 6574,
      "religious": 6575,
      "vellum": 6576,
      "fault": 6577,
      "##nn": 6578,
      "questions": 6579,
      "AS": 6580,
      "##fo": 6581,
      "##ka": 6582,
      "Are": 6583,
      "mess": 6584,
      "threw": 6585,
      "reform": 6586,
      "blind": 6587,
      "Dean": 6588,
      "##antic": 6589,
      "conditions": 6590,
      "##iet": 6591,
      "Grace": 6592,
      "##usions": 6593,
      "##essed": 6594,
      "shop": 6595,
      "##iac": 6596,
      "judgment": 6597,
      "ami": 6598,
      "interp": 6599,
      "terrible": 6600,
      "immense": 6601,
      "##cu": 6602,
      "##issent": 6603,
      "functions": 6604,
      "Arab": 6605,
      "##ex": 6606,
      "##ricult": 6607,
      "curios": 6608,
      "moving": 6609,
      "##ocal": 6610,
      "exem": 6611,
      "##chel": 6612,
      "share": 6613,
      "committed": 6614,
      "sust": 6615,
      "resp": 6616,
      "Div": 6617,
      "snow": 6618,
      "##kind": 6619,
      "hung": 6620,
      "Sus": 6621,
      "##voc": 6622,
      "electro": 6623,
      "thank": 6624,
      "ruin": 6625,
      "##ronomy": 6626,
      "ihe": 6627,
      "Death": 6628,
      "ig": 6629,
      "سے": 6630,
      "106": 6631,
      "stro": 6632,
      "env": 6633,
      "##iation": 6634,
      "##borough": 6635,
      "##attered": 6636,
      "putting": 6637,
      "execution": 6638,
      "joint": 6639,
      "Merc": 6640,
      "##atherine": 6641,
      "necessarily": 6642,
      "Anim": 6643,
      "acquaintance": 6644,
      "type": 6645,
      "Diff": 6646,
      "fan": 6647,
      "Young": 6648,
      "operations": 6649,
      "bent": 6650,
      "resol": 6651,
      "root": 6652,
      "##vereign": 6653,
      "Opera": 6654,
      "faces": 6655,
      "##onymous": 6656,
      "Script": 6657,
      "holding": 6658,
      "clouds": 6659,
      "caly": 6660,
      "familiar": 6661,
      "Fam": 6662,
      "Pope": 6663,
      "##ads": 6664,
      "sons": 6665,
      "Voyage": 6666,
      "##ply": 6667,
      "carrying": 6668,
      "##gel": 6669,
      "##istic": 6670,
      "poles": 6671,
      "tb": 6672,
      "Edition": 6673,
      "131": 6674,
      "Cre": 6675,
      "Au": 6676,
      "methods": 6677,
      "invol": 6678,
      "Saint": 6679,
      "shr": 6680,
      "Dombey": 6681,
      "working": 6682,
      "confirmed": 6683,
      "presents": 6684,
      "lui": 6685,
      "##alia": 6686,
      "voyage": 6687,
      "1843": 6688,
      "ei": 6689,
      "acquired": 6690,
      "obtus": 6691,
      "relief": 6692,
      "##onis": 6693,
      "##TE": 6694,
      "organs": 6695,
      "horn": 6696,
      "decre": 6697,
      "Earth": 6698,
      "dull": 6699,
      "tall": 6700,
      "throw": 6701,
      "113": 6702,
      "defect": 6703,
      "liquor": 6704,
      "Holland": 6705,
      "##cclesiast": 6706,
      "Hugh": 6707,
      "outer": 6708,
      "volumes": 6709,
      "BE": 6710,
      "Books": 6711,
      "conject": 6712,
      "Anton": 6713,
      "geomet": 6714,
      "arrival": 6715,
      "torn": 6716,
      "##orous": 6717,
      "pride": 6718,
      "remarked": 6719,
      "Jos": 6720,
      "Mod": 6721,
      "harm": 6722,
      "ceased": 6723,
      "dressed": 6724,
      "##anus": 6725,
      "citiz": 6726,
      "Linn": 6727,
      "frame": 6728,
      "accuracy": 6729,
      "hospital": 6730,
      "##uum": 6731,
      "stop": 6732,
      "incon": 6733,
      "ainsi": 6734,
      "seized": 6735,
      "##inson": 6736,
      "Fle": 6737,
      "map": 6738,
      "##line": 6739,
      "defence": 6740,
      "vertical": 6741,
      "splendid": 6742,
      "mighty": 6743,
      "qua": 6744,
      "triumph": 6745,
      "conj": 6746,
      "##utenant": 6747,
      "Yor": 6748,
      "iu": 6749,
      "lose": 6750,
      "diamet": 6751,
      "Under": 6752,
      "1842": 6753,
      "##mouth": 6754,
      "sho": 6755,
      "opinions": 6756,
      "##ny": 6757,
      "afforded": 6758,
      "killed": 6759,
      "##ilia": 6760,
      "##yled": 6761,
      "ea": 6762,
      "Father": 6763,
      "##ira": 6764,
      "mu": 6765,
      "breath": 6766,
      "suggested": 6767,
      "advent": 6768,
      "##ioribus": 6769,
      "Ker": 6770,
      "##key": 6771,
      "earl": 6772,
      "patient": 6773,
      "falling": 6774,
      "avail": 6775,
      "Sher": 6776,
      "Ty": 6777,
      "Andrew": 6778,
      "conducted": 6779,
      "agreeable": 6780,
      "Hum": 6781,
      "Therm": 6782,
      "HE": 6783,
      "##asp": 6784,
      "az": 6785,
      "ecli": 6786,
      "monument": 6787,
      "seated": 6788,
      "foundation": 6789,
      "Lane": 6790,
      "##gest": 6791,
      "##rous": 6792,
      "Hard": 6793,
      "##50": 6794,
      "##erate": 6795,
      "##emon": 6796,
      "jusqu": 6797,
      "caught": 6798,
      "devoted": 6799,
      "##uret": 6800,
      "product": 6801,
      "Pla": 6802,
      "148": 6803,
      "Since": 6804,
      "jun": 6805,
      "abst": 6806,
      "exception": 6807,
      "GE": 6808,
      "blow": 6809,
      "##ancell": 6810,
      "Hu": 6811,
      "commenced": 6812,
      "Geo": 6813,
      "fool": 6814,
      "credit": 6815,
      "wis": 6816,
      "Spir": 6817,
      "issued": 6818,
      "Vo": 6819,
      "occasionally": 6820,
      "118": 6821,
      "closely": 6822,
      "interval": 6823,
      "Bas": 6824,
      "##orated": 6825,
      "statement": 6826,
      "##60": 6827,
      "Communicated": 6828,
      "ALM": 6829,
      "Limerick": 6830,
      "117": 6831,
      "Bath": 6832,
      "shad": 6833,
      "clearly": 6834,
      "gre": 6835,
      "suit": 6836,
      "##ifications": 6837,
      "Institution": 6838,
      "demanded": 6839,
      "kindness": 6840,
      "toutes": 6841,
      "pil": 6842,
      "print": 6843,
      "increasing": 6844,
      "##aints": 6845,
      "encl": 6846,
      "function": 6847,
      "##note": 6848,
      "cab": 6849,
      "Gran": 6850,
      "##iture": 6851,
      "observing": 6852,
      "##peror": 6853,
      "corpor": 6854,
      "##xxx": 6855,
      "##iny": 6856,
      "distinctly": 6857,
      "argument": 6858,
      "lake": 6859,
      "becoming": 6860,
      "equival": 6861,
      "Six": 6862,
      "telescope": 6863,
      "##ardens": 6864,
      "##oln": 6865,
      "pressed": 6866,
      "dess": 6867,
      "##ounding": 6868,
      "stage": 6869,
      "##copes": 6870,
      "passes": 6871,
      "profound": 6872,
      "consid": 6873,
      "aNNO": 6874,
      "inquired": 6875,
      "121": 6876,
      "##ded": 6877,
      "arts": 6878,
      "sword": 6879,
      "Admir": 6880,
      "##YN": 6881,
      "quam": 6882,
      "Bridge": 6883,
      "proceeding": 6884,
      "presently": 6885,
      "109": 6886,
      "##chess": 6887,
      "##culis": 6888,
      "Adam": 6889,
      "##atu": 6890,
      "Inf": 6891,
      "Camp": 6892,
      "##pes": 6893,
      "earlier": 6894,
      "smooth": 6895,
      "147": 6896,
      "assert": 6897,
      "song": 6898,
      "tang": 6899,
      "##erum": 6900,
      "leurs": 6901,
      "noon": 6902,
      "apartment": 6903,
      "Lam": 6904,
      "grey": 6905,
      "##atomy": 6906,
      "Inn": 6907,
      "##lesh": 6908,
      "internal": 6909,
      "raise": 6910,
      "bos": 6911,
      "##UC": 6912,
      "##uris": 6913,
      "##idis": 6914,
      "Leg": 6915,
      "concluded": 6916,
      "##eless": 6917,
      "127": 6918,
      "publication": 6919,
      "carbonic": 6920,
      "Form": 6921,
      "Roy": 6922,
      "Low": 6923,
      "##ISC": 6924,
      "plusieurs": 6925,
      "holy": 6926,
      "4s": 6927,
      "Collection": 6928,
      "##ev": 6929,
      "##iend": 6930,
      "hearing": 6931,
      "##liest": 6932,
      "buildings": 6933,
      "MD": 6934,
      "triang": 6935,
      "salts": 6936,
      "fome": 6937,
      "noise": 6938,
      "secure": 6939,
      "Lug": 6940,
      "##uri": 6941,
      "herb": 6942,
      "##ache": 6943,
      "glance": 6944,
      "Pick": 6945,
      "ture": 6946,
      "sel": 6947,
      "##rifice": 6948,
      "leaf": 6949,
      "formula": 6950,
      "nost": 6951,
      "Astronom": 6952,
      "refraction": 6953,
      "Bern": 6954,
      "sinc": 6955,
      "memoir": 6956,
      "officer": 6957,
      "muscular": 6958,
      "dict": 6959,
      "lu": 6960,
      "##ucle": 6961,
      "COM": 6962,
      "breadth": 6963,
      "ejac": 6964,
      "DR": 6965,
      "##aling": 6966,
      "surprise": 6967,
      "lif": 6968,
      "400": 6969,
      "mineral": 6970,
      "surrounded": 6971,
      "##lytra": 6972,
      "##vol": 6973,
      "instantly": 6974,
      "hills": 6975,
      "mans": 6976,
      "##ationes": 6977,
      "flame": 6978,
      "##atorial": 6979,
      "rod": 6980,
      "tis": 6981,
      "sept": 6982,
      "##oked": 6983,
      "manifest": 6984,
      "vice": 6985,
      "##eding": 6986,
      "##usive": 6987,
      "Child": 6988,
      "sphere": 6989,
      "veins": 6990,
      "supported": 6991,
      "crime": 6992,
      "happen": 6993,
      "globe": 6994,
      "Civ": 6995,
      "thread": 6996,
      "hypothes": 6997,
      "Dat": 6998,
      "Dans": 6999,
      "Hers": 7000,
      "##eni": 7001,
      "spent": 7002,
      "volunt": 7003,
      "##ounce": 7004,
      "cruel": 7005,
      "##orted": 7006,
      "arising": 7007,
      "rom": 7008,
      "Franc": 7009,
      "##held": 7010,
      "##cester": 7011,
      "dissolved": 7012,
      "bark": 7013,
      "Gene": 7014,
      "Tab": 7015,
      "remar": 7016,
      "##URE": 7017,
      "platina": 7018,
      "respective": 7019,
      "electron": 7020,
      "Greg": 7021,
      "##atives": 7022,
      "Chief": 7023,
      "Bill": 7024,
      "Buck": 7025,
      "accompany": 7026,
      "##stown": 7027,
      "Order": 7028,
      "Moore": 7029,
      "Sun": 7030,
      "##izing": 7031,
      "thorough": 7032,
      "aspect": 7033,
      "fight": 7034,
      "intim": 7035,
      "sooner": 7036,
      "gang": 7037,
      "distribution": 7038,
      "##alty": 7039,
      "Covent": 7040,
      "Cape": 7041,
      "authors": 7042,
      "introduction": 7043,
      "##uminous": 7044,
      "NO": 7045,
      "convex": 7046,
      "shock": 7047,
      "content": 7048,
      "124": 7049,
      "rou": 7050,
      "moments": 7051,
      "acknowled": 7052,
      "pitch": 7053,
      "resist": 7054,
      "effected": 7055,
      "##chief": 7056,
      "Medic": 7057,
      "rob": 7058,
      "historical": 7059,
      "dip": 7060,
      "Hal": 7061,
      "chim": 7062,
      "Glen": 7063,
      "Men": 7064,
      "##itio": 7065,
      "endeavoured": 7066,
      "marg": 7067,
      "evap": 7068,
      "summ": 7069,
      "Circ": 7070,
      "morocco": 7071,
      "##imony": 7072,
      "grounds": 7073,
      "Ros": 7074,
      "alco": 7075,
      "##ungs": 7076,
      "Page": 7077,
      "Epistola": 7078,
      "ness": 7079,
      "grain": 7080,
      "seule": 7081,
      "##urg": 7082,
      "values": 7083,
      "rooms": 7084,
      "ease": 7085,
      "Linc": 7086,
      "##olis": 7087,
      "However": 7088,
      "River": 7089,
      "burning": 7090,
      "SC": 7091,
      "اس": 7092,
      "benefit": 7093,
      "loud": 7094,
      "illustrated": 7095,
      "ban": 7096,
      "##lyn": 7097,
      "Spanish": 7098,
      "sine": 7099,
      "recorded": 7100,
      "comment": 7101,
      "Luc": 7102,
      "churches": 7103,
      "unp": 7104,
      "Lew": 7105,
      "violence": 7106,
      "thorax": 7107,
      "improvement": 7108,
      "related": 7109,
      "physical": 7110,
      "wi": 7111,
      "cous": 7112,
      "medical": 7113,
      "Footnote": 7114,
      "eastern": 7115,
      "alarm": 7116,
      "144": 7117,
      "##yll": 7118,
      "Conf": 7119,
      "ct": 7120,
      "fold": 7121,
      "##alous": 7122,
      "discharge": 7123,
      "crim": 7124,
      "dreadful": 7125,
      "existing": 7126,
      "##iour": 7127,
      "Again": 7128,
      "##urd": 7129,
      "192": 7130,
      "Canter": 7131,
      "Sever": 7132,
      "ming": 7133,
      "##ITH": 7134,
      "##ilty": 7135,
      "silent": 7136,
      "Exp": 7137,
      "pardon": 7138,
      "adopt": 7139,
      "humour": 7140,
      "measured": 7141,
      "Lis": 7142,
      "138": 7143,
      "##utt": 7144,
      "133": 7145,
      "Crom": 7146,
      "FR": 7147,
      "Ross": 7148,
      "##rose": 7149,
      "Van": 7150,
      "##idents": 7151,
      "Isaac": 7152,
      "##ourn": 7153,
      "political": 7154,
      "education": 7155,
      "estate": 7156,
      "##lies": 7157,
      "Lough": 7158,
      "##gue": 7159,
      "eg": 7160,
      "##orter": 7161,
      "Def": 7162,
      "bare": 7163,
      "promised": 7164,
      "Countess": 7165,
      "tliat": 7166,
      "Sunday": 7167,
      "contract": 7168,
      "escaped": 7169,
      "Hom": 7170,
      "xix": 7171,
      "134": 7172,
      "Greenwich": 7173,
      "literature": 7174,
      "Stan": 7175,
      "instit": 7176,
      "elytra": 7177,
      "nt": 7178,
      "saf": 7179,
      "Tay": 7180,
      "limits": 7181,
      "List": 7182,
      "hind": 7183,
      "##night": 7184,
      "##inch": 7185,
      "domestic": 7186,
      "committee": 7187,
      "describe": 7188,
      "requis": 7189,
      "connexion": 7190,
      "inner": 7191,
      "##uble": 7192,
      "##ISH": 7193,
      "Vols": 7194,
      "Russ": 7195,
      "cher": 7196,
      "lateral": 7197,
      "expos": 7198,
      "114": 7199,
      "repro": 7200,
      "getting": 7201,
      "parliament": 7202,
      "inside": 7203,
      "##ARY": 7204,
      "profit": 7205,
      "Liver": 7206,
      "reck": 7207,
      "cavity": 7208,
      "masses": 7209,
      "Foundation": 7210,
      "tea": 7211,
      "belonged": 7212,
      "Direct": 7213,
      "##oster": 7214,
      "calls": 7215,
      "celles": 7216,
      "included": 7217,
      "Mond": 7218,
      "Perhaps": 7219,
      "flesh": 7220,
      "##ef": 7221,
      "convinced": 7222,
      "Virgin": 7223,
      "##erson": 7224,
      "Dor": 7225,
      "loose": 7226,
      "resistance": 7227,
      "##anged": 7228,
      "incident": 7229,
      "Justice": 7230,
      "dern": 7231,
      "nin": 7232,
      "##ients": 7233,
      "circulation": 7234,
      "exercise": 7235,
      "learning": 7236,
      "limited": 7237,
      "##mm": 7238,
      "unus": 7239,
      "melt": 7240,
      "Bibli": 7241,
      "tan": 7242,
      "fragments": 7243,
      "5th": 7244,
      "Day": 7245,
      "soit": 7246,
      "123": 7247,
      "Append": 7248,
      "threat": 7249,
      "issue": 7250,
      "combination": 7251,
      "eo": 7252,
      "nd": 7253,
      "##othing": 7254,
      "sorry": 7255,
      "Ov": 7256,
      "##GH": 7257,
      "baron": 7258,
      "disapp": 7259,
      "convenient": 7260,
      "Ur": 7261,
      "##umer": 7262,
      "strata": 7263,
      "reflected": 7264,
      "fra": 7265,
      "transparent": 7266,
      "scientific": 7267,
      "families": 7268,
      "contempl": 7269,
      "##bar": 7270,
      "retired": 7271,
      "##URT": 7272,
      "acting": 7273,
      "avoid": 7274,
      "Ti": 7275,
      "tous": 7276,
      "survey": 7277,
      "occurs": 7278,
      "suspended": 7279,
      "enemy": 7280,
      "poem": 7281,
      "unhapp": 7282,
      "beds": 7283,
      "Imper": 7284,
      "aband": 7285,
      "elong": 7286,
      "##taic": 7287,
      "##cli": 7288,
      "assure": 7289,
      "advice": 7290,
      "dangerous": 7291,
      "Madrid": 7292,
      "foss": 7293,
      "favourite": 7294,
      "##isation": 7295,
      "chosen": 7296,
      "##cules": 7297,
      "favourable": 7298,
      "fate": 7299,
      "##rents": 7300,
      "comprehend": 7301,
      "soda": 7302,
      "library": 7303,
      "talking": 7304,
      "Ay": 7305,
      "##yright": 7306,
      "kiss": 7307,
      "##terday": 7308,
      "gland": 7309,
      "rene": 7310,
      "southern": 7311,
      "Kir": 7312,
      "consult": 7313,
      "behalf": 7314,
      "strugg": 7315,
      "Hay": 7316,
      "zeal": 7317,
      "actions": 7318,
      "petition": 7319,
      "py": 7320,
      "pear": 7321,
      "141": 7322,
      "errors": 7323,
      "military": 7324,
      "Lieut": 7325,
      "restored": 7326,
      "##CCC": 7327,
      "xi": 7328,
      "growth": 7329,
      "physi": 7330,
      "nobleman": 7331,
      "faisce": 7332,
      "##owne": 7333,
      "average": 7334,
      "Test": 7335,
      "bears": 7336,
      "wear": 7337,
      "grass": 7338,
      "universal": 7339,
      "finished": 7340,
      "specul": 7341,
      "lane": 7342,
      "seu": 7343,
      "proceeds": 7344,
      "126": 7345,
      "Norbury": 7346,
      "Miscellaneous": 7347,
      "using": 7348,
      "Associ": 7349,
      "##FF": 7350,
      "altered": 7351,
      "Mons": 7352,
      "SO": 7353,
      "Dutch": 7354,
      "von": 7355,
      "Poet": 7356,
      "Lincoln": 7357,
      "Ram": 7358,
      "area": 7359,
      "Code": 7360,
      "Poor": 7361,
      "##lim": 7362,
      "ellipt": 7363,
      "researches": 7364,
      "acts": 7365,
      "Anglo": 7366,
      "pt": 7367,
      "Voyages": 7368,
      "verte": 7369,
      "Li": 7370,
      "consent": 7371,
      "camp": 7372,
      "119": 7373,
      "tremb": 7374,
      "petiol": 7375,
      "exha": 7376,
      "Emily": 7377,
      "electronic": 7378,
      "JOHN": 7379,
      "subsequent": 7380,
      "wo": 7381,
      "##hib": 7382,
      "##rog": 7383,
      "obvious": 7384,
      "##ار": 7385,
      "Ped": 7386,
      "enable": 7387,
      "knowing": 7388,
      "miner": 7389,
      "prospect": 7390,
      "rude": 7391,
      "##orus": 7392,
      "Ancient": 7393,
      "##uty": 7394,
      "##never": 7395,
      "Turn": 7396,
      "ah": 7397,
      "completed": 7398,
      "Squ": 7399,
      "135": 7400,
      "zinc": 7401,
      "thereby": 7402,
      "##quel": 7403,
      "1890": 7404,
      "compelled": 7405,
      "curve": 7406,
      "137": 7407,
      "oc": 7408,
      "##ieres": 7409,
      "3d": 7410,
      "TR": 7411,
      "##ulae": 7412,
      "election": 7413,
      "heir": 7414,
      "Cette": 7415,
      "1814": 7416,
      "Gentlemen": 7417,
      "ward": 7418,
      "stir": 7419,
      "##agne": 7420,
      "concent": 7421,
      "Ru": 7422,
      "##mas": 7423,
      "##EY": 7424,
      "115": 7425,
      "Seven": 7426,
      "aside": 7427,
      "connection": 7428,
      "Sac": 7429,
      "##cles": 7430,
      "##esc": 7431,
      "essential": 7432,
      "queen": 7433,
      "rights": 7434,
      "NEW": 7435,
      "##aceus": 7436,
      "Transl": 7437,
      "independent": 7438,
      "nucle": 7439,
      "##ruption": 7440,
      "##fey": 7441,
      "examples": 7442,
      "hoped": 7443,
      "gh": 7444,
      "1800": 7445,
      "##arse": 7446,
      "##itu": 7447,
      "Cu": 7448,
      "PI": 7449,
      "##chants": 7450,
      "associated": 7451,
      "##udd": 7452,
      "producing": 7453,
      "trif": 7454,
      "##iency": 7455,
      "##ended": 7456,
      "imagine": 7457,
      "Serv": 7458,
      "6th": 7459,
      "celui": 7460,
      "cet": 7461,
      "##leg": 7462,
      "calc": 7463,
      "##rat": 7464,
      "##rove": 7465,
      "##INE": 7466,
      "improved": 7467,
      "concerned": 7468,
      "gent": 7469,
      "national": 7470,
      "pts": 7471,
      "##rium": 7472,
      "According": 7473,
      "pound": 7474,
      "fields": 7475,
      "population": 7476,
      "spinal": 7477,
      "dir": 7478,
      "##mith": 7479,
      "Stock": 7480,
      "1810": 7481,
      "adher": 7482,
      "Trinity": 7483,
      "vision": 7484,
      "glasses": 7485,
      "pictures": 7486,
      "139": 7487,
      "freely": 7488,
      "Foreign": 7489,
      "sul": 7490,
      "alive": 7491,
      "colum": 7492,
      "labours": 7493,
      "7s": 7494,
      "##estone": 7495,
      "##isl": 7496,
      "manners": 7497,
      "anatom": 7498,
      "notwithstanding": 7499,
      "Sab": 7500,
      "##igo": 7501,
      "Comment": 7502,
      "lens": 7503,
      "net": 7504,
      "humble": 7505,
      "vegetable": 7506,
      "driven": 7507,
      "sulphate": 7508,
      "compos": 7509,
      "tale": 7510,
      "##arith": 7511,
      "Jun": 7512,
      "connect": 7513,
      "Parts": 7514,
      "##ION": 7515,
      "combined": 7516,
      "Ori": 7517,
      "ard": 7518,
      "indust": 7519,
      "exists": 7520,
      "Wed": 7521,
      "ster": 7522,
      "poison": 7523,
      "Da": 7524,
      "Post": 7525,
      "taught": 7526,
      "##iot": 7527,
      "##ACE": 7528,
      "behold": 7529,
      "privile": 7530,
      "ordin": 7531,
      "apert": 7532,
      "112": 7533,
      "admin": 7534,
      "##aceous": 7535,
      "ET": 7536,
      "lun": 7537,
      "##gent": 7538,
      "##igation": 7539,
      "destruction": 7540,
      "attem": 7541,
      "proportions": 7542,
      "corps": 7543,
      "Air": 7544,
      "##idem": 7545,
      "gained": 7546,
      "touched": 7547,
      "143": 7548,
      "exceedingly": 7549,
      "sate": 7550,
      "wheel": 7551,
      "1817": 7552,
      "determination": 7553,
      "elastic": 7554,
      "conceive": 7555,
      "surprised": 7556,
      "brilliant": 7557,
      "##oqu": 7558,
      "sympath": 7559,
      "132": 7560,
      "cott": 7561,
      "spher": 7562,
      "Belfast": 7563,
      "##ji": 7564,
      "precisely": 7565,
      "##itus": 7566,
      "muriatic": 7567,
      "195": 7568,
      "faire": 7569,
      "deed": 7570,
      "considering": 7571,
      "sorts": 7572,
      "##وں": 7573,
      "esteem": 7574,
      "pack": 7575,
      "vid": 7576,
      "##ighed": 7577,
      "##ivity": 7578,
      "engine": 7579,
      "##pool": 7580,
      "inserted": 7581,
      "pipe": 7582,
      "efforts": 7583,
      "ech": 7584,
      "##acles": 7585,
      "arr": 7586,
      "worn": 7587,
      "myster": 7588,
      "observes": 7589,
      "AC": 7590,
      "dic": 7591,
      "rum": 7592,
      "individuals": 7593,
      "116": 7594,
      "##lections": 7595,
      "prol": 7596,
      "MAN": 7597,
      "procured": 7598,
      "##nals": 7599,
      "nou": 7600,
      "##fc": 7601,
      "thro": 7602,
      "remove": 7603,
      "Cot": 7604,
      "union": 7605,
      "National": 7606,
      "doors": 7607,
      "labor": 7608,
      "prevented": 7609,
      "departure": 7610,
      "amid": 7611,
      "Corpor": 7612,
      "xii": 7613,
      "Tu": 7614,
      "146": 7615,
      "slab": 7616,
      "##zed": 7617,
      "rt": 7618,
      "unable": 7619,
      "8th": 7620,
      "solic": 7621,
      "bottle": 7622,
      "lanceol": 7623,
      "nf": 7624,
      "Anth": 7625,
      "artificial": 7626,
      "lamp": 7627,
      "##aration": 7628,
      "1815": 7629,
      "philos": 7630,
      "alcohol": 7631,
      "Place": 7632,
      "Before": 7633,
      "rever": 7634,
      "distinction": 7635,
      "##asts": 7636,
      "uncertain": 7637,
      "safety": 7638,
      "las": 7639,
      "Experiment": 7640,
      "##uer": 7641,
      "145": 7642,
      "##ulaire": 7643,
      "murm": 7644,
      "fifteen": 7645,
      "resumed": 7646,
      "indif": 7647,
      "uncom": 7648,
      "machine": 7649,
      "Rath": 7650,
      "##pson": 7651,
      "Mun": 7652,
      "lust": 7653,
      "pou": 7654,
      "coinc": 7655,
      "electrical": 7656,
      "inclination": 7657,
      "##fty": 7658,
      "remembered": 7659,
      "sulphuric": 7660,
      "canal": 7661,
      "crystal": 7662,
      "##VI": 7663,
      "econ": 7664,
      "##iday": 7665,
      "##jusdem": 7666,
      "margin": 7667,
      "translation": 7668,
      "Love": 7669,
      "tain": 7670,
      "Soc": 7671,
      "ruins": 7672,
      "Antiquities": 7673,
      "##ancholy": 7674,
      "flower": 7675,
      "##erton": 7676,
      "calling": 7677,
      "curiosity": 7678,
      "vibrations": 7679,
      "Dou": 7680,
      "##vet": 7681,
      "fec": 7682,
      "equations": 7683,
      "lieu": 7684,
      "adapted": 7685,
      "attempted": 7686,
      "Lin": 7687,
      "ga": 7688,
      "sunt": 7689,
      "1816": 7690,
      "pursued": 7691,
      "sorrow": 7692,
      "XL": 7693,
      "magnetism": 7694,
      "executed": 7695,
      "sic": 7696,
      "dw": 7697,
      "bringing": 7698,
      "Pi": 7699,
      "##zy": 7700,
      "decomposition": 7701,
      "anterior": 7702,
      "##oh": 7703,
      "respects": 7704,
      "MSS": 7705,
      "##ierce": 7706,
      "towns": 7707,
      "Tim": 7708,
      "##ario": 7709,
      "Chancell": 7710,
      "grown": 7711,
      "treatment": 7712,
      "cert": 7713,
      "commission": 7714,
      "unfortunate": 7715,
      "Canterbury": 7716,
      "##annel": 7717,
      "yesterday": 7718,
      "dia": 7719,
      "mould": 7720,
      "resolution": 7721,
      "Suff": 7722,
      "hut": 7723,
      "##ushing": 7724,
      "fill": 7725,
      "Matt": 7726,
      "adjo": 7727,
      "bour": 7728,
      "chapel": 7729,
      "wax": 7730,
      "reflection": 7731,
      "Volume": 7732,
      "122": 7733,
      "existed": 7734,
      "COURT": 7735,
      "l6": 7736,
      "indul": 7737,
      "register": 7738,
      "Indian": 7739,
      "Bp": 7740,
      "delay": 7741,
      "minds": 7742,
      "muc": 7743,
      "examining": 7744,
      "##esia": 7745,
      "China": 7746,
      "empt": 7747,
      "solar": 7748,
      "Monday": 7749,
      "impr": 7750,
      "index": 7751,
      "##fred": 7752,
      "prosec": 7753,
      "##elly": 7754,
      "records": 7755,
      "2nd": 7756,
      "wretched": 7757,
      "knock": 7758,
      "##enant": 7759,
      "analy": 7760,
      "conclude": 7761,
      "quickly": 7762,
      "dust": 7763,
      "End": 7764,
      "##BS": 7765,
      "Correspond": 7766,
      "1812": 7767,
      "Treatise": 7768,
      "Diction": 7769,
      "difficulties": 7770,
      "anci": 7771,
      "##umption": 7772,
      "dimensions": 7773,
      "Lar": 7774,
      "services": 7775,
      "WORKS": 7776,
      "Hi": 7777,
      "##mod": 7778,
      "surv": 7779,
      "Stephen": 7780,
      "Greece": 7781,
      "assez": 7782,
      "forgotten": 7783,
      "##greg": 7784,
      "magnitude": 7785,
      "##amph": 7786,
      "Norf": 7787,
      "Iron": 7788,
      "reve": 7789,
      "walking": 7790,
      "recovered": 7791,
      "136": 7792,
      "insert": 7793,
      "satisfactory": 7794,
      "alb": 7795,
      "disse": 7796,
      "archit": 7797,
      "IT": 7798,
      "Frederick": 7799,
      "##jr": 7800,
      "rac": 7801,
      "##ito": 7802,
      "##jud": 7803,
      "growing": 7804,
      "skill": 7805,
      "marry": 7806,
      "Board": 7807,
      "wanting": 7808,
      "feuille": 7809,
      "distress": 7810,
      "glory": 7811,
      "##urance": 7812,
      "potass": 7813,
      "Laws": 7814,
      "WIL": 7815,
      "##icians": 7816,
      "eager": 7817,
      "doubtless": 7818,
      "diminished": 7819,
      "##eman": 7820,
      "##iee": 7821,
      "suspicion": 7822,
      "##ARE": 7823,
      "Printed": 7824,
      "receiving": 7825,
      "alteration": 7826,
      "repres": 7827,
      "1891": 7828,
      "Lionel": 7829,
      "Bal": 7830,
      "##ector": 7831,
      "lan": 7832,
      "lungs": 7833,
      "los": 7834,
      "##lv": 7835,
      "vapour": 7836,
      "Ae": 7837,
      "oblique": 7838,
      "Year": 7839,
      "reward": 7840,
      "landl": 7841,
      "Fah": 7842,
      "Lud": 7843,
      "Poly": 7844,
      "hypothesis": 7845,
      "silk": 7846,
      "describes": 7847,
      "bosom": 7848,
      "fruct": 7849,
      "##gers": 7850,
      "monaster": 7851,
      "constructed": 7852,
      "Gilbert": 7853,
      "seconds": 7854,
      "##EE": 7855,
      "finds": 7856,
      "1794": 7857,
      "genius": 7858,
      "##going": 7859,
      "##igm": 7860,
      "##rier": 7861,
      "Have": 7862,
      "##rin": 7863,
      "poly": 7864,
      "MM": 7865,
      "aged": 7866,
      "swell": 7867,
      "row": 7868,
      "##itum": 7869,
      "coroll": 7870,
      "waiting": 7871,
      "battery": 7872,
      "hurried": 7873,
      "entertain": 7874,
      "Pray": 7875,
      "##ITY": 7876,
      "bron": 7877,
      "Literary": 7878,
      "melancholy": 7879,
      "Codex": 7880,
      "rules": 7881,
      "magnific": 7882,
      "objection": 7883,
      "wound": 7884,
      "##olph": 7885,
      "##arii": 7886,
      "##iger": 7887,
      "1799": 7888,
      "Most": 7889,
      "##tes": 7890,
      "194": 7891,
      "girls": 7892,
      "sacred": 7893,
      "Impress": 7894,
      "Relig": 7895,
      "MA": 7896,
      "cin": 7897,
      "uter": 7898,
      "maximum": 7899,
      "##leton": 7900,
      "##BR": 7901,
      "##zing": 7902,
      "Historia": 7903,
      "faithful": 7904,
      "Ever": 7905,
      "میں": 7906,
      "choice": 7907,
      "dried": 7908,
      "##onia": 7909,
      "courage": 7910,
      "##icule": 7911,
      "largest": 7912,
      "Crown": 7913,
      "##Ue": 7914,
      "della": 7915,
      "Daniel": 7916,
      "pup": 7917,
      "toler": 7918,
      "dispos": 7919,
      "employment": 7920,
      "Ten": 7921,
      "ss": 7922,
      "gla": 7923,
      "permitted": 7924,
      "##jected": 7925,
      "##000": 7926,
      "##END": 7927,
      "advantages": 7928,
      "Historical": 7929,
      "Vict": 7930,
      "developp": 7931,
      "counter": 7932,
      "clergy": 7933,
      "ow": 7934,
      "beheld": 7935,
      "##iece": 7936,
      "##unting": 7937,
      "##ental": 7938,
      "effort": 7939,
      "Whether": 7940,
      "##entia": 7941,
      "Lieutenant": 7942,
      "##30": 7943,
      "##inet": 7944,
      "Od": 7945,
      "columns": 7946,
      "caracter": 7947,
      "Cand": 7948,
      "##PH": 7949,
      "xvi": 7950,
      "equivalent": 7951,
      "##wall": 7952,
      "##escent": 7953,
      "dit": 7954,
      "##icy": 7955,
      "##cclesiastical": 7956,
      "##lion": 7957,
      "cess": 7958,
      "1806": 7959,
      "quarters": 7960,
      "ach": 7961,
      "##mg": 7962,
      "hereafter": 7963,
      "Maur": 7964,
      "development": 7965,
      "wicked": 7966,
      "Vic": 7967,
      "entering": 7968,
      "failed": 7969,
      "##inding": 7970,
      "commun": 7971,
      "##MAN": 7972,
      "clothes": 7973,
      "patter": 7974,
      "##uta": 7975,
      "etait": 7976,
      "deem": 7977,
      "Memor": 7978,
      "anc": 7979,
      "merchant": 7980,
      "quelque": 7981,
      "Essay": 7982,
      "rib": 7983,
      "copyright": 7984,
      "##ospel": 7985,
      "parl": 7986,
      "signs": 7987,
      "galvan": 7988,
      "caps": 7989,
      "candle": 7990,
      "Hat": 7991,
      "XI": 7992,
      "fitted": 7993,
      "rings": 7994,
      "disg": 7995,
      "Other": 7996,
      "bull": 7997,
      "##enti": 7998,
      "Quart": 7999,
      "dozen": 8000,
      "milk": 8001,
      "augment": 8002,
      "card": 8003,
      "oct": 8004,
      "##LES": 8005,
      "##bell": 8006,
      "Anonymous": 8007,
      "diver": 8008,
      "depends": 8009,
      "coff": 8010,
      "magist": 8011,
      "##onds": 8012,
      "ideas": 8013,
      "ul": 8014,
      "##alled": 8015,
      "Super": 8016,
      "##TIS": 8017,
      "Cathedral": 8018,
      "5°": 8019,
      "shining": 8020,
      "1809": 8021,
      "Cond": 8022,
      "maniere": 8023,
      "##OLOG": 8024,
      "gain": 8025,
      "task": 8026,
      "earliest": 8027,
      "freedom": 8028,
      "##oval": 8029,
      "##mt": 8030,
      "Canon": 8031,
      "conveyed": 8032,
      "permanent": 8033,
      "Abb": 8034,
      "Plant": 8035,
      "##INGS": 8036,
      "soldiers": 8037,
      "Pickwick": 8038,
      "##uming": 8039,
      "requisite": 8040,
      "Fin": 8041,
      "density": 8042,
      "lux": 8043,
      "##i¬": 8044,
      "Herschel": 8045,
      "sink": 8046,
      "shaped": 8047,
      "propose": 8048,
      "sky": 8049,
      "planet": 8050,
      "##quest": 8051,
      "##anny": 8052,
      "Rus": 8053,
      "7th": 8054,
      "##raits": 8055,
      "##ondale": 8056,
      "Thames": 8057,
      "##ICH": 8058,
      "##nee": 8059,
      "bag": 8060,
      "oath": 8061,
      "##formation": 8062,
      "Appendix": 8063,
      "##iety": 8064,
      "excit": 8065,
      "primitive": 8066,
      "ample": 8067,
      "##uity": 8068,
      "Friend": 8069,
      "##entibus": 8070,
      "generous": 8071,
      "temps": 8072,
      "deliver": 8073,
      "##md": 8074,
      "##rian": 8075,
      "obtaining": 8076,
      "tort": 8077,
      "Also": 8078,
      "##IB": 8079,
      "Moon": 8080,
      "despair": 8081,
      "oun": 8082,
      "##ATE": 8083,
      "join": 8084,
      "arrive": 8085,
      "##inous": 8086,
      "Observatory": 8087,
      "Montague": 8088,
      "Index": 8089,
      "##ogh": 8090,
      "Julia": 8091,
      "tradition": 8092,
      "Vit": 8093,
      "##edge": 8094,
      "compose": 8095,
      "##ANE": 8096,
      "slightest": 8097,
      "##ifol": 8098,
      "##seless": 8099,
      "traces": 8100,
      "elevation": 8101,
      "Both": 8102,
      "pert": 8103,
      "##IGH": 8104,
      "Ot": 8105,
      "succession": 8106,
      "finally": 8107,
      "cylinder": 8108,
      "Middle": 8109,
      "conse": 8110,
      "Arc": 8111,
      "fatal": 8112,
      "Lugd": 8113,
      "nut": 8114,
      "soci": 8115,
      "habits": 8116,
      "Sn": 8117,
      "procure": 8118,
      "Saxondale": 8119,
      "ric": 8120,
      "##asion": 8121,
      "circuit": 8122,
      "860": 8123,
      "##izes": 8124,
      "Haw": 8125,
      "##isen": 8126,
      "portrait": 8127,
      "1813": 8128,
      "##ading": 8129,
      "intellect": 8130,
      "requires": 8131,
      "MDCCC": 8132,
      "bon": 8133,
      "##ilities": 8134,
      "darkness": 8135,
      "commencement": 8136,
      "Fre": 8137,
      "Sen": 8138,
      "1805": 8139,
      "##eries": 8140,
      "Chancellor": 8141,
      "lam": 8142,
      "##retch": 8143,
      "##rates": 8144,
      "##ATIONS": 8145,
      "ante": 8146,
      "##oid": 8147,
      "doctrine": 8148,
      "np": 8149,
      "confusion": 8150,
      "8622": 8151,
      "barometer": 8152,
      "ip": 8153,
      "Poems": 8154,
      "lest": 8155,
      "win": 8156,
      "##rup": 8157,
      "extract": 8158,
      "traced": 8159,
      "chest": 8160,
      "divisions": 8161,
      "##ilian": 8162,
      "mankind": 8163,
      "catch": 8164,
      "##lance": 8165,
      "chain": 8166,
      "cham": 8167,
      "##ses": 8168,
      "##OY": 8169,
      "mete": 8170,
      "disappo": 8171,
      "Ral": 8172,
      "Sign": 8173,
      "##LAND": 8174,
      "desper": 8175,
      "stern": 8176,
      "##CHE": 8177,
      "##rection": 8178,
      "Liber": 8179,
      "##umm": 8180,
      "aj": 8181,
      "##ado": 8182,
      "Ple": 8183,
      "xxx": 8184,
      "##asant": 8185,
      "clos": 8186,
      "Cry": 8187,
      "Sou": 8188,
      "knife": 8189,
      "buy": 8190,
      "Cecil": 8191,
      "interests": 8192,
      "citizens": 8193,
      "##mens": 8194,
      "##ithe": 8195,
      "Thou": 8196,
      "obscure": 8197,
      "shot": 8198,
      "guilty": 8199,
      "exhibit": 8200,
      "Map": 8201,
      "##aton": 8202,
      "protection": 8203,
      "Sanct": 8204,
      "Germany": 8205,
      "widow": 8206,
      "ejaculated": 8207,
      "tent": 8208,
      "tendency": 8209,
      "Fab": 8210,
      "##fin": 8211,
      "cutting": 8212,
      "miserable": 8213,
      "mas": 8214,
      "Georg": 8215,
      "chapter": 8216,
      "transverse": 8217,
      "1801": 8218,
      "sympt": 8219,
      "Over": 8220,
      "captain": 8221,
      "enemies": 8222,
      "elder": 8223,
      "Commissioners": 8224,
      "Craw": 8225,
      "1808": 8226,
      "careful": 8227,
      "assigned": 8228,
      "Mu": 8229,
      "tides": 8230,
      "##nent": 8231,
      "indign": 8232,
      "avait": 8233,
      "intervals": 8234,
      "Satur": 8235,
      "drop": 8236,
      "attach": 8237,
      "Constant": 8238,
      "cc": 8239,
      "Jew": 8240,
      "consisted": 8241,
      "Spec": 8242,
      "microscope": 8243,
      "Norfolk": 8244,
      "##aved": 8245,
      "##ustrious": 8246,
      "pity": 8247,
      "##KE": 8248,
      "##isi": 8249,
      "##icip": 8250,
      "Welsh": 8251,
      "bract": 8252,
      "grie": 8253,
      "##umen": 8254,
      "alluded": 8255,
      "ben": 8256,
      "##ampton": 8257,
      "appropri": 8258,
      "viv": 8259,
      "alike": 8260,
      "assume": 8261,
      "ALMACK": 8262,
      "coin": 8263,
      "Nob": 8264,
      "determining": 8265,
      "developed": 8266,
      "deposited": 8267,
      "industry": 8268,
      "merit": 8269,
      "terminal": 8270,
      "vulgar": 8271,
      "unhappy": 8272,
      "anten": 8273,
      "##iiii": 8274,
      "Archae": 8275,
      "Lic": 8276,
      "expans": 8277,
      "##asi": 8278,
      "Garden": 8279,
      "Pur": 8280,
      "doctor": 8281,
      "boiling": 8282,
      "hearts": 8283,
      "1889": 8284,
      "##16": 8285,
      "Although": 8286,
      "mistake": 8287,
      "##igs": 8288,
      "key": 8289,
      "carbonate": 8290,
      "Ric": 8291,
      "SU": 8292,
      "readers": 8293,
      "breaking": 8294,
      "##SON": 8295,
      "parents": 8296,
      "liable": 8297,
      "##unter": 8298,
      "##nding": 8299,
      "myst": 8300,
      "longitude": 8301,
      "principally": 8302,
      "periods": 8303,
      "timber": 8304,
      "lig": 8305,
      "script": 8306,
      "thither": 8307,
      "stations": 8308,
      "weigh": 8309,
      "##ucid": 8310,
      "1807": 8311,
      "pars": 8312,
      "entertained": 8313,
      "Pop": 8314,
      "whenever": 8315,
      "##hs": 8316,
      "farm": 8317,
      "partial": 8318,
      "refused": 8319,
      "guine": 8320,
      "genus": 8321,
      "council": 8322,
      "##ceptible": 8323,
      "Owen": 8324,
      "dying": 8325,
      "Catherine": 8326,
      "retained": 8327,
      "##ception": 8328,
      "cure": 8329,
      "##uits": 8330,
      "193": 8331,
      "##ails": 8332,
      "reflex": 8333,
      "successful": 8334,
      "Somers": 8335,
      "provide": 8336,
      "narrative": 8337,
      "cote": 8338,
      "##ador": 8339,
      "mercy": 8340,
      "wires": 8341,
      "willing": 8342,
      "borne": 8343,
      "nose": 8344,
      "##10": 8345,
      "legend": 8346,
      "1802": 8347,
      "chart": 8348,
      "rapport": 8349,
      "cul": 8350,
      "mansion": 8351,
      "noted": 8352,
      "region": 8353,
      "terror": 8354,
      "Liverpool": 8355,
      "recommended": 8356,
      "ic": 8357,
      "duke": 8358,
      "breakfast": 8359,
      "gle": 8360,
      "Third": 8361,
      "Fire": 8362,
      "##chn": 8363,
      "parag": 8364,
      "Address": 8365,
      "Ralph": 8366,
      "Ut": 8367,
      "pall": 8368,
      "bought": 8369,
      "nod": 8370,
      "flour": 8371,
      "COL": 8372,
      "Win": 8373,
      "simply": 8374,
      "propriet": 8375,
      "couple": 8376,
      "Field": 8377,
      "9th": 8378,
      "grief": 8379,
      "supra": 8380,
      "preserve": 8381,
      "speedily": 8382,
      "represents": 8383,
      "marble": 8384,
      "serm": 8385,
      "sovereign": 8386,
      "confess": 8387,
      "train": 8388,
      "##quiry": 8389,
      "System": 8390,
      "Five": 8391,
      "Lt": 8392,
      "pains": 8393,
      "##ga": 8394,
      "##rone": 8395,
      "envel": 8396,
      "accum": 8397,
      "##URN": 8398,
      "Governor": 8399,
      "##enith": 8400,
      "##ilib": 8401,
      "premi": 8402,
      "##iffs": 8403,
      "##inge": 8404,
      "10th": 8405,
      "burnt": 8406,
      "smell": 8407,
      "Islands": 8408,
      "Bab": 8409,
      "wooden": 8410,
      "purchase": 8411,
      "dignity": 8412,
      "problem": 8413,
      "##eks": 8414,
      "remote": 8415,
      "Ash": 8416,
      "Exam": 8417,
      "xviii": 8418,
      "sounds": 8419,
      "prud": 8420,
      "una": 8421,
      "redd": 8422,
      "beside": 8423,
      "shells": 8424,
      "warrant": 8425,
      "qualities": 8426,
      "rul": 8427,
      "jam": 8428,
      "grande": 8429,
      "positions": 8430,
      "##acent": 8431,
      "worked": 8432,
      "kindly": 8433,
      "Dal": 8434,
      "##ulate": 8435,
      "Taylor": 8436,
      "wet": 8437,
      "conform": 8438,
      "##itat": 8439,
      "XII": 8440,
      "vix": 8441,
      "250": 8442,
      "prep": 8443,
      "##worthy": 8444,
      "started": 8445,
      "Sem": 8446,
      "Benj": 8447,
      "cir": 8448,
      "pin": 8449,
      "##ologie": 8450,
      "verse": 8451,
      "variations": 8452,
      "##ndon": 8453,
      "##itatis": 8454,
      "Polit": 8455,
      "horizon": 8456,
      "inconven": 8457,
      "plainly": 8458,
      "Cart": 8459,
      "currents": 8460,
      "shame": 8461,
      "EXP": 8462,
      "LIT": 8463,
      "##igon": 8464,
      "cousin": 8465,
      "##arius": 8466,
      "##ustomed": 8467,
      "fortun": 8468,
      "legal": 8469,
      "minor": 8470,
      "mart": 8471,
      "trop": 8472,
      "##abl": 8473,
      "quibus": 8474,
      "woods": 8475,
      "##anges": 8476,
      "voltaic": 8477,
      "respectable": 8478,
      "Ejusdem": 8479,
      "nearest": 8480,
      "##usal": 8481,
      "permission": 8482,
      "Medical": 8483,
      "slave": 8484,
      "Equatorial": 8485,
      "Han": 8486,
      "numer": 8487,
      "conceived": 8488,
      "##rod": 8489,
      "spor": 8490,
      "avons": 8491,
      "##enu": 8492,
      "Ard": 8493,
      "Copper": 8494,
      "Hyd": 8495,
      "hastily": 8496,
      "springs": 8497,
      "Mild": 8498,
      "##igent": 8499,
      "raising": 8500,
      "##ھا": 8501,
      "##roduction": 8502,
      "prosper": 8503,
      "absolutely": 8504,
      "innocent": 8505,
      "MON": 8506,
      "Pot": 8507,
      "sail": 8508,
      "142": 8509,
      "Minister": 8510,
      "begins": 8511,
      "pier": 8512,
      "##iest": 8513,
      "payment": 8514,
      "obey": 8515,
      "screw": 8516,
      "secund": 8517,
      "subsequently": 8518,
      "returning": 8519,
      "descended": 8520,
      "##imo": 8521,
      "MEM": 8522,
      "##adder": 8523,
      "1811": 8524,
      "Thence": 8525,
      "gratitude": 8526,
      "Care": 8527,
      "totally": 8528,
      "ner": 8529,
      "attent": 8530,
      "circles": 8531,
      "devil": 8532,
      "##illings": 8533,
      "Several": 8534,
      "Union": 8535,
      "##ourag": 8536,
      "setting": 8537,
      "younger": 8538,
      "selected": 8539,
      "literary": 8540,
      "1804": 8541,
      "##roc": 8542,
      "worst": 8543,
      "##imus": 8544,
      "##rain": 8545,
      "parent": 8546,
      "##iace": 8547,
      "##soever": 8548,
      "begun": 8549,
      "accomplished": 8550,
      "aqu": 8551,
      "unw": 8552,
      "Ulster": 8553,
      "##aucoup": 8554,
      "fragment": 8555,
      "midst": 8556,
      "Nothing": 8557,
      "##inated": 8558,
      "##erves": 8559,
      "grate": 8560,
      "1892": 8561,
      "##fois": 8562,
      "stip": 8563,
      "fasc": 8564,
      "seal": 8565,
      "shel": 8566,
      "1000": 8567,
      "Leon": 8568,
      "logarith": 8569,
      "eau": 8570,
      "supposition": 8571,
      "supposing": 8572,
      "successive": 8573,
      "rejoined": 8574,
      "divine": 8575,
      "encoura": 8576,
      "inquiries": 8577,
      "urine": 8578,
      "permit": 8579,
      "Lon": 8580,
      "##vant": 8581,
      "vex": 8582,
      "Row": 8583,
      "belief": 8584,
      "##rer": 8585,
      "##idel": 8586,
      "Sla": 8587,
      "hide": 8588,
      "nep": 8589,
      "##ENCE": 8590,
      "syn": 8591,
      "adjoining": 8592,
      "ling": 8593,
      "##pid": 8594,
      "##40": 8595,
      "Astronomy": 8596,
      "AU": 8597,
      "اور": 8598,
      "valley": 8599,
      "sources": 8600,
      "philosophy": 8601,
      "AM": 8602,
      "Ray": 8603,
      "eleven": 8604,
      "steep": 8605,
      "fleurs": 8606,
      "pred": 8607,
      "abrupt": 8608,
      "provin": 8609,
      "islands": 8610,
      "ceux": 8611,
      "intent": 8612,
      "##ometers": 8613,
      "##umberland": 8614,
      "souvent": 8615,
      "Wilson": 8616,
      "##elf": 8617,
      "prior": 8618,
      "##OLDS": 8619,
      "1793": 8620,
      "distinguish": 8621,
      "precipitate": 8622,
      "finger": 8623,
      "wore": 8624,
      "##eg": 8625,
      "##range": 8626,
      "Soph": 8627,
      "##uo": 8628,
      "centuries": 8629,
      "radius": 8630,
      "Py": 8631,
      "imagination": 8632,
      "faisceaux": 8633,
      "Cru": 8634,
      "tige": 8635,
      "rela": 8636,
      "ist": 8637,
      "##VER": 8638,
      "neverthe": 8639,
      "oy": 8640,
      "approxim": 8641,
      "DES": 8642,
      "germ": 8643,
      "##ogue": 8644,
      "##cula": 8645,
      "Ze": 8646,
      "susp": 8647,
      "extending": 8648,
      "##lled": 8649,
      "auc": 8650,
      "##vings": 8651,
      "##voir": 8652,
      "disappeared": 8653,
      "spite": 8654,
      "platinum": 8655,
      "##IAN": 8656,
      "elsewhere": 8657,
      "purchased": 8658,
      "presque": 8659,
      "horror": 8660,
      "Ps": 8661,
      "Walk": 8662,
      "affair": 8663,
      "approaching": 8664,
      "injury": 8665,
      "responded": 8666,
      "Hib": 8667,
      "Out": 8668,
      "wards": 8669,
      "##imet": 8670,
      "offices": 8671,
      "affl": 8672,
      "Protest": 8673,
      "fus": 8674,
      "nunc": 8675,
      "##mark": 8676,
      "sentiment": 8677,
      "##acks": 8678,
      "Johnson": 8679,
      "xvii": 8680,
      "choose": 8681,
      "beaucoup": 8682,
      "##olt": 8683,
      "passages": 8684,
      "falls": 8685,
      "Ent": 8686,
      "nay": 8687,
      "unex": 8688,
      "Little": 8689,
      "##olo": 8690,
      "amuse": 8691,
      "naked": 8692,
      "Cra": 8693,
      "depuis": 8694,
      "Present": 8695,
      "##nde": 8696,
      "axes": 8697,
      "separation": 8698,
      "indicated": 8699,
      "paragraph": 8700,
      "pause": 8701,
      "conscious": 8702,
      "genres": 8703,
      "surely": 8704,
      "counsel": 8705,
      "covering": 8706,
      "Ll": 8707,
      "Conc": 8708,
      "##azine": 8709,
      "Dick": 8710,
      "Duchess": 8711,
      "ہو": 8712,
      "debt": 8713,
      "resid": 8714,
      "remainder": 8715,
      "detailed": 8716,
      "engraved": 8717,
      "Kerry": 8718,
      "Visc": 8719,
      "arose": 8720,
      "discoveries": 8721,
      "posterior": 8722,
      "lO": 8723,
      "crass": 8724,
      "settle": 8725,
      "Thor": 8726,
      "Annual": 8727,
      "Ol": 8728,
      "intend": 8729,
      "disord": 8730,
      "##castle": 8731,
      "##iance": 8732,
      "friendship": 8733,
      "busy": 8734,
      "correction": 8735,
      "sider": 8736,
      "nitric": 8737,
      "Square": 8738,
      "wishes": 8739,
      "##ORD": 8740,
      "PE": 8741,
      "accepted": 8742,
      "lament": 8743,
      "successors": 8744,
      "painful": 8745,
      "##agon": 8746,
      "admiration": 8747,
      "compet": 8748,
      "Tract": 8749,
      "cm": 8750,
      "simplic": 8751,
      "Beau": 8752,
      "banks": 8753,
      "older": 8754,
      "runs": 8755,
      "praise": 8756,
      "dense": 8757,
      "novel": 8758,
      "contempt": 8759,
      "acids": 8760,
      "sixty": 8761,
      "Glas": 8762,
      "Vis": 8763,
      "ingenious": 8764,
      "Writ": 8765,
      "##icc": 8766,
      "##tering": 8767,
      "attracted": 8768,
      "Association": 8769,
      "##nr": 8770,
      "##hi": 8771,
      "prejud": 8772,
      "territ": 8773,
      "##agger": 8774,
      "placing": 8775,
      "Bacon": 8776,
      "##cill": 8777,
      "##ferent": 8778,
      "commod": 8779,
      "shortly": 8780,
      "Quar": 8781,
      "##ND": 8782,
      "annex": 8783,
      "##oping": 8784,
      "##fon": 8785,
      "Clon": 8786,
      "REYN": 8787,
      "poetry": 8788,
      "fc": 8789,
      "##ums": 8790,
      "##ourt": 8791,
      "winds": 8792,
      "moy": 8793,
      "##acious": 8794,
      "##otty": 8795,
      "worship": 8796,
      "tuber": 8797,
      "Cass": 8798,
      "avoir": 8799,
      "shade": 8800,
      "Isab": 8801,
      "Chemistry": 8802,
      "##di": 8803,
      "1790": 8804,
      "Octav": 8805,
      "##urnal": 8806,
      "signed": 8807,
      "welcome": 8808,
      "Power": 8809,
      "deceased": 8810,
      "IM": 8811,
      "Pract": 8812,
      "prefer": 8813,
      "recon": 8814,
      "Jean": 8815,
      "clerk": 8816,
      "mit": 8817,
      "dwelling": 8818,
      "integ": 8819,
      "Roger": 8820,
      "ance": 8821,
      "phr": 8822,
      "##LIAM": 8823,
      "voit": 8824,
      "Hart": 8825,
      "con¬": 8826,
      "muscle": 8827,
      "envir": 8828,
      "prices": 8829,
      "retain": 8830,
      "##TING": 8831,
      "##OUR": 8832,
      "Club": 8833,
      "globules": 8834,
      "parlour": 8835,
      "Oli": 8836,
      "Us": 8837,
      "lors": 8838,
      "invari": 8839,
      "suggest": 8840,
      "atmospher": 8841,
      "disturb": 8842,
      "ela": 8843,
      "##cca": 8844,
      "parait": 8845,
      "thunder": 8846,
      "##ista": 8847,
      "Still": 8848,
      "Lamb": 8849,
      "##iep": 8850,
      "Strand": 8851,
      "Near": 8852,
      "BL": 8853,
      "vaisse": 8854,
      "##asted": 8855,
      "agent": 8856,
      "lean": 8857,
      "merry": 8858,
      "##akers": 8859,
      "bath": 8860,
      "##pher": 8861,
      "emer": 8862,
      "Norman": 8863,
      "againft": 8864,
      "appointment": 8865,
      "lb": 8866,
      "1789": 8867,
      "tand": 8868,
      "varied": 8869,
      "riv": 8870,
      "vener": 8871,
      "##otions": 8872,
      "##ERV": 8873,
      "shadow": 8874,
      "Tyr": 8875,
      "rivers": 8876,
      "##then": 8877,
      "adds": 8878,
      "##rified": 8879,
      "BOO": 8880,
      "gently": 8881,
      "##ilton": 8882,
      "Kings": 8883,
      "sess": 8884,
      "converted": 8885,
      "angry": 8886,
      "Were": 8887,
      "##adel": 8888,
      "seed": 8889,
      "lev": 8890,
      "##ki": 8891,
      "stem": 8892,
      "pretend": 8893,
      "beloved": 8894,
      "palace": 8895,
      "declare": 8896,
      "sincere": 8897,
      "##ifully": 8898,
      "respiration": 8899,
      "accustomed": 8900,
      "protect": 8901,
      "SH": 8902,
      "Work": 8903,
      "aim": 8904,
      "neut": 8905,
      "decay": 8906,
      "##itals": 8907,
      "Therefore": 8908,
      "##win": 8909,
      "Britann": 8910,
      "denom": 8911,
      "Berlin": 8912,
      "Rose": 8913,
      "##25": 8914,
      "##aug": 8915,
      "lowest": 8916,
      "surrounding": 8917,
      "mac": 8918,
      "##mus": 8919,
      "abd": 8920,
      "fairly": 8921,
      "concealed": 8922,
      "chlorine": 8923,
      "ade": 8924,
      "neglect": 8925,
      "REYNOLDS": 8926,
      "impart": 8927,
      "Arts": 8928,
      "shoulder": 8929,
      "interpret": 8930,
      "nevertheless": 8931,
      "reports": 8932,
      "Lett": 8933,
      "##oured": 8934,
      "designed": 8935,
      "Constitution": 8936,
      "##issime": 8937,
      "Humph": 8938,
      "condem": 8939,
      "mutual": 8940,
      "Dar": 8941,
      "Lab": 8942,
      "Section": 8943,
      "WH": 8944,
      "mild": 8945,
      "##peare": 8946,
      "Sar": 8947,
      "##isle": 8948,
      "Chamber": 8949,
      "maintain": 8950,
      "mingled": 8951,
      "wants": 8952,
      "Spirit": 8953,
      "##may": 8954,
      "dcc": 8955,
      "smoke": 8956,
      "intense": 8957,
      "Waterford": 8958,
      "balance": 8959,
      "##lets": 8960,
      "mayor": 8961,
      "yours": 8962,
      "monarch": 8963,
      "mines": 8964,
      "talked": 8965,
      "Portugal": 8966,
      "considers": 8967,
      "Wick": 8968,
      "##rus": 8969,
      "mechanical": 8970,
      "GR": 8971,
      "suite": 8972,
      "##asses": 8973,
      "anticip": 8974,
      "wonderful": 8975,
      "Ja": 8976,
      "Tlie": 8977,
      "ate": 8978,
      "cheeks": 8979,
      "Tues": 8980,
      "ici": 8981,
      "condens": 8982,
      "Grant": 8983,
      "attributed": 8984,
      "Hand": 8985,
      "Kingdom": 8986,
      "revolution": 8987,
      "observer": 8988,
      "Rad": 8989,
      "Zo": 8990,
      "lum": 8991,
      "enlarged": 8992,
      "uncommon": 8993,
      "##80": 8994,
      "##fts": 8995,
      "##psed": 8996,
      "##یک": 8997,
      "oft": 8998,
      "Journals": 8999,
      "Winds": 9000,
      "Science": 9001,
      "cow": 9002,
      "painted": 9003,
      "jaw": 9004,
      "##rogen": 9005,
      "stronger": 9006,
      "Jon": 9007,
      "##rr": 9008,
      "Lun": 9009,
      "wages": 9010,
      "foregoing": 9011,
      "quatre": 9012,
      "sheep": 9013,
      "assembled": 9014,
      "vie": 9015,
      "##allax": 9016,
      "gun": 9017,
      "##tery": 9018,
      "fulf": 9019,
      "ligne": 9020,
      "excitement": 9021,
      "Number": 9022,
      "##orney": 9023,
      "##untur": 9024,
      "irrit": 9025,
      "energy": 9026,
      "Mir": 9027,
      "ht": 9028,
      "##ulse": 9029,
      "secured": 9030,
      "1803": 9031,
      "Contin": 9032,
      "##riculture": 9033,
      "poured": 9034,
      "impl": 9035,
      "Fanny": 9036,
      "Jup": 9037,
      "lot": 9038,
      "Annal": 9039,
      "flight": 9040,
      "opposition": 9041,
      "neighbouring": 9042,
      "Chapter": 9043,
      "Barbara": 9044,
      "##pat": 9045,
      "##hal": 9046,
      "##rific": 9047,
      "continues": 9048,
      "stead": 9049,
      "##riction": 9050,
      "SW": 9051,
      "conver": 9052,
      "sugar": 9053,
      "##antur": 9054,
      "cau": 9055,
      "##sea": 9056,
      "deja": 9057,
      "Dear": 9058,
      "Coler": 9059,
      "Archit": 9060,
      "daughters": 9061,
      "Celt": 9062,
      "Spr": 9063,
      "##ifi": 9064,
      "##velles": 9065,
      "removal": 9066,
      "venture": 9067,
      "tissu": 9068,
      "Each": 9069,
      "luminous": 9070,
      "##ensi": 9071,
      "Lewis": 9072,
      "Bir": 9073,
      "##etus": 9074,
      "Health": 9075,
      "Memoire": 9076,
      "apprehens": 9077,
      "##TIN": 9078,
      "shook": 9079,
      "sommet": 9080,
      "fluids": 9081,
      "file": 9082,
      "prod": 9083,
      "Lod": 9084,
      "uf": 9085,
      "Arist": 9086,
      "##inaire": 9087,
      "Gerald": 9088,
      "##quil": 9089,
      "flow": 9090,
      "Cul": 9091,
      "wond": 9092,
[...]
