{
  "version": "1.0",
  "truncation": null,
  "padding": null,
  "added_tokens": [
    {
      "id": 0,
      "content": "<|endoftext|>",
      "single_word": false,
      "lstrip": false,
      "rstrip": false,
      "normalized": false,
      "special": true
    },
    {
      "id": 1,
      "content": "<|startoftext|>",
      "single_word": false,
      "lstrip": false,
      "rstrip": false,
      "normalized": false,
      "special": true
    },
    {
      "id": 2,
      "content": "<|pad|>",
      "single_word": false,
      "lstrip": false,
      "rstrip": false,
      "normalized": false,
      "special": true
    },
    {
      "id": 3,
      "content": "<|unk|>",
      "single_word": false,
      "lstrip": false,
      "rstrip": false,
      "normalized": false,
      "special": true
    },
    {
      "id": 4,
      "content": "<|mask|>",
      "single_word": false,
      "lstrip": false,
      "rstrip": false,
      "normalized": false,
      "special": true
    },
    {
      "id": 5,
      "content": "<|sep|>",
      "single_word": false,
      "lstrip": false,
      "rstrip": false,
      "normalized": false,
      "special": true
    },
    {
      "id": 6,
      "content": "<|cls|>",
      "single_word": false,
      "lstrip": false,
      "rstrip": false,
      "normalized": false,
      "special": true
    },
    {
      "id": 7,
      "content": "<|eos|>",
      "single_word": false,
      "lstrip": false,
      "rstrip": false,
      "normalized": false,
      "special": true
    },
    {
      "id": 8,
      "content": "<|bos|>",
      "single_word": false,
      "lstrip": false,
      "rstrip": false,
      "normalized": false,
      "special": true
    },
    {
      "id": 9,
      "content": "<|thou|>",
      "single_word": false,
      "lstrip": false,
      "rstrip": false,
      "normalized": false,
      "special": true
    },
    {
      "id": 10,
      "content": "<|thee|>",
      "single_word": false,
      "lstrip": false,
      "rstrip": false,
      "normalized": false,
      "special": true
    },
    {
      "id": 11,
      "content": "<|thy|>",
      "single_word": false,
      "lstrip": false,
      "rstrip": false,
      "normalized": false,
      "special": true
    },
    {
      "id": 12,
      "content": "<|thine|>",
      "single_word": false,
      "lstrip": false,
      "rstrip": false,
      "normalized": false,
      "special": true
    },
    {
      "id": 13,
      "content": "<|hast|>",
      "single_word": false,
      "lstrip": false,
      "rstrip": false,
      "normalized": false,
      "special": true
    },
    {
      "id": 14,
      "content": "<|hath|>",
      "single_word": false,
      "lstrip": false,
      "rstrip": false,
      "normalized": false,
      "special": true
    },
    {
      "id": 15,
      "content": "<|doth|>",
      "single_word": false,
      "lstrip": false,
      "rstrip": false,
      "normalized": false,
      "special": true
    },
    {
      "id": 16,
      "content": "<|dost|>",
      "single_word": false,
      "lstrip": false,
      "rstrip": false,
      "normalized": false,
      "special": true
    },
    {
      "id": 17,
      "content": "<|art|>",
      "single_word": false,
      "lstrip": false,
      "rstrip": false,
      "normalized": false,
      "special": true
    },
    {
      "id": 18,
      "content": "<|wilt|>",
      "single_word": false,
      "lstrip": false,
      "rstrip": false,
      "normalized": false,
      "special": true
    },
    {
      "id": 19,
      "content": "<|shalt|>",
      "single_word": false,
      "lstrip": false,
      "rstrip": false,
      "normalized": false,
      "special": true
    },
    {
      "id": 20,
      "content": "<|canst|>",
      "single_word": false,
      "lstrip": false,
      "rstrip": false,
      "normalized": false,
      "special": true
    },
    {
      "id": 21,
      "content": "<|verily|>",
      "single_word": false,
      "lstrip": false,
      "rstrip": false,
      "normalized": false,
      "special": true
    },
    {
      "id": 22,
      "content": "<|indeed|>",
      "single_word": false,
      "lstrip": false,
      "rstrip": false,
      "normalized": false,
      "special": true
    },
    {
      "id": 23,
      "content": "<|forsooth|>",
      "single_word": false,
      "lstrip": false,
      "rstrip": false,
      "normalized": false,
      "special": true
    },
    {
      "id": 24,
      "content": "<|methinks|>",
      "single_word": false,
      "lstrip": false,
      "rstrip": false,
      "normalized": false,
      "special": true
    },
    {
      "id": 25,
      "content": "<|perchance|>",
      "single_word": false,
      "lstrip": false,
      "rstrip": false,
      "normalized": false,
      "special": true
    },
    {
      "id": 26,
      "content": "<|anon|>",
      "single_word": false,
      "lstrip": false,
      "rstrip": false,
      "normalized": false,
      "special": true
    },
    {
      "id": 27,
      "content": "<|ere|>",
      "single_word": false,
      "lstrip": false,
      "rstrip": false,
      "normalized": false,
      "special": true
    },
    {
      "id": 28,
      "content": "<|whilst|>",
      "single_word": false,
      "lstrip": false,
      "rstrip": false,
      "normalized": false,
      "special": true
    },
    {
      "id": 29,
      "content": "<|betwixt|>",
      "single_word": false,
      "lstrip": false,
      "rstrip": false,
      "normalized": false,
      "special": true
    },
    {
      "id": 30,
      "content": "<|amongst|>",
      "single_word": false,
      "lstrip": false,
      "rstrip": false,
      "normalized": false,
      "special": true
    },
    {
      "id": 31,
      "content": "<|prithee|>",
      "single_word": false,
      "lstrip": false,
      "rstrip": false,
      "normalized": false,
      "special": true
    },
    {
      "id": 32,
      "content": "<|pray|>",
      "single_word": false,
      "lstrip": false,
      "rstrip": false,
      "normalized": false,
      "special": true
    },
    {
      "id": 33,
      "content": "<|beseech|>",
      "single_word": false,
      "lstrip": false,
      "rstrip": false,
      "normalized": false,
      "special": true
    },
    {
      "id": 34,
      "content": "<|ye|>",
      "single_word": false,
      "lstrip": false,
      "rstrip": false,
      "normalized": false,
      "special": true
    },
    {
      "id": 35,
      "content": "<|yon|>",
      "single_word": false,
      "lstrip": false,
      "rstrip": false,
      "normalized": false,
      "special": true
    },
    {
      "id": 36,
      "content": "<|fain|>",
      "single_word": false,
      "lstrip": false,
      "rstrip": false,
      "normalized": false,
      "special": true
    },
    {
      "id": 37,
      "content": "<|quoth|>",
      "single_word": false,
      "lstrip": false,
      "rstrip": false,
      "normalized": false,
      "special": true
    },
    {
      "id": 38,
      "content": "<|afeard|>",
      "single_word": false,
      "lstrip": false,
      "rstrip": false,
      "normalized": false,
      "special": true
    },
    {
      "id": 39,
      "content": "<|affright|>",
      "single_word": false,
      "lstrip": false,
      "rstrip": false,
      "normalized": false,
      "special": true
    },
    {
      "id": 40,
      "content": "<|albeit|>",
      "single_word": false,
      "lstrip": false,
      "rstrip": false,
      "normalized": false,
      "special": true
    },
    {
      "id": 41,
      "content": "<|howbeit|>",
      "single_word": false,
      "lstrip": false,
      "rstrip": false,
      "normalized": false,
      "special": true
    },
    {
      "id": 42,
      "content": "<|hither|>",
      "single_word": false,
      "lstrip": false,
      "rstrip": false,
      "normalized": false,
      "special": true
    },
    {
      "id": 43,
      "content": "<|thither|>",
      "single_word": false,
      "lstrip": false,
      "rstrip": false,
      "normalized": false,
      "special": true
    },
    {
      "id": 44,
      "content": "<|whence|>",
      "single_word": false,
      "lstrip": false,
      "rstrip": false,
      "normalized": false,
      "special": true
    },
    {
      "id": 45,
      "content": "<|whither|>",
      "single_word": false,
      "lstrip": false,
      "rstrip": false,
      "normalized": false,
      "special": true
    },
    {
      "id": 46,
      "content": "<|wherefore|>",
      "single_word": false,
      "lstrip": false,
      "rstrip": false,
      "normalized": false,
      "special": true
    },
    {
      "id": 47,
      "content": "<|hitherto|>",
      "single_word": false,
      "lstrip": false,
      "rstrip": false,
      "normalized": false,
      "special": true
    },
    {
      "id": 48,
      "content": "<|thereto|>",
      "single_word": false,
      "lstrip": false,
      "rstrip": false,
      "normalized": false,
      "special": true
    },
    {
      "id": 49,
      "content": "<|whereto|>",
      "single_word": false,
      "lstrip": false,
      "rstrip": false,
      "normalized": false,
      "special": true
    },
    {
      "id": 50,
      "content": "<|whereby|>",
      "single_word": false,
      "lstrip": false,
      "rstrip": false,
      "normalized": false,
      "special": true
    },
    {
      "id": 51,
      "content": "<|peradventure|>",
      "single_word": false,
      "lstrip": false,
      "rstrip": false,
      "normalized": false,
      "special": true
    },
    {
      "id": 52,
      "content": "<|truly|>",
      "single_word": false,
      "lstrip": false,
      "rstrip": false,
      "normalized": false,
      "special": true
    },
    {
      "id": 53,
      "content": "<|marry|>",
      "single_word": false,
      "lstrip": false,
      "rstrip": false,
      "normalized": false,
      "special": true
    },
    {
      "id": 54,
      "content": "<|goodmorrow|>",
      "single_word": false,
      "lstrip": false,
      "rstrip": false,
      "normalized": false,
      "special": true
    },
    {
      "id": 55,
      "content": "<|farewell|>",
      "single_word": false,
      "lstrip": false,
      "rstrip": false,
      "normalized": false,
      "special": true
    },
    {
      "id": 56,
      "content": "<|london|>",
      "single_word": false,
      "lstrip": false,
      "rstrip": false,
      "normalized": false,
      "special": true
    },
    {
      "id": 57,
      "content": "<|thames|>",
      "single_word": false,
      "lstrip": false,
      "rstrip": false,
      "normalized": false,
      "special": true
    },
    {
      "id": 58,
      "content": "<|westminster|>",
      "single_word": false,
      "lstrip": false,
      "rstrip": false,
      "normalized": false,
      "special": true
    },
    {
      "id": 59,
      "content": "<|city|>",
      "single_word": false,
      "lstrip": false,
      "rstrip": false,
      "normalized": false,
      "special": true
    },
    {
      "id": 60,
      "content": "<|borough|>",
      "single_word": false,
      "lstrip": false,
      "rstrip": false,
      "normalized": false,
      "special": true
    },
    {
      "id": 61,
      "content": "<|parish|>",
      "single_word": false,
      "lstrip": false,
      "rstrip": false,
      "normalized": false,
      "special": true
    },
    {
      "id": 62,
      "content": "<|ward|>",
      "single_word": false,
      "lstrip": false,
      "rstrip": false,
      "normalized": false,
      "special": true
    },
    {
      "id": 63,
      "content": "<|street|>",
      "single_word": false,
      "lstrip": false,
      "rstrip": false,
      "normalized": false,
      "special": true
    },
    {
      "id": 64,
      "content": "<|lane|>",
      "single_word": false,
      "lstrip": false,
      "rstrip": false,
      "normalized": false,
      "special": true
    },
    {
      "id": 65,
      "content": "<|court|>",
      "single_word": false,
      "lstrip": false,
      "rstrip": false,
      "normalized": false,
      "special": true
    },
    {
      "id": 66,
      "content": "<|tavern|>",
      "single_word": false,
      "lstrip": false,
      "rstrip": false,
      "normalized": false,
      "special": true
    },
    {
      "id": 67,
      "content": "<|inn|>",
      "single_word": false,
      "lstrip": false,
      "rstrip": false,
      "normalized": false,
      "special": true
    },
    {
      "id": 68,
      "content": "<|coffeehouse|>",
      "single_word": false,
      "lstrip": false,
      "rstrip": false,
      "normalized": false,
      "special": true
    },
    {
      "id": 69,
      "content": "<|market|>",
      "single_word": false,
      "lstrip": false,
      "rstrip": false,
      "normalized": false,
      "special": true
    },
    {
      "id": 70,
      "content": "<|fair|>",
      "single_word": false,
      "lstrip": false,
      "rstrip": false,
      "normalized": false,
      "special": true
    },
    {
      "id": 71,
      "content": "<|tower|>",
      "single_word": false,
      "lstrip": false,
      "rstrip": false,
      "normalized": false,
      "special": true
    },
    {
      "id": 72,
      "content": "<|stpauls|>",
      "single_word": false,
      "lstrip": false,
      "rstrip": false,
      "normalized": false,
      "special": true
    },
    {
      "id": 73,
      "content": "<|fleet|>",
      "single_word": false,
      "lstrip": false,
      "rstrip": false,
      "normalized": false,
      "special": true
    },
    {
      "id": 74,
      "content": "<|cheapside|>",
      "single_word": false,
      "lstrip": false,
      "rstrip": false,
      "normalized": false,
      "special": true
    },
    {
      "id": 75,
      "content": "<|smithfield|>",
      "single_word": false,
      "lstrip": false,
      "rstrip": false,
      "normalized": false,
      "special": true
    },
    {
      "id": 76,
      "content": "<|tyburn|>",
      "single_word": false,
      "lstrip": false,
      "rstrip": false,
      "normalized": false,
      "special": true
    },
    {
      "id": 77,
      "content": "<|newgate|>",
      "single_word": false,
      "lstrip": false,
      "rstrip": false,
      "normalized": false,
      "special": true
    },
    {
      "id": 78,
      "content": "<|southwark|>",
      "single_word": false,
      "lstrip": false,
      "rstrip": false,
      "normalized": false,
      "special": true
    },
    {
      "id": 79,
      "content": "<|coventgarden|>",
      "single_word": false,
      "lstrip": false,
      "rstrip": false,
      "normalized": false,
      "special": true
    },
    {
      "id": 80,
      "content": "<|billingsgate|>",
      "single_word": false,
      "lstrip": false,
      "rstrip": false,
      "normalized": false,
      "special": true
    },
    {
      "id": 81,
      "content": "<|leadenhall|>",
      "single_word": false,
      "lstrip": false,
      "rstrip": false,
      "normalized": false,
      "special": true
    },
    {
      "id": 82,
      "content": "<|guildhall|>",
      "single_word": false,
      "lstrip": false,
      "rstrip": false,
      "normalized": false,
      "special": true
    },
    {
      "id": 83,
      "content": "<|exchange|>",
      "single_word": false,
      "lstrip": false,
      "rstrip": false,
      "normalized": false,
      "special": true
    },
    {
      "id": 84,
      "content": "<|bridge|>",
      "single_word": false,
      "lstrip": false,
      "rstrip": false,
      "normalized": false,
      "special": true
    },
    {
      "id": 85,
      "content": "<|wharf|>",
      "single_word": false,
      "lstrip": false,
      "rstrip": false,
      "normalized": false,
      "special": true
    },
    {
      "id": 86,
      "content": "<|tudor|>",
      "single_word": false,
      "lstrip": false,
      "rstrip": false,
      "normalized": false,
      "special": true
    },
    {
      "id": 87,
      "content": "<|stuart|>",
      "single_word": false,
      "lstrip": false,
      "rstrip": false,
      "normalized": false,
      "special": true
    },
    {
      "id": 88,
      "content": "<|georgian|>",
      "single_word": false,
      "lstrip": false,
      "rstrip": false,
      "normalized": false,
      "special": true
    },
    {
      "id": 89,
      "content": "<|regency|>",
      "single_word": false,
      "lstrip": false,
      "rstrip": false,
      "normalized": false,
      "special": true
    },
    {
      "id": 90,
      "content": "<|victorian|>",
      "single_word": false,
      "lstrip": false,
      "rstrip": false,
      "normalized": false,
      "special": true
    },
    {
      "id": 91,
      "content": "<|plague|>",
      "single_word": false,
      "lstrip": false,
      "rstrip": false,
      "normalized": false,
      "special": true
    },
    {
      "id": 92,
      "content": "<|fire|>",
      "single_word": false,
      "lstrip": false,
      "rstrip": false,
      "normalized": false,
      "special": true
    },
    {
      "id": 93,
      "content": "<|great|>",
      "single_word": false,
      "lstrip": false,
      "rstrip": false,
      "normalized": false,
      "special": true
    },
    {
      "id": 94,
      "content": "<|civil|>",
      "single_word": false,
      "lstrip": false,
      "rstrip": false,
      "normalized": false,
      "special": true
    },
    {
      "id": 95,
      "content": "<|war|>",
      "single_word": false,
      "lstrip": false,
      "rstrip": false,
      "normalized": false,
      "special": true
    },
    {
      "id": 96,
      "content": "<|elizabethan|>",
      "single_word": false,
      "lstrip": false,
      "rstrip": false,
      "normalized": false,
      "special": true
    },
    {
      "id": 97,
      "content": "<|restoration|>",
      "single_word": false,
      "lstrip": false,
      "rstrip": false,
      "normalized": false,
      "special": true
    },
    {
      "id": 98,
      "content": "<|hanoverian|>",
      "single_word": false,
      "lstrip": false,
      "rstrip": false,
      "normalized": false,
      "special": true
    },
    {
      "id": 99,
      "content": "<|enlightenment|>",
      "single_word": false,
      "lstrip": false,
      "rstrip": false,
      "normalized": false,
      "special": true
    },
    {
      "id": 100,
      "content": "<|gunpowder|>",
      "single_word": false,
      "lstrip": false,
      "rstrip": false,
      "normalized": false,
      "special": true
    },
    {
      "id": 101,
      "content": "<|popish|>",
      "single_word": false,
      "lstrip": false,
      "rstrip": false,
      "normalized": false,
      "special": true
    },
    {
      "id": 102,
      "content": "<|southsea|>",
      "single_word": false,
      "lstrip": false,
      "rstrip": false,
      "normalized": false,
      "special": true
    },
    {
      "id": 103,
      "content": "<|bubble|>",
      "single_word": false,
      "lstrip": false,
      "rstrip": false,
      "normalized": false,
      "special": true
    },
    {
      "id": 104,
      "content": "<|revolution|>",
      "single_word": false,
      "lstrip": false,
      "rstrip": false,
      "normalized": false,
      "special": true
    },
    {
      "id": 105,
      "content": "<|glorious|>",
      "single_word": false,
      "lstrip": false,
      "rstrip": false,
      "normalized": false,
      "special": true
    },
    {
      "id": 106,
      "content": "<|noble|>",
      "single_word": false,
      "lstrip": false,
      "rstrip": false,
      "normalized": false,
      "special": true
    },
    {
      "id": 107,
      "content": "<|gentleman|>",
      "single_word": false,
      "lstrip": false,
      "rstrip": false,
      "normalized": false,
      "special": true
    },
    {
      "id": 108,
      "content": "<|lady|>",
      "single_word": false,
      "lstrip": false,
      "rstrip": false,
      "normalized": false,
      "special": true
    },
    {
      "id": 109,
      "content": "<|commoner|>",
      "single_word": false,
      "lstrip": false,
      "rstrip": false,
      "normalized": false,
      "special": true
    },
    {
      "id": 110,
      "content": "<|apprentice|>",
      "single_word": false,
      "lstrip": false,
      "rstrip": false,
      "normalized": false,
      "special": true
    },
    {
      "id": 111,
      "content": "<|servant|>",
      "single_word": false,
      "lstrip": false,
      "rstrip": false,
      "normalized": false,
      "special": true
    },
    {
      "id": 112,
      "content": "<|merchant|>",
      "single_word": false,
      "lstrip": false,
      "rstrip": false,
      "normalized": false,
      "special": true
    },
    {
      "id": 113,
      "content": "<|artisan|>",
      "single_word": false,
      "lstrip": false,
      "rstrip": false,
      "normalized": false,
      "special": true
    },
    {
      "id": 114,
      "content": "<|labourer|>",
      "single_word": false,
      "lstrip": false,
      "rstrip": false,
      "normalized": false,
      "special": true
    },
    {
      "id": 115,
      "content": "<|beggar|>",
      "single_word": false,
      "lstrip": false,
      "rstrip": false,
      "normalized": false,
      "special": true
    },
    {
      "id": 116,
      "content": "<|yeoman|>",
      "single_word": false,
      "lstrip": false,
      "rstrip": false,
      "normalized": false,
      "special": true
    },
    {
      "id": 117,
      "content": "<|squire|>",
      "single_word": false,
      "lstrip": false,
      "rstrip": false,
      "normalized": false,
      "special": true
    },
    {
      "id": 118,
      "content": "<|knight|>",
      "single_word": false,
      "lstrip": false,
      "rstrip": false,
      "normalized": false,
      "special": true
    },
    {
      "id": 119,
      "content": "<|duke|>",
      "single_word": false,
      "lstrip": false,
      "rstrip": false,
      "normalized": false,
      "special": true
    },
    {
      "id": 120,
      "content": "<|earl|>",
      "single_word": false,
      "lstrip": false,
      "rstrip": false,
      "normalized": false,
      "special": true
    },
    {
      "id": 121,
      "content": "<|vagabond|>",
      "single_word": false,
      "lstrip": false,
      "rstrip": false,
      "normalized": false,
      "special": true
    },
    {
      "id": 122,
      "content": "<|pauper|>",
      "single_word": false,
      "lstrip": false,
      "rstrip": false,
      "normalized": false,
      "special": true
    },
    {
      "id": 123,
      "content": "<|alderman|>",
      "single_word": false,
      "lstrip": false,
      "rstrip": false,
      "normalized": false,
      "special": true
    },
    {
      "id": 124,
      "content": "<|burgess|>",
      "single_word": false,
      "lstrip": false,
      "rstrip": false,
      "normalized": false,
      "special": true
    },
    {
      "id": 125,
      "content": "<|freeman|>",
      "single_word": false,
      "lstrip": false,
      "rstrip": false,
      "normalized": false,
      "special": true
    },
    {
      "id": 126,
      "content": "<|trial|>",
      "single_word": false,
      "lstrip": false,
      "rstrip": false,
      "normalized": false,
      "special": true
    },
    {
      "id": 127,
      "content": "<|judge|>",
      "single_word": false,
      "lstrip": false,
      "rstrip": false,
      "normalized": false,
      "special": true
    },
    {
      "id": 128,
      "content": "<|jury|>",
      "single_word": false,
      "lstrip": false,
      "rstrip": false,
      "normalized": false,
      "special": true
    },
    {
      "id": 129,
      "content": "<|witness|>",
      "single_word": false,
      "lstrip": false,
      "rstrip": false,
      "normalized": false,
      "special": true
    },
    {
      "id": 130,
      "content": "<|accused|>",
      "single_word": false,
      "lstrip": false,
      "rstrip": false,
      "normalized": false,
      "special": true
    },
    {
      "id": 131,
      "content": "<|sentence|>",
      "single_word": false,
      "lstrip": false,
      "rstrip": false,
      "normalized": false,
      "special": true
    },
    {
      "id": 132,
      "content": "<|punishment|>",
      "single_word": false,
      "lstrip": false,
      "rstrip": false,
      "normalized": false,
      "special": true
    },
    {
      "id": 133,
      "content": "<|gaol|>",
      "single_word": false,
      "lstrip": false,
      "rstrip": false,
      "normalized": false,
      "special": true
    },
    {
      "id": 134,
      "content": "<|transport|>",
      "single_word": false,
      "lstrip": false,
      "rstrip": false,
      "normalized": false,
      "special": true
    },
    {
      "id": 135,
      "content": "<|hanging|>",
      "single_word": false,
      "lstrip": false,
      "rstrip": false,
      "normalized": false,
      "special": true
    },
    {
      "id": 136,
      "content": "<|magistrate|>",
      "single_word": false,
      "lstrip": false,
      "rstrip": false,
      "normalized": false,
      "special": true
    },
    {
      "id": 137,
      "content": "<|constable|>",
      "single_word": false,
      "lstrip": false,
      "rstrip": false,
      "normalized": false,
      "special": true
    },
    {
      "id": 138,
      "content": "<|watchman|>",
      "single_word": false,
      "lstrip": false,
      "rstrip": false,
      "normalized": false,
      "special": true
    },
    {
      "id": 139,
      "content": "<|pillory|>",
      "single_word": false,
      "lstrip": false,
      "rstrip": false,
      "normalized": false,
      "special": true
    },
    {
      "id": 140,
      "content": "<|stocks|>",
      "single_word": false,
      "lstrip": false,
      "rstrip": false,
      "normalized": false,
      "special": true
    },
    {
      "id": 141,
      "content": "<|indictment|>",
      "single_word": false,
      "lstrip": false,
      "rstrip": false,
      "normalized": false,
      "special": true
    },
    {
      "id": 142,
      "content": "<|verdict|>",
      "single_word": false,
      "lstrip": false,
      "rstrip": false,
      "normalized": false,
      "special": true
    },
    {
      "id": 143,
      "content": "<|execution|>",
      "single_word": false,
      "lstrip": false,
      "rstrip": false,
      "normalized": false,
      "special": true
    },
    {
      "id": 144,
      "content": "<|tyburntree|>",
      "single_word": false,
      "lstrip": false,
      "rstrip": false,
      "normalized": false,
      "special": true
    },
    {
      "id": 145,
      "content": "<|newgatebird|>",
      "single_word": false,
      "lstrip": false,
      "rstrip": false,
      "normalized": false,
      "special": true
    },
    {
      "id": 146,
      "content": "<|church|>",
      "single_word": false,
      "lstrip": false,
      "rstrip": false,
      "normalized": false,
      "special": true
    },
    {
      "id": 147,
      "content": "<|clergy|>",
      "single_word": false,
      "lstrip": false,
      "rstrip": false,
      "normalized": false,
      "special": true
    },
    {
      "id": 148,
      "content": "<|bishop|>",
      "single_word": false,
      "lstrip": false,
      "rstrip": false,
      "normalized": false,
      "special": true
    },
    {
      "id": 149,
      "content": "<|archbishop|>",
      "single_word": false,
      "lstrip": false,
      "rstrip": false,
      "normalized": false,
      "special": true
    },
    {
      "id": 150,
      "content": "<|prayer|>",
      "single_word": false,
      "lstrip": false,
      "rstrip": false,
      "normalized": false,
      "special": true
    },
    {
      "id": 151,
      "content": "<|sermon|>",
      "single_word": false,
      "lstrip": false,
      "rstrip": false,
      "normalized": false,
      "special": true
    },
    {
      "id": 152,
      "content": "<|blessing|>",
      "single_word": false,
      "lstrip": false,
      "rstrip": false,
      "normalized": false,
      "special": true
    },
    {
      "id": 153,
      "content": "<|curse|>",
      "single_word": false,
      "lstrip": false,
      "rstrip": false,
      "normalized": false,
      "special": true
    },
    {
      "id": 154,
      "content": "<|sin|>",
      "single_word": false,
      "lstrip": false,
      "rstrip": false,
      "normalized": false,
      "special": true
    },
    {
      "id": 155,
      "content": "<|puritan|>",
      "single_word": false,
      "lstrip": false,
      "rstrip": false,
      "normalized": false,
      "special": true
    },
    {
      "id": 156,
      "content": "<|dissenter|>",
      "single_word": false,
      "lstrip": false,
      "rstrip": false,
      "normalized": false,
      "special": true
    },
    {
      "id": 157,
      "content": "<|catholic|>",
      "single_word": false,
      "lstrip": false,
      "rstrip": false,
      "normalized": false,
      "special": true
    },
    {
      "id": 158,
      "content": "<|protestant|>",
      "single_word": false,
      "lstrip": false,
      "rstrip": false,
      "normalized": false,
      "special": true
    },
    {
      "id": 159,
      "content": "<|chapel|>",
      "single_word": false,
      "lstrip": false,
      "rstrip": false,
      "normalized": false,
      "special": true
    },
    {
      "id": 160,
      "content": "<|tithes|>",
      "single_word": false,
      "lstrip": false,
      "rstrip": false,
      "normalized": false,
      "special": true
    },
    {
      "id": 161,
      "content": "<|communion|>",
      "single_word": false,
      "lstrip": false,
      "rstrip": false,
      "normalized": false,
      "special": true
    },
    {
      "id": 162,
      "content": "<|heresy|>",
      "single_word": false,
      "lstrip": false,
      "rstrip": false,
      "normalized": false,
      "special": true
    },
    {
      "id": 163,
      "content": "<|papist|>",
      "single_word": false,
      "lstrip": false,
      "rstrip": false,
      "normalized": false,
      "special": true
    },
    {
      "id": 164,
      "content": "<|atheist|>",
      "single_word": false,
      "lstrip": false,
      "rstrip": false,
      "normalized": false,
      "special": true
    },
    {
      "id": 165,
      "content": "<|shilling|>",
      "single_word": false,
      "lstrip": false,
      "rstrip": false,
      "normalized": false,
      "special": true
    },
    {
      "id": 166,
      "content": "<|pound|>",
      "single_word": false,
      "lstrip": false,
      "rstrip": false,
      "normalized": false,
      "special": true
    },
    {
      "id": 167,
      "content": "<|penny|>",
      "single_word": false,
      "lstrip": false,
      "rstrip": false,
      "normalized": false,
      "special": true
    },
    {
      "id": 168,
      "content": "<|guinea|>",
      "single_word": false,
      "lstrip": false,
      "rstrip": false,
      "normalized": false,
      "special": true
    },
    {
      "id": 169,
      "content": "<|crown|>",
      "single_word": false,
      "lstrip": false,
      "rstrip": false,
      "normalized": false,
      "special": true
    },
    {
      "id": 170,
      "content": "<|trade|>",
      "single_word": false,
      "lstrip": false,
      "rstrip": false,
      "normalized": false,
      "special": true
    },
    {
      "id": 171,
      "content": "<|commerce|>",
      "single_word": false,
      "lstrip": false,
      "rstrip": false,
      "normalized": false,
      "special": true
    },
    {
      "id": 172,
      "content": "<|shop|>",
      "single_word": false,
      "lstrip": false,
      "rstrip": false,
      "normalized": false,
      "special": true
    },
    {
      "id": 173,
      "content": "<|warehouse|>",
      "single_word": false,
      "lstrip": false,
      "rstrip": false,
      "normalized": false,
      "special": true
    },
    {
      "id": 174,
      "content": "<|farthing|>",
      "single_word": false,
      "lstrip": false,
      "rstrip": false,
      "normalized": false,
      "special": true
    },
    {
      "id": 175,
      "content": "<|halfpenny|>",
      "single_word": false,
      "lstrip": false,
      "rstrip": false,
      "normalized": false,
      "special": true
    },
    {
      "id": 176,
      "content": "<|groat|>",
      "single_word": false,
      "lstrip": false,
      "rstrip": false,
      "normalized": false,
      "special": true
    },
    {
      "id": 177,
      "content": "<|sovereign|>",
      "single_word": false,
      "lstrip": false,
      "rstrip": false,
      "normalized": false,
      "special": true
    },
    {
      "id": 178,
      "content": "<|guild|>",
      "single_word": false,
      "lstrip": false,
      "rstrip": false,
      "normalized": false,
      "special": true
    },
    {
      "id": 179,
      "content": "<|livery|>",
      "single_word": false,
      "lstrip": false,
      "rstrip": false,
      "normalized": false,
      "special": true
    },
    {
      "id": 180,
      "content": "<|apprenticeship|>",
      "single_word": false,
      "lstrip": false,
      "rstrip": false,
      "normalized": false,
      "special": true
    },
    {
      "id": 181,
      "content": "<|bargain|>",
      "single_word": false,
      "lstrip": false,
      "rstrip": false,
      "normalized": false,
      "special": true
    },
    {
      "id": 182,
      "content": "<|usury|>",
      "single_word": false,
      "lstrip": false,
      "rstrip": false,
      "normalized": false,
      "special": true
    },
    {
      "id": 183,
      "content": "<|morn|>",
      "single_word": false,
      "lstrip": false,
      "rstrip": false,
      "normalized": false,
      "special": true
    },
    {
      "id": 184,
      "content": "<|noon|>",
      "single_word": false,
      "lstrip": false,
      "rstrip": false,
      "normalized": false,
      "special": true
    },
    {
      "id": 185,
      "content": "<|eve|>",
      "single_word": false,
      "lstrip": false,
      "rstrip": false,
      "normalized": false,
      "special": true
    },
    {
      "id": 186,
      "content": "<|night|>",
      "single_word": false,
      "lstrip": false,
      "rstrip": false,
      "normalized": false,
      "special": true
    },
    {
      "id": 187,
      "content": "<|dawn|>",
      "single_word": false,
      "lstrip": false,
      "rstrip": false,
      "normalized": false,
      "special": true
    },
    {
      "id": 188,
      "content": "<|dusk|>",
      "single_word": false,
      "lstrip": false,
      "rstrip": false,
      "normalized": false,
      "special": true
    },
    {
      "id": 189,
      "content": "<|monday|>",
      "single_word": false,
      "lstrip": false,
      "rstrip": false,
      "normalized": false,
      "special": true
    },
    {
      "id": 190,
      "content": "<|tuesday|>",
      "single_word": false,
      "lstrip": false,
      "rstrip": false,
      "normalized": false,
      "special": true
    },
    {
      "id": 191,
      "content": "<|wednesday|>",
      "single_word": false,
      "lstrip": false,
      "rstrip": false,
      "normalized": false,
      "special": true
    },
    {
      "id": 192,
      "content": "<|thursday|>",
      "single_word": false,
      "lstrip": false,
      "rstrip": false,
      "normalized": false,
      "special": true
    },
    {
      "id": 193,
      "content": "<|friday|>",
      "single_word": false,
      "lstrip": false,
      "rstrip": false,
      "normalized": false,
      "special": true
    },
    {
      "id": 194,
      "content": "<|saturday|>",
      "single_word": false,
      "lstrip": false,
      "rstrip": false,
      "normalized": false,
      "special": true
    },
    {
      "id": 195,
      "content": "<|sunday|>",
      "single_word": false,
      "lstrip": false,
      "rstrip": false,
      "normalized": false,
      "special": true
    },
    {
      "id": 196,
      "content": "<|january|>",
      "single_word": false,
      "lstrip": false,
      "rstrip": false,
      "normalized": false,
      "special": true
    },
    {
      "id": 197,
      "content": "<|february|>",
      "single_word": false,
      "lstrip": false,
      "rstrip": false,
      "normalized": false,
      "special": true
    },
    {
      "id": 198,
      "content": "<|march|>",
      "single_word": false,
      "lstrip": false,
      "rstrip": false,
      "normalized": false,
      "special": true
    },
    {
      "id": 199,
      "content": "<|april|>",
      "single_word": false,
      "lstrip": false,
      "rstrip": false,
      "normalized": false,
      "special": true
    },
    {
      "id": 200,
      "content": "<|may|>",
      "single_word": false,
      "lstrip": false,
      "rstrip": false,
      "normalized": false,
      "special": true
    },
    {
      "id": 201,
      "content": "<|june|>",
      "single_word": false,
      "lstrip": false,
      "rstrip": false,
      "normalized": false,
      "special": true
    },
    {
      "id": 202,
      "content": "<|july|>",
      "single_word": false,
      "lstrip": false,
      "rstrip": false,
      "normalized": false,
      "special": true
    },
    {
      "id": 203,
      "content": "<|august|>",
      "single_word": false,
      "lstrip": false,
      "rstrip": false,
      "normalized": false,
      "special": true
    },
    {
      "id": 204,
      "content": "<|september|>",
      "single_word": false,
      "lstrip": false,
      "rstrip": false,
      "normalized": false,
      "special": true
    },
    {
      "id": 205,
      "content": "<|october|>",
      "single_word": false,
      "lstrip": false,
      "rstrip": false,
      "normalized": false,
      "special": true
    },
    {
      "id": 206,
      "content": "<|november|>",
      "single_word": false,
      "lstrip": false,
      "rstrip": false,
      "normalized": false,
      "special": true
    },
    {
      "id": 207,
      "content": "<|december|>",
      "single_word": false,
      "lstrip": false,
      "rstrip": false,
      "normalized": false,
      "special": true
    },
    {
      "id": 208,
      "content": "<|fortnight|>",
      "single_word": false,
      "lstrip": false,
      "rstrip": false,
      "normalized": false,
      "special": true
    },
    {
      "id": 209,
      "content": "<|sennight|>",
      "single_word": false,
      "lstrip": false,
      "rstrip": false,
      "normalized": false,
      "special": true
    },
    {
      "id": 210,
      "content": "<|michaelmas|>",
      "single_word": false,
      "lstrip": false,
      "rstrip": false,
      "normalized": false,
      "special": true
    },
    {
      "id": 211,
      "content": "<|ladyday|>",
      "single_word": false,
      "lstrip": false,
      "rstrip": false,
      "normalized": false,
      "special": true
    },
    {
      "id": 212,
      "content": "<|candlemas|>",
      "single_word": false,
      "lstrip": false,
      "rstrip": false,
      "normalized": false,
      "special": true
    },
    {
      "id": 213,
      "content": "<|midsummer|>",
      "single_word": false,
      "lstrip": false,
      "rstrip": false,
      "normalized": false,
      "special": true
    },
    {
      "id": 214,
      "content": "<|christmas|>",
      "single_word": false,
      "lstrip": false,
      "rstrip": false,
      "normalized": false,
      "special": true
    },
    {
      "id": 215,
      "content": "<|easter|>",
      "single_word": false,
      "lstrip": false,
      "rstrip": false,
      "normalized": false,
      "special": true
    },
    {
      "id": 216,
      "content": "<|whitsun|>",
      "single_word": false,
      "lstrip": false,
      "rstrip": false,
      "normalized": false,
      "special": true
    },
    {
      "id": 217,
      "content": "<|lent|>",
      "single_word": false,
      "lstrip": false,
      "rstrip": false,
      "normalized": false,
      "special": true
    },
    {
      "id": 218,
      "content": "<|apothecary|>",
      "single_word": false,
      "lstrip": false,
      "rstrip": false,
      "normalized": false,
      "special": true
    },
    {
      "id": 219,
      "content": "<|barbersurgeon|>",
      "single_word": false,
      "lstrip": false,
      "rstrip": false,
      "normalized": false,
      "special": true
    },
    {
      "id": 220,
      "content": "<|coachman|>",
      "single_word": false,
      "lstrip": false,
      "rstrip": false,
      "normalized": false,
      "special": true
    },
    {
      "id": 221,
      "content": "<|linkboy|>",
      "single_word": false,
      "lstrip": false,
      "rstrip": false,
      "normalized": false,
      "special": true
    },
    {
      "id": 222,
      "content": "<|waterman|>",
      "single_word": false,
      "lstrip": false,
      "rstrip": false,
      "normalized": false,
      "special": true
    },
    {
      "id": 223,
      "content": "<|chimneysweep|>",
      "single_word": false,
      "lstrip": false,
      "rstrip": false,
      "normalized": false,
      "special": true
    },
    {
      "id": 224,
      "content": "<|costermonger|>",
      "single_word": false,
      "lstrip": false,
      "rstrip": false,
      "normalized": false,
      "special": true
    },
    {
      "id": 225,
      "content": "<|nightsoilman|>",
      "single_word": false,
      "lstrip": false,
      "rstrip": false,
      "normalized": false,
      "special": true
    },
    {
      "id": 226,
      "content": "<|beadle|>",
      "single_word": false,
      "lstrip": false,
      "rstrip": false,
      "normalized": false,
      "special": true
    },
    {
      "id": 227,
      "content": "<|crier|>",
      "single_word": false,
      "lstrip": false,
      "rstrip": false,
      "normalized": false,
      "special": true
    },
    {
      "id": 228,
      "content": "<|doss|>",
      "single_word": false,
      "lstrip": false,
      "rstrip": false,
      "normalized": false,
      "special": true
    },
    {
      "id": 229,
      "content": "<|ken|>",
      "single_word": false,
      "lstrip": false,
      "rstrip": false,
      "normalized": false,
      "special": true
    },
    {
      "id": 230,
      "content": "<|fawney|>",
      "single_word": false,
      "lstrip": false,
      "rstrip": false,
      "normalized": false,
      "special": true
    },
    {
      "id": 231,
      "content": "<|rig|>",
      "single_word": false,
      "lstrip": false,
      "rstrip": false,
      "normalized": false,
      "special": true
    },
    {
      "id": 232,
      "content": "<|sup|>",
      "single_word": false,
      "lstrip": false,
      "rstrip": false,
      "normalized": false,
      "special": true
    },
    {
      "id": 233,
      "content": "<|phiz|>",
      "single_word": false,
      "lstrip": false,
      "rstrip": false,
      "normalized": false,
      "special": true
    },
    {
      "id": 234,
      "content": "<|visage|>",
      "single_word": false,
      "lstrip": false,
      "rstrip": false,
      "normalized": false,
      "special": true
    },
    {
      "id": 235,
      "content": "<|countenance|>",
      "single_word": false,
      "lstrip": false,
      "rstrip": false,
      "normalized": false,
      "special": true
    },
    {
      "id": 236,
      "content": "<|mauther|>",
      "single_word": false,
      "lstrip": false,
      "rstrip": false,
      "normalized": false,
      "special": true
    },
    {
      "id": 237,
      "content": "<|brabble|>",
      "single_word": false,
      "lstrip": false,
      "rstrip": false,
      "normalized": false,
      "special": true
    },
    {
      "id": 238,
      "content": "<|chuffed|>",
      "single_word": false,
      "lstrip": false,
      "rstrip": false,
      "normalized": false,
      "special": true
    },
    {
      "id": 239,
      "content": "<|bauchle|>",
      "single_word": false,
      "lstrip": false,
      "rstrip": false,
      "normalized": false,
      "special": true
    },
    {
      "id": 240,
      "content": "<|clomph|>",
      "single_word": false,
      "lstrip": false,
      "rstrip": false,
      "normalized": false,
      "special": true
    },
    {
      "id": 241,
      "content": "<|cramboclink|>",
      "single_word": false,
      "lstrip": false,
      "rstrip": false,
      "normalized": false,
      "special": true
    },
    {
      "id": 242,
      "content": "<|abroad|>",
      "single_word": false,
      "lstrip": false,
      "rstrip": false,
      "normalized": false,
      "special": true
    }
  ],
  "normalizer": {
    "type": "Sequence",
    "normalizers": [
      {
        "type": "NFD"
      },
      {
        "type": "StripAccents"
      },
      {
        "type": "Lowercase"
      }
    ]
  },
  "pre_tokenizer": {
    "type": "Whitespace"
  },
  "post_processor": null,
  "decoder": null,
  "model": {
    "type": "BPE",
    "dropout": null,
    "unk_token": null,
    "continuing_subword_prefix": null,
    "end_of_word_suffix": null,
    "fuse_unk": false,
    "byte_fallback": false,
    "ignore_merges": false,
    "vocab": {
      "<|endoftext|>": 0,
      "<|startoftext|>": 1,
      "<|pad|>": 2,
      "<|unk|>": 3,
      "<|mask|>": 4,
      "<|sep|>": 5,
      "<|cls|>": 6,
      "<|eos|>": 7,
      "<|bos|>": 8,
      "<|thou|>": 9,
      "<|thee|>": 10,
      "<|thy|>": 11,
      "<|thine|>": 12,
      "<|hast|>": 13,
      "<|hath|>": 14,
      "<|doth|>": 15,
      "<|dost|>": 16,
      "<|art|>": 17,
      "<|wilt|>": 18,
      "<|shalt|>": 19,
      "<|canst|>": 20,
      "<|verily|>": 21,
      "<|indeed|>": 22,
      "<|forsooth|>": 23,
      "<|methinks|>": 24,
      "<|perchance|>": 25,
      "<|anon|>": 26,
      "<|ere|>": 27,
      "<|whilst|>": 28,
      "<|betwixt|>": 29,
      "<|amongst|>": 30,
      "<|prithee|>": 31,
      "<|pray|>": 32,
      "<|beseech|>": 33,
      "<|ye|>": 34,
      "<|yon|>": 35,
      "<|fain|>": 36,
      "<|quoth|>": 37,
      "<|afeard|>": 38,
      "<|affright|>": 39,
      "<|albeit|>": 40,
      "<|howbeit|>": 41,
      "<|hither|>": 42,
      "<|thither|>": 43,
      "<|whence|>": 44,
      "<|whither|>": 45,
      "<|wherefore|>": 46,
      "<|hitherto|>": 47,
      "<|thereto|>": 48,
      "<|whereto|>": 49,
      "<|whereby|>": 50,
      "<|peradventure|>": 51,
      "<|truly|>": 52,
      "<|marry|>": 53,
      "<|goodmorrow|>": 54,
      "<|farewell|>": 55,
      "<|london|>": 56,
      "<|thames|>": 57,
      "<|westminster|>": 58,
      "<|city|>": 59,
      "<|borough|>": 60,
      "<|parish|>": 61,
      "<|ward|>": 62,
      "<|street|>": 63,
      "<|lane|>": 64,
      "<|court|>": 65,
      "<|tavern|>": 66,
      "<|inn|>": 67,
      "<|coffeehouse|>": 68,
      "<|market|>": 69,
      "<|fair|>": 70,
      "<|tower|>": 71,
      "<|stpauls|>": 72,
      "<|fleet|>": 73,
      "<|cheapside|>": 74,
      "<|smithfield|>": 75,
      "<|tyburn|>": 76,
      "<|newgate|>": 77,
      "<|southwark|>": 78,
      "<|coventgarden|>": 79,
      "<|billingsgate|>": 80,
      "<|leadenhall|>": 81,
      "<|guildhall|>": 82,
      "<|exchange|>": 83,
      "<|bridge|>": 84,
      "<|wharf|>": 85,
      "<|tudor|>": 86,
      "<|stuart|>": 87,
      "<|georgian|>": 88,
      "<|regency|>": 89,
      "<|victorian|>": 90,
      "<|plague|>": 91,
      "<|fire|>": 92,
      "<|great|>": 93,
      "<|civil|>": 94,
      "<|war|>": 95,
      "<|elizabethan|>": 96,
      "<|restoration|>": 97,
      "<|hanoverian|>": 98,
      "<|enlightenment|>": 99,
      "<|gunpowder|>": 100,
      "<|popish|>": 101,
      "<|southsea|>": 102,
      "<|bubble|>": 103,
      "<|revolution|>": 104,
      "<|glorious|>": 105,
      "<|noble|>": 106,
      "<|gentleman|>": 107,
      "<|lady|>": 108,
      "<|commoner|>": 109,
      "<|apprentice|>": 110,
      "<|servant|>": 111,
      "<|merchant|>": 112,
      "<|artisan|>": 113,
      "<|labourer|>": 114,
      "<|beggar|>": 115,
      "<|yeoman|>": 116,
      "<|squire|>": 117,
      "<|knight|>": 118,
      "<|duke|>": 119,
      "<|earl|>": 120,
      "<|vagabond|>": 121,
      "<|pauper|>": 122,
      "<|alderman|>": 123,
      "<|burgess|>": 124,
      "<|freeman|>": 125,
      "<|trial|>": 126,
      "<|judge|>": 127,
      "<|jury|>": 128,
      "<|witness|>": 129,
      "<|accused|>": 130,
      "<|sentence|>": 131,
      "<|punishment|>": 132,
      "<|gaol|>": 133,
      "<|transport|>": 134,
      "<|hanging|>": 135,
      "<|magistrate|>": 136,
      "<|constable|>": 137,
      "<|watchman|>": 138,
      "<|pillory|>": 139,
      "<|stocks|>": 140,
      "<|indictment|>": 141,
      "<|verdict|>": 142,
      "<|execution|>": 143,
      "<|tyburntree|>": 144,
      "<|newgatebird|>": 145,
      "<|church|>": 146,
      "<|clergy|>": 147,
      "<|bishop|>": 148,
      "<|archbishop|>": 149,
      "<|prayer|>": 150,
      "<|sermon|>": 151,
      "<|blessing|>": 152,
      "<|curse|>": 153,
      "<|sin|>": 154,
      "<|puritan|>": 155,
      "<|dissenter|>": 156,
      "<|catholic|>": 157,
      "<|protestant|>": 158,
      "<|chapel|>": 159,
      "<|tithes|>": 160,
      "<|communion|>": 161,
      "<|heresy|>": 162,
      "<|papist|>": 163,
      "<|atheist|>": 164,
      "<|shilling|>": 165,
      "<|pound|>": 166,
      "<|penny|>": 167,
      "<|guinea|>": 168,
      "<|crown|>": 169,
      "<|trade|>": 170,
      "<|commerce|>": 171,
      "<|shop|>": 172,
      "<|warehouse|>": 173,
      "<|farthing|>": 174,
      "<|halfpenny|>": 175,
      "<|groat|>": 176,
      "<|sovereign|>": 177,
      "<|guild|>": 178,
      "<|livery|>": 179,
      "<|apprenticeship|>": 180,
      "<|bargain|>": 181,
      "<|usury|>": 182,
      "<|morn|>": 183,
      "<|noon|>": 184,
      "<|eve|>": 185,
      "<|night|>": 186,
      "<|dawn|>": 187,
      "<|dusk|>": 188,
      "<|monday|>": 189,
      "<|tuesday|>": 190,
      "<|wednesday|>": 191,
      "<|thursday|>": 192,
      "<|friday|>": 193,
      "<|saturday|>": 194,
      "<|sunday|>": 195,
      "<|january|>": 196,
      "<|february|>": 197,
      "<|march|>": 198,
      "<|april|>": 199,
      "<|may|>": 200,
      "<|june|>": 201,
      "<|july|>": 202,
      "<|august|>": 203,
      "<|september|>": 204,
      "<|october|>": 205,
      "<|november|>": 206,
      "<|december|>": 207,
      "<|fortnight|>": 208,
      "<|sennight|>": 209,
      "<|michaelmas|>": 210,
      "<|ladyday|>": 211,
      "<|candlemas|>": 212,
      "<|midsummer|>": 213,
      "<|christmas|>": 214,
      "<|easter|>": 215,
      "<|whitsun|>": 216,
      "<|lent|>": 217,
      "<|apothecary|>": 218,
      "<|barbersurgeon|>": 219,
      "<|coachman|>": 220,
      "<|linkboy|>": 221,
      "<|waterman|>": 222,
      "<|chimneysweep|>": 223,
      "<|costermonger|>": 224,
      "<|nightsoilman|>": 225,
      "<|beadle|>": 226,
      "<|crier|>": 227,
      "<|doss|>": 228,
      "<|ken|>": 229,
      "<|fawney|>": 230,
      "<|rig|>": 231,
      "<|sup|>": 232,
      "<|phiz|>": 233,
      "<|visage|>": 234,
      "<|countenance|>": 235,
      "<|mauther|>": 236,
      "<|brabble|>": 237,
      "<|chuffed|>": 238,
      "<|bauchle|>": 239,
      "<|clomph|>": 240,
      "<|cramboclink|>": 241,
      "<|abroad|>": 242,
      "!": 243,
      "\"": 244,
      "#": 245,
      "$": 246,
      "%": 247,
      "&": 248,
      "'": 249,
      "(": 250,
      ")": 251,
      "*": 252,
      "+": 253,
      ",": 254,
      "-": 255,
      ".": 256,
      "/": 257,
      "0": 258,
      "1": 259,
      "2": 260,
      "3": 261,
      "4": 262,
      "5": 263,
      "6": 264,
      "7": 265,
      "8": 266,
      "9": 267,
      ":": 268,
      ";": 269,
      "<": 270,
      "=": 271,
      ">": 272,
      "?": 273,
      "@": 274,
      "[": 275,
      "\\": 276,
      "]": 277,
      "^": 278,
      "_": 279,
      "`": 280,
      "a": 281,
      "b": 282,
      "c": 283,
      "d": 284,
      "e": 285,
      "f": 286,
      "g": 287,
      "h": 288,
      "i": 289,
      "j": 290,
      "k": 291,
      "l": 292,
      "m": 293,
      "n": 294,
      "o": 295,
      "p": 296,
      "q": 297,
      "r": 298,
      "s": 299,
      "t": 300,
      "u": 301,
      "v": 302,
      "w": 303,
      "x": 304,
      "y": 305,
      "z": 306,
      "{": 307,
      "|": 308,
      "}": 309,
      "~": 310,
      "¢": 311,
      "£": 312,
      "¥": 313,
      "§": 314,
      "©": 315,
      "«": 316,
      "¬": 317,
      "®": 318,
      "°": 319,
      "±": 320,
      "²": 321,
      "³": 322,
      "·": 323,
      "¹": 324,
      "»": 325,
      "¼": 326,
      "½": 327,
      "¾": 328,
      "×": 329,
      "æ": 330,
      "ð": 331,
      "þ": 332,
      "œ": 333,
      "ȝ": 334,
      "α": 335,
      "β": 336,
      "γ": 337,
      "δ": 338,
      "ε": 339,
      "ζ": 340,
      "η": 341,
      "θ": 342,
      "ι": 343,
      "κ": 344,
      "λ": 345,
      "μ": 346,
      "ν": 347,
      "ξ": 348,
      "ο": 349,
      "π": 350,
      "ρ": 351,
      "ς": 352,
      "σ": 353,
      "τ": 354,
      "υ": 355,
      "φ": 356,
      "χ": 357,
      "ψ": 358,
      "ω": 359,
      "а": 360,
      "б": 361,
      "‘": 362,
      "’": 363,
      "“": 364,
      "”": 365,
      "„": 366,
      "•": 367,
      "⁴": 368,
      "⁵": 369,
      "⁶": 370,
      "⁷": 371,
      "⁸": 372,
      "⁹": 373,
      "₀": 374,
      "₁": 375,
      "₂": 376,
      "₃": 377,
      "₄": 378,
      "₅": 379,
      "₆": 380,
      "₇": 381,
      "₈": 382,
      "₉": 383,
      "€": 384,
      "™": 385,
      "⅐": 386,
      "⅑": 387,
      "⅒": 388,
      "⅓": 389,
      "⅔": 390,
      "⅕": 391,
      "⅖": 392,
      "⅘": 393,
      "⅙": 394,
      "⅛": 395,
      "⅜": 396,
      "⅝": 397,
      "⅞": 398,
      "∫": 399,
      "∶": 400,
      "∷": 401,
      "■": 402,
      "□": 403,
      "▲": 404,
      "►": 405,
      "▼": 406,
      "☞": 407,
      "♦": 408,
      "✓": 409,
      "⸺": 410,
      "﻿": 411,
      "th": 412,
      "the": 413,
      "in": 414,
      "an": 415,
      "er": 416,
      "on": 417,
      "re": 418,
      "en": 419,
      "of": 420,
      "ed": 421,
      "at": 422,
      "and": 423,
      "is": 424,
      "ou": 425,
      "or": 426,
      "ar": 427,
      "to": 428,
      "es": 429,
      "as": 430,
      "it": 431,
      "al": 432,
      "ing": 433,
      "ch": 434,
      "le": 435,
      "st": 436,
      "se": 437,
      "om": 438,
      "wh": 439,
      "he": 440,
      "be": 441,
      "ad": 442,
      "li": 443,
      "ion": 444,
      "wi": 445,
      "no": 446,
      "ce": 447,
      "ent": 448,
      "ll": 449,
      "ro": 450,
      "am": 451,
      "ri": 452,
      "ly": 453,
      "av": 454,
      "for": 455,
      "de": 456,
      "gh": 457,
      "ld": 458,
      "ir": 459,
      "im": 460,
      "ut": 461,
      "ct": 462,
      "ay": 463,
      "that": 464,
      "ver": 465,
      "his": 466,
      "with": 467,
      "su": 468,
      "lo": 469,
      "pe": 470,
      "id": 471,
      "by": 472,
      "ter": 473,
      "co": 474,
      "was": 475,
      "un": 476,
      "all": 477,
      "ur": 478,
      "--": 479,
      "we": 480,
      "ght": 481,
      "ck": 482,
      "con": 483,
      "ag": 484,
      "her": 485,
      "et": 486,
      "our": 487,
      "po": 488,
      "sh": 489,
      "ain": 490,
      "ne": 491,
      "ab": 492,
      "so": 493,
      "mo": 494,
      "ve": 495,
      "whi": 496,
      "fe": 497,
      "ap": 498,
      "me": 499,
      "are": 500,
      "fr": 501,
      "not": 502,
      "oun": 503,
      "ther": 504,
      "ic": 505,
      "com": 506,
      "ow": 507,
      "but": 508,
      "us": 509,
      "ere": 510,
      "tr": 511,
      "il": 512,
      "\\'": 513,
      "which": 514,
      "ke": 515,
      "ex": 516,
      "ave": 517,
      "ul": 518,
      "ation": 519,
      "one": 520,
      "der": 521,
      "qu": 522,
      "man": 523,
      "ess": 524,
      "est": 525,
      "od": 526,
      "from": 527,
      "pr": 528,
      "you": 529,
      "em": 530,
      "per": 531,
      "ould": 532,
      "fo": 533,
      "if": 534,
      "lon": 535,
      "la": 536,
      "had": 537,
      "ard": 538,
      "res": 539,
      "my": 540,
      "pro": 541,
      "ie": 542,
      "ate": 543,
      "out": 544,
      "ant": 545,
      "art": 546,
      "=\"": 547,
      "this": 548,
      "up": 549,
      "ge": 550,
      "16": 551,
      "him": 552,
      "sa": 553,
      "cl": 554,
      "18": 555,
      "ass": 556,
      "she": 557,
      "si": 558,
      "go": 559,
      "have": 560,
      "ous": 561,
      "ill": 562,
      "med": 563,
      "ind": 564,
      "ish": 565,
      "um": 566,
      "ac": 567,
      "ast": 568,
      "ist": 569,
      "now": 570,
      "ia": 571,
      "bo": 572,
      "end": 573,
      "who": 574,
      "nav": 575,
      "do": 576,
      "they": 577,
      "wor": 578,
      "lond": 579,
      "ho": 580,
      "pl": 581,
      "ber": 582,
      "mar": 583,
      "ine": 584,
      "their": 585,
      "gr": 586,
      "ted": 587,
      "ome": 588,
      "were": 589,
      "ound": 590,
      "di": 591,
      "ity": 592,
      "ame": 593,
      "fa": 594,
      "there": 595,
      "ight": 596,
      "te": 597,
      "au": 598,
      "ure": 599,
      "ers": 600,
      "af": 601,
      "vo": 602,
      "king": 603,
      "-.": 604,
      "gre": 605,
      "op": 606,
      "mr": 607,
      "sel": 608,
      "17": 609,
      "sc": 610,
      "ies": 611,
      "ust": 612,
      "pt": 613,
      "sco": 614,
      "very": 615,
      "other": 616,
      "dis": 617,
      "br": 618,
      "lit": 619,
      "sp": 620,
      "thou": 621,
      "way": 622,
      "mon": 623,
      "ack": 624,
      "10": 625,
      "jo": 626,
      "ma": 627,
      "able": 628,
      "ction": 629,
      "said": 630,
      "el": 631,
      "sub": 632,
      "when": 633,
      "ive": 634,
      "own": 635,
      "red": 636,
      "media": 637,
      "them": 638,
      "ev": 639,
      "ok": 640,
      "ance": 641,
      "ence": 642,
      "ath": 643,
      "pre": 644,
      "ment": 645,
      "vi": 646,
      "some": 647,
      "gl": 648,
      "ta": 649,
      "wo": 650,
      "ear": 651,
      "can": 652,
      "),": 653,
      "gn": 654,
      "fore": 655,
      "see": 656,
      "its": 657,
      "sty": 658,
      "more": 659,
      "arch": 660,
      "col": 661,
      "been": 662,
      "men": 663,
      "des": 664,
      "prin": 665,
      "any": 666,
      "bl": 667,
      "ord": 668,
      "what": 669,
      "ton": 670,
      "would": 671,
      "ci": 672,
      "style": 673,
      "class": 674,
      "><": 675,
      "scope": 676,
      "london": 677,
      "part": 678,
      "ph": 679,
      "ans": 680,
      "pres": 681,
      "tain": 682,
      "age": 683,
      "ort": 684,
      "pos": 685,
      "ra": 686,
      "pri": 687,
      "self": 688,
      "par": 689,
      "ser": 690,
      "will": 691,
      "thing": 692,
      "fi": 693,
      "iv": 694,
      "tim": 695,
      "may": 696,
      "ue": 697,
      "ach": 698,
      "ated": 699,
      "ry": 700,
      "well": 701,
      "15": 702,
      "je": 703,
      "14": 704,
      "ty": 705,
      "then": 706,
      "ary": 707,
      "row": 708,
      "upon": 709,
      "where": 710,
      "low": 711,
      "ble": 712,
      "ition": 713,
      "ep": 714,
      "13": 715,
      "coun": 716,
      ").": 717,
      "son": 718,
      "12": 719,
      "day": 720,
      "spe": 721,
      "than": 722,
      "ade": 723,
      "urn": 724,
      "str": 725,
      "great": 726,
      "19": 727,
      "ple": 728,
      "49": 729,
      "tle": 730,
      "act": 731,
      "ang": 732,
      "into": 733,
      "rem": 734,
      "pi": 735,
      "fl": 736,
      "fer": 737,
      "23": 738,
      "know": 739,
      "wer": 740,
      "ward": 741,
      "</": 742,
      "again": 743,
      "back": 744,
      "land": 745,
      "right": 746,
      "ite": 747,
      "like": 748,
      "ts": 749,
      "subnav": 750,
      "00": 751,
      "pp": 752,
      "hi": 753,
      "ob": 754,
      "your": 755,
      "orn": 756,
      "86": 757,
      "ak": 758,
      "min": 759,
      "form": 760,
      "order": 761,
      "ten": 762,
      "read": 763,
      "ree": 764,
      "25": 765,
      "new": 766,
      "ii": 767,
      "ough": 768,
      "let": 769,
      "most": 770,
      "could": 771,
      "-->": 772,
      "hand": 773,
      "down": 774,
      "ft": 775,
      "ren": 776,
      "search": 777,
      "has": 778,
      "such": 779,
      "lin": 780,
      "fir": 781,
      "67": 782,
      "du": 783,
      "ved": 784,
      "time": 785,
      "ful": 786,
      "mu": 787,
      "ally": 788,
      "88": 789,
      "hn": 790,
      "after": 791,
      "over": 792,
      "ise": 793,
      "ces": 794,
      "light": 795,
      "top": 796,
      "ions": 797,
      "old": 798,
      "ks": 799,
      "sm": 800,
      "ory": 801,
      "fu": 802,
      "29": 803,
      "26": 804,
      "ouse": 805,
      "ject": 806,
      "les": 807,
      "ret": 808,
      "printed": 809,
      "air": 810,
      "ms": 811,
      "cr": 812,
      "ud": 813,
      "tho": 814,
      "gen": 815,
      "ings": 816,
      "><!": 817,
      "should": 818,
      "before": 819,
      "cer": 820,
      "ches": 821,
      "less": 822,
      "nor": 823,
      "05": 824,
      "long": 825,
      "these": 826,
      "char": 827,
      "79": 828,
      "under": 829,
      "ong": 830,
      "house": 831,
      "john": 832,
      "comp": 833,
      "war": 834,
      "two": 835,
      "ced": 836,
      "pu": 837,
      "mis": 838,
      "lic": 839,
      "ious": 840,
      "cour": 841,
      "27": 842,
      "come": 843,
      "vol": 844,
      "24": 845,
      "lord": 846,
      "little": 847,
      "liam": 848,
      "did": 849,
      "ations": 850,
      "chur": 851,
      "cri": 852,
      "ale": 853,
      "cont": 854,
      "gin": 855,
      "say": 856,
      "made": 857,
      "ice": 858,
      "ye": 859,
      "app": 860,
      "about": 861,
      "how": 862,
      "ire": 863,
      "good": 864,
      "being": 865,
      "ical": 866,
      "bet": 867,
      "ness": 868,
      "mer": 869,
      "thr": 870,
      "ol": 871,
      "gu": 872,
      "rep": 873,
      "add": 874,
      "mary": 875,
      "might": 876,
      "engl": 877,
      "first": 878,
      "only": 879,
      "sir": 880,
      "ished": 881,
      "lad": 882,
      "ase": 883,
      "inter": 884,
      "ild": 885,
      "28": 886,
      "66": 887,
      "head": 888,
      "vie": 889,
      "ste": 890,
      "thy": 891,
      "button": 892,
      "must": 893,
      "church": 894,
      "ield": 895,
      "amp": 896,
      "dr": 897,
      "view": 898,
      "many": 899,
      "those": 900,
      "lt": 901,
      "pla": 902,
      "ves": 903,
      "even": 904,
      "word": 905,
      "ace": 906,
      "den": 907,
      "cess": 908,
      "ef": 909,
      "night": 910,
      "every": 911,
      "led": 912,
      "here": 913,
      "ink": 914,
      "lat": 915,
      "wr": 916,
      "20": 917,
      "pass": 918,
      "\">": 919,
      "sign": 920,
      "40": 921,
      "ign": 922,
      "full": 923,
      "bro": 924,
      "sed": 925,
      "ken": 926,
      "llow": 927,
      "ting": 928,
      "==": 929,
      "much": 930,
      "clo": 931,
      "shall": 932,
      "colle": 933,
      "look": 934,
      "164": 935,
      "stre": 936,
      "year": 937,
      "ars": 938,
      "wat": 939,
      "life": 940,
      "appe": 941,
      "39": 942,
      "dist": 943,
      "yet": 944,
      "bri": 945,
      "border": 946,
      "ref": 947,
      "cy": 948,
      "fri": 949,
      "ide": 950,
      "ster": 951,
      "don": 952,
      "cted": 953,
      "int": 954,
      "bre": 955,
      "never": 956,
      "bu": 957,
      "_s": 958,
      "call": 959,
      "without": 960,
      "cal": 961,
      "field": 962,
      "line": 963,
      "ot": 964,
      "came": 965,
      "same": 966,
      "set": 967,
      "god": 968,
      "s2": 969,
      "ian": 970,
      "pen": 971,
      "found": 972,
      "ents": 973,
      "35": 974,
      "off": 975,
      "30": 976,
      "yes": 977,
      "tri": 978,
      "primary": 979,
      "gent": 980,
      "bar": 981,
      "through": 982,
      "cli": 983,
      "ins": 984,
      "sto": 985,
      "mat": 986,
      "nat": 987,
      "left": 988,
      "ily": 989,
      "though": 990,
      "ven": 991,
      "lie": 992,
      "ley": 993,
      "ters": 994,
      "103": 995,
      "vers": 996,
      "--?": 997,
      "play": 998,
      "386": 999,
      "che": 1000,
      "present": 1001,
      "ner": 1002,
      "against": 1003,
      "ff": 1004,
      "45": 1005,
      "bur": 1006,
      "still": 1007,
      "love": 1008,
      "himself": 1009,
      "while": 1010,
      "car": 1011,
      "ange": 1012,
      "ning": 1013,
      "ca": 1014,
      "cur": 1015,
      "ought": 1016,
      "ors": 1017,
      "oc": 1018,
      "chr": 1019,
      "high": 1020,
      "wil": 1021,
      "49386": 1022,
      "49386103": 1023,
      "seem": 1024,
      "thought": 1025,
      "ever": 1026,
      "65": 1027,
      "tre": 1028,
      "youn": 1029,
      "cre": 1030,
      "div": 1031,
      "_sb": 1032,
      "aw": 1033,
      "sur": 1034,
      "young": 1035,
      "far": 1036,
      "cm": 1037,
      "att": 1038,
      "bed": 1039,
      "try": 1040,
      "port": 1041,
      "oft": 1042,
      "heart": 1043,
      "qui": 1044,
      "work": 1045,
      "lady": 1046,
      "ane": 1047,
      "<!": 1048,
      "hal": 1049,
      "law": 1050,
      "cap": 1051,
      "ens": 1052,
      "aving": 1053,
      "cons": 1054,
      "common": 1055,
      "just": 1056,
      "ben": 1057,
      "ared": 1058,
      "wom": 1059,
      "cau": 1060,
      "wick": 1061,
      "bi": 1062,
      "ked": 1063,
      "near": 1064,
      "last": 1065,
      "48": 1066,
      "late": 1067,
      "unt": 1068,
      "ited": 1069,
      "cor": 1070,
      "dif": 1071,
      "ru": 1072,
      "mind": 1073,
      "iz": 1074,
      "dro": 1075,
      "47": 1076,
      "inches": 1077,
      "wayback": 1078,
      "put": 1079,
      "vis": 1080,
      "pa": 1081,
      "gener": 1082,
      "ger": 1083,
      "friend": 1084,
      "collection": 1085,
      "inde": 1086,
      "ith": 1087,
      "stand": 1088,
      "und": 1089,
      "---->": 1090,
      "ip": 1091,
      "comm": 1092,
      "har": 1093,
      "hist": 1094,
      "england": 1095,
      "menu": 1096,
      "ss": 1097,
      "book": 1098,
      "side": 1099,
      "sou": 1100,
      "33": 1101,
      "wind": 1102,
      "ata": 1103,
      "thom": 1104,
      "open": 1105,
      "85": 1106,
      "reg": 1107,
      "raw": 1108,
      "get": 1109,
      "too": 1110,
      "ason": 1111,
      "blo": 1112,
      "also": 1113,
      "tt": 1114,
      "$-->": 1115,
      "went": 1116,
      "turn": 1117,
      "dou": 1118,
      "cle": 1119,
      "165": 1120,
      "wal": 1121,
      "three": 1122,
      "ates": 1123,
      "met": 1124,
      "ames": 1125,
      "8vo": 1126,
      "sli": 1127,
      "11": 1128,
      "als": 1129,
      "child": 1130,
      "sion": 1131,
      "lines": 1132,
      "make": 1133,
      "pur": 1134,
      "46": 1135,
      "22": 1136,
      "cop": 1137,
      "name": 1138,
      "sin": 1139,
      "cent": 1140,
      "both": 1141,
      "sol": 1142,
      "que": 1143,
      "bod": 1144,
      "del": 1145,
      "hon": 1146,
      "place": 1147,
      "mas": 1148,
      "ele": 1149,
      "acc": 1150,
      "ular": 1151,
      "mem": 1152,
      "eng": 1153,
      "cond": 1154,
      "away": 1155,
      "lied": 1156,
      "gentle": 1157,
      "fair": 1158,
      "ils": 1159,
      "think": 1160,
      "ages": 1161,
      "ls": 1162,
      "ham": 1163,
      "gri": 1164,
      "\"><!": 1165,
      "ider": 1166,
      "hold": 1167,
      "rown": 1168,
      "fort": 1169,
      "wa": 1170,
      "berg": 1171,
      "christ": 1172,
      "person": 1173,
      "another": 1174,
      "street": 1175,
      "spir": 1176,
      "room": 1177,
      "ress": 1178,
      "cho": 1179,
      "answer": 1180,
      "each": 1181,
      "sk": 1182,
      "ark": 1183,
      "uten": 1184,
      "william": 1185,
      "cause": 1186,
      "hen": 1187,
      "io": 1188,
      "dom": 1189,
      "fect": 1190,
      "thus": 1191,
      "topnav": 1192,
      "89": 1193,
      "roy": 1194,
      "count": 1195,
      "hu": 1196,
      "ground": 1197,
      "cas": 1198,
      "giv": 1199,
      "certain": 1200,
      "43": 1201,
      "feel": 1202,
      "----": 1203,
      "ople": 1204,
      "draw": 1205,
      "sun": 1206,
      "rich": 1207,
      "return": 1208,
      "ext": 1209,
      "face": 1210,
      "mrs": 1211,
      "take": 1212,
      "ants": 1213,
      "vent": 1214,
      "ended": 1215,
      "tit": 1216,
      "people": 1217,
      "project": 1218,
      "follow": 1219,
      "use": 1220,
      "rest": 1221,
      "thee": 1222,
      "signed": 1223,
      "sup": 1224,
      "power": 1225,
      "sil": 1226,
      "ial": 1227,
      "kind": 1228,
      "ween": 1229,
      "ged": 1230,
      "till": 1231,
      "bes": 1232,
      "guten": 1233,
      "gutenberg": 1234,
      "woman": 1235,
      "mid": 1236,
      "ps": 1237,
      "ni": 1238,
      "having": 1239,
      "xx": 1240,
      "event": 1241,
      "6779": 1242,
      "|.": 1243,
      "thomas": 1244,
      "wood": 1245,
      "water": 1246,
      "scul": 1247,
      "wards": 1248,
      "oud": 1249,
      "ti": 1250,
      "cover": 1251,
      "sever": 1252,
      "serv": 1253,
      "data": 1254,
      "fill": 1255,
      "hard": 1256,
      "used": 1257,
      "val": 1258,
      "ford": 1259,
      "pleas": 1260,
      "slider": 1261,
      "77": 1262,
      "half": 1263,
      "href": 1264,
      "=\"/": 1265,
      "fre": 1266,
      "eyes": 1267,
      "03": 1268,
      "state": 1269,
      "track": 1270,
      "between": 1271,
      "ister": 1272,
      "tru": 1273,
      "round": 1274,
      "city": 1275,
      "once": 1276,
      "ox": 1277,
      "hor": 1278,
      "ont": 1279,
      "happ": 1280,
      "sat": 1281,
      "tem": 1282,
      "ond": 1283,
      "bert": 1284,
      "consider": 1285,
      "ned": 1286,
      "whom": 1287,
      "80": 1288,
      "give": 1289,
      "saw": 1290,
      "tell": 1291,
      "cept": 1292,
      "lar": 1293,
      "ined": 1294,
      "fam": 1295,
      "ling": 1296,
      "sent": 1297,
      "og": 1298,
      "\"><": 1299,
      "posed": 1300,
      "tion": 1301,
      "sculp": 1302,
      "bla": 1303,
      "ash": 1304,
      "father": 1305,
      "ities": 1306,
      "van": 1307,
      "death": 1308,
      "sing": 1309,
      "ze": 1310,
      "prom": 1311,
      "whose": 1312,
      "west": 1313,
      "got": 1314,
      "sim": 1315,
      "4to": 1316,
      "ys": 1317,
      "called": 1318,
      "55": 1319,
      "world": 1320,
      "parliam": 1321,
      "mi": 1322,
      "gan": 1323,
      "cu": 1324,
      "ute": 1325,
      "hear": 1326,
      "60": 1327,
      "**": 1328,
      "among": 1329,
      "flow": 1330,
      "sen": 1331,
      "nothing": 1332,
      "md": 1333,
      "years": 1334,
      "ither": 1335,
      "writ": 1336,
      "69": 1337,
      "second": 1338,
      "none": 1339,
      "pub": 1340,
      "gether": 1341,
      "position": 1342,
      "lu": 1343,
      "lio": 1344,
      "tracking": 1345,
      "mother": 1346,
      "history": 1347,
      "sy": 1348,
      "conf": 1349,
      "mit": 1350,
      "ori": 1351,
      "things": 1352,
      "cast": 1353,
      "ving": 1354,
      "0588": 1355,
      "path": 1356,
      "true": 1357,
      "dear": 1358,
      "^^": 1359,
      "dam": 1360,
      "soon": 1361,
      "ga": 1362,
      "pat": 1363,
      "door": 1364,
      "together": 1365,
      "abo": 1366,
      "click": 1367,
      "ched": 1368,
      "====": 1369,
      "wid": 1370,
      "tal": 1371,
      "took": 1372,
      "fle": 1373,
      "drop": 1374,
      "parliament": 1375,
      "lau": 1376,
      "34": 1377,
      "white": 1378,
      "heav": 1379,
      "ating": 1380,
      "75": 1381,
      "won": 1382,
      "sold": 1383,
      "ures": 1384,
      "forth": 1385,
      "ments": 1386,
      "ctions": 1387,
      "pose": 1388,
      "seen": 1389,
      "lay": 1390,
      "num": 1391,
      "plain": 1392,
      "care": 1393,
      "ual": 1394,
      "whole": 1395,
      "oh": 1396,
      "ery": 1397,
      "ha": 1398,
      "earth": 1399,
      "edition": 1400,
      "tom": 1401,
      "cat": 1402,
      "ank": 1403,
      "heard": 1404,
      "display": 1405,
      "swe": 1406,
      "thor": 1407,
      "dre": 1408,
      "64": 1409,
      "fire": 1410,
      "ult": 1411,
      "chie": 1412,
      "deta": 1413,
      "trans": 1414,
      "ied": 1415,
      "lig": 1416,
      "ution": 1417,
      "ours": 1418,
      "ently": 1419,
      "21": 1420,
      "spo": 1421,
      "var": 1422,
      "ons": 1423,
      "sam": 1424,
      "contin": 1425,
      "replied": 1426,
      "selves": 1427,
      "find": 1428,
      "words": 1429,
      "body": 1430,
      "ceed": 1431,
      "ised": 1432,
      "ances": 1433,
      "83": 1434,
      "677966": 1435,
      "cla": 1436,
      "quest": 1437,
      "sum": 1438,
      "ird": 1439,
      "course": 1440,
      "peri": 1441,
      "dur": 1442,
      "hel": 1443,
      "hy": 1444,
      "sho": 1445,
      "xt": 1446,
      "tow": 1447,
      "works": 1448,
      "ceiv": 1449,
      "publ": 1450,
      "pet": 1451,
      "arm": 1452,
      "produ": 1453,
      "ement": 1454,
      "dropdown": 1455,
      "6779661": 1456,
      "country": 1457,
      "pect": 1458,
      "ried": 1459,
      "hall": 1460,
      "pick": 1461,
      "na": 1462,
      "ety": 1463,
      "four": 1464,
      "loo": 1465,
      "edward": 1466,
      "95": 1467,
      "black": 1468,
      "pin": 1469,
      "ww": 1470,
      "chief": 1471,
      "log": 1472,
      "mark": 1473,
      "poor": 1474,
      "gir": 1475,
      "title": 1476,
      "reason": 1477,
      "44": 1478,
      "cum": 1479,
      "une": 1480,
      "bt": 1481,
      "ship": 1482,
      "home": 1483,
      "few": 1484,
      "small": 1485,
      "dark": 1486,
      "mil": 1487,
      "henry": 1488,
      "scri": 1489,
      "folio": 1490,
      "account": 1491,
      "table": 1492,
      "sure": 1493,
      "master": 1494,
      "mor": 1495,
      "ways": 1496,
      "s3": 1497,
      "enter": 1498,
      "hap": 1499,
      "px": 1500,
      "since": 1501,
      "pal": 1502,
      "gg": 1503,
      "sal": 1504,
      "----><!": 1505,
      "hill": 1506,
      "jud": 1507,
      "spirit": 1508,
      "por": 1509,
      "fin": 1510,
      "prof": 1511,
      "ba": 1512,
      "cir": 1513,
      "bish": 1514,
      "done": 1515,
      "kes": 1516,
      "within": 1517,
      "general": 1518,
      "height": 1519,
      "letter": 1520,
      "sit": 1521,
      "published": 1522,
      "fall": 1523,
      "others": 1524,
      "bat": 1525,
      "_v": 1526,
      "mom": 1527,
      "details": 1528,
      "show": 1529,
      "nature": 1530,
      "ened": 1531,
      "ready": 1532,
      "bishop": 1533,
      "mag": 1534,
      "sea": 1535,
      "37": 1536,
      "concer": 1537,
      "pain": 1538,
      "ctor": 1539,
      "plo": 1540,
      "leg": 1541,
      "dire": 1542,
      "moun": 1543,
      "ju": 1544,
      "court": 1545,
      "whe": 1546,
      "cro": 1547,
      "known": 1548,
      "sle": 1549,
      "ns": 1550,
      "case": 1551,
      "howe": 1552,
      "lled": 1553,
      "iled": 1554,
      "hope": 1555,
      "inst": 1556,
      "09": 1557,
      "maj": 1558,
      "soci": 1559,
      "eye": 1560,
      "68": 1561,
      "james": 1562,
      "sec": 1563,
      "anger": 1564,
      "accord": 1565,
      "partic": 1566,
      "width": 1567,
      "soft": 1568,
      "brid": 1569,
      "wild": 1570,
      "som": 1571,
      "ig": 1572,
      "fear": 1573,
      "better": 1574,
      "morn": 1575,
      "corn": 1576,
      "why": 1577,
      "ably": 1578,
      "mur": 1579,
      "miss": 1580,
      "ile": 1581,
      "differ": 1582,
      "taken": 1583,
      "author": 1584,
      "band": 1585,
      "indeed": 1586,
      "free": 1587,
      "nt": 1588,
      "ah": 1589,
      "aut": 1590,
      "gold": 1591,
      "want": 1592,
      "however": 1593,
      "above": 1594,
      "suc": 1595,
      "arms": 1596,
      "anc": 1597,
      "ann": 1598,
      "ick": 1599,
      "99": 1600,
      "dead": 1601,
      "color": 1602,
      "yard": 1603,
      "desc": 1604,
      "rel": 1605,
      "stri": 1606,
      "mean": 1607,
      "paul": 1608,
      "boy": 1609,
      "english": 1610,
      "stru": 1611,
      "ison": 1612,
      "hum": 1613,
      "several": 1614,
      "rom": 1615,
      "given": 1616,
      "tbe": 1617,
      "possi": 1618,
      "fully": 1619,
      "wish": 1620,
      "sermon": 1621,
      "sv": 1622,
      "hast": 1623,
      "235": 1624,
      "sch": 1625,
      "liver": 1626,
      "bel": 1627,
      "pickwick": 1628,
      "aph": 1629,
      "flo": 1630,
      "blood": 1631,
      "looked": 1632,
      "appear": 1633,
      "tern": 1634,
      "seemed": 1635,
      "descri": 1636,
      "stood": 1637,
      "tra": 1638,
      "ured": 1639,
      "ached": 1640,
      "company": 1641,
      "50": 1642,
      "richard": 1643,
      "sem": 1644,
      "78": 1645,
      "test": 1646,
      "wall": 1647,
      "remain": 1648,
      "beh": 1649,
      "cus": 1650,
      "x14": 1651,
      "beth": 1652,
      "themselves": 1653,
      "ung": 1654,
      "bus": 1655,
      "green": 1656,
      "cannot": 1657,
      "gate": 1658,
      "necess": 1659,
      "hands": 1660,
      "member": 1661,
      "medi": 1662,
      "ware": 1663,
      "note": 1664,
      "70588": 1665,
      "gave": 1666,
      "manner": 1667,
      "times": 1668,
      "royal": 1669,
      "subject": 1670,
      "copy": 1671,
      "ament": 1672,
      "ec": 1673,
      "pap": 1674,
      "arr": 1675,
      "flor": 1676,
      "public": 1677,
      "poet": 1678,
      "_ad": 1679,
      "ices": 1680,
      "yn": 1681,
      "origin": 1682,
      "large": 1683,
      "os": 1684,
      "gentleman": 1685,
      "ital": 1686,
      "fact": 1687,
      "deep": 1688,
      "ili": 1689,
      "></": 1690,
      "mus": 1691,
      "foot": 1692,
      "keep": 1693,
      "speak": 1694,
      "36": 1695,
      "fur": 1696,
      "bow": 1697,
      "7058823": 1698,
      "short": 1699,
      "moment": 1700,
      "always": 1701,
      "days": 1702,
      "32": 1703,
      "07": 1704,
      "ient": 1705,
      "best": 1706,
      "change": 1707,
      "svg": 1708,
      "pan": 1709,
      "voice": 1710,
      "ceived": 1711,
      "bear": 1712,
      "joy": 1713,
      "gt": 1714,
      "vice": 1715,
      "honour": 1716,
      "wit": 1717,
      "laugh": 1718,
      "ately": 1719,
      "according": 1720,
      "sound": 1721,
      "ists": 1722,
      "main": 1723,
      "sale": 1724,
      "bs": 1725,
      "sl": 1726,
      "knew": 1727,
      "iness": 1728,
      "drawing": 1729,
      "scot": 1730,
      "ron": 1731,
      "aves": 1732,
      "lead": 1733,
      "const": 1734,
      "rather": 1735,
      "ped": 1736,
      "supp": 1737,
      "pict": 1738,
      "cell": 1739,
      "alone": 1740,
      "ony": 1741,
      "inc": 1742,
      "org": 1743,
      "chap": 1744,
      "uni": 1745,
      "ek": 1746,
      "because": 1747,
      "sess": 1748,
      "claim": 1749,
      "text": 1750,
      "gover": 1751,
      "fell": 1752,
      "strong": 1753,
      "ized": 1754,
      "faith": 1755,
      "lear": 1756,
      "continu": 1757,
      "peace": 1758,
      "morning": 1759,
      "mal": 1760,
      "felt": 1761,
      "def": 1762,
      "brought": 1763,
      "vil": 1764,
      "ident": 1765,
      "pray": 1766,
      "haps": 1767,
      "prob": 1768,
      "aint": 1769,
      "orge": 1770,
      "myself": 1771,
      "expres": 1772,
      "42": 1773,
      "occas": 1774,
      "during": 1775,
      "wel": 1776,
      "earl": 1777,
      "contain": 1778,
      "truth": 1779,
      "sul": 1780,
      "igh": 1781,
      "brit": 1782,
      "mine": 1783,
      "almost": 1784,
      "za": 1785,
      "cks": 1786,
      "ouch": 1787,
      "perhaps": 1788,
      "wise": 1789,
      "eas": 1790,
      "mad": 1791,
      "rose": 1792,
      "something": 1793,
      "fast": 1794,
      "window": 1795,
      "six": 1796,
      "held": 1797,
      ");": 1798,
      "beaut": 1799,
      "wife": 1800,
      "often": 1801,
      "70": 1802,
      "covered": 1803,
      "majest": 1804,
      "bly": 1805,
      "told": 1806,
      "load": 1807,
      "formed": 1808,
      "aid": 1809,
      "girl": 1810,
      "pop": 1811,
      "oured": 1812,
      "bey": 1813,
      "bor": 1814,
      "number": 1815,
      "ene": 1816,
      "poin": 1817,
      "spect": 1818,
      "script": 1819,
      "herself": 1820,
      "relig": 1821,
      "going": 1822,
      "ude": 1823,
      "step": 1824,
      "south": 1825,
      "ience": 1826,
      "box": 1827,
      "therefore": 1828,
      "fal": 1829,
      "sor": 1830,
      "north": 1831,
      "heaven": 1832,
      "73": 1833,
      "archive": 1834,
      "rev": 1835,
      "anci": 1836,
      "page": 1837,
      "maid": 1838,
      "ordin": 1839,
      "towards": 1840,
      "grid": 1841,
      "george": 1842,
      "ility": 1843,
      "shad": 1844,
      "looking": 1845,
      "ses": 1846,
      "ific": 1847,
      "charact": 1848,
      "uel": 1849,
      "c2": 1850,
      "queen": 1851,
      "da": 1852,
      "began": 1853,
      "nes": 1854,
      "midd": 1855,
      "burn": 1856,
      "past": 1857,
      "lim": 1858,
      "ler": 1859,
      "princi": 1860,
      "natur": 1861,
      "eli": 1862,
      "bit": 1863,
      "hour": 1864,
      "anim": 1865,
      "point": 1866,
      "ker": 1867,
      "quite": 1868,
      "particular": 1869,
      "tered": 1870,
      "belie": 1871,
      "gone": 1872,
      "ier": 1873,
      "whether": 1874,
      "fic": 1875,
      "former": 1876,
      "object": 1877,
      "bal": 1878,
      "next": 1879,
      "59": 1880,
      "exam": 1881,
      "sweet": 1882,
      "behind": 1883,
      "hath": 1884,
      "ides": 1885,
      "suf": 1886,
      "decl": 1887,
      "need": 1888,
      "hab": 1889,
      "list": 1890,
      "c0": 1891,
      "live": 1892,
      "ae": 1893,
      "gar": 1894,
      "ask": 1895,
      "bot": 1896,
      "leave": 1897,
      "empt": 1898,
      "parts": 1899,
      "enough": 1900,
      "aver": 1901,
      "florins": 1902,
      "ible": 1903,
      "charles": 1904,
      "x13": 1905,
      "76": 1906,
      "turned": 1907,
      "brother": 1908,
      "net": 1909,
      "interest": 1910,
      "fif": 1911,
      "qual": 1912,
      "ban": 1913,
      "concerning": 1914,
      "000": 1915,
      "doubt": 1916,
      "ative": 1917,
      "mir": 1918,
      "pie": 1919,
      "tu": 1920,
      "matter": 1921,
      "ending": 1922,
      "ney": 1923,
      "72": 1924,
      "cold": 1925,
      "commons": 1926,
      "74": 1927,
      "ines": 1928,
      "flu": 1929,
      "does": 1930,
      "bridge": 1931,
      "lect": 1932,
      "amster": 1933,
      "118": 1934,
      "aged": 1935,
      "affe": 1936,
      "38": 1937,
      "trad": 1938,
      "close": 1939,
      "import": 1940,
      "bon": 1941,
      "mone": 1942,
      "real": 1943,
      "espe": 1944,
      "amsterdam": 1945,
      "dy": 1946,
      "itself": 1947,
      "returned": 1948,
      "possess": 1949,
      "compan": 1950,
      "spr": 1951,
      "robert": 1952,
      "tis": 1953,
      "adding": 1954,
      "hund": 1955,
      "lem": 1956,
      "ouses": 1957,
      "bled": 1958,
      "cup": 1959,
      "libr": 1960,
      "fav": 1961,
      "meet": 1962,
      "vide": 1963,
      "passed": 1964,
      "happy": 1965,
      "asked": 1966,
      "respect": 1967,
      "cha": 1968,
      "occasion": 1969,
      "xed": 1970,
      "means": 1971,
      "alog": 1972,
      "cried": 1973,
      "plan": 1974,
      "family": 1975,
      "human": 1976,
      "stone": 1977,
      "effect": 1978,
      "cit": 1979,
      "march": 1980,
      "iii": 1981,
      "quar": 1982,
      "mountain": 1983,
      "gy": 1984,
      "sequ": 1985,
      "hundred": 1986,
      "possible": 1987,
      "fit": 1988,
      "anti": 1989,
      "dden": 1990,
      "ided": 1991,
      "feet": 1992,
      "proper": 1993,
      "login": 1994,
      "tro": 1995,
      "ix": 1996,
      "04": 1997,
      "lly": 1998,
      "incl": 1999,
      "written": 2000,
      "die": 2001,
      "ris": 2002,
      "least": 2003,
      "wonder": 2004,
      "dem": 2005,
      "ius": 2006,
      "icon": 2007,
      "62": 2008,
      "100": 2009,
      "dest": 2010,
      "five": 2011,
      "mission": 2012,
      "ny": 2013,
      "post": 2014,
      "either": 2015,
      "leng": 2016,
      "shel": 2017,
      "ake": 2018,
      "bright": 2019,
      "hur": 2020,
      "ior": 2021,
      "obser": 2022,
      "appeared": 2023,
      "road": 2024,
      "gro": 2025,
      "answered": 2026,
      "govern": 2027,
      "clear": 2028,
      "canto": 2029,
      "friends": 2030,
      "scar": 2031,
      "mere": 2032,
      "mist": 2033,
      "cath": 2034,
      "run": 2035,
      "horse": 2036,
      "save": 2037,
      "pend": 2038,
      "houses": 2039,
      "believe": 2040,
      "bell": 2041,
      "tel": 2042,
      "span": 2043,
      "ribut": 2044,
      "unto": 2045,
      "soul": 2046,
      "fee": 2047,
      "94": 2048,
      "appro": 2049,
      "ousand": 2050,
      "gard": 2051,
      "sleep": 2052,
      "thousand": 2053,
      "proceed": 2054,
      "23529": 2055,
      "31": 2056,
      "tran": 2057,
      "ased": 2058,
      "strange": 2059,
      "61": 2060,
      "knight": 2061,
      "tract": 2062,
      "command": 2063,
      "circum": 2064,
      "mcal": 2065,
      "smith": 2066,
      "augh": 2067,
      "padding": 2068,
      "82": 2069,
      "ancient": 2070,
      "mcalpin": 2071,
      "bring": 2072,
      "lies": 2073,
      "fac": 2074,
      "thin": 2075,
      "mort": 2076,
      "resol": 2077,
      "bene": 2078,
      "ai": 2079,
      "ring": 2080,
      "prompt": 2081,
      "different": 2082,
      "90": 2083,
      "quired": 2084,
      "rap": 2085,
      "character": 2086,
      "hid": 2087,
      "zm": 2088,
      "money": 2089,
      "success": 2090,
      "town": 2091,
      "ague": 2092,
      "pret": 2093,
      "87": 2094,
      "period": 2095,
      "win": 2096,
      "========": 2097,
      "lab": 2098,
      "hat": 2099,
      "web": 2100,
      "aunt": 2101,
      "length": 2102,
      "hus": 2103,
      "eliza": 2104,
      "already": 2105,
      "coming": 2106,
      "tained": 2107,
      "spee": 2108,
      "63": 2109,
      "angu": 2110,
      "ded": 2111,
      "rup": 2112,
      "chang": 2113,
      "dig": 2114,
      "prov": 2115,
      "picture": 2116,
      "ball": 2117,
      "island": 2118,
      "comple": 2119,
      "dec": 2120,
      "etim": 2121,
      "exist": 2122,
      "bour": 2123,
      "comb": 2124,
      "sudden": 2125,
      "pay": 2126,
      "grace": 2127,
      "minster": 2128,
      "books": 2129,
      "aught": 2130,
      "outh": 2131,
      "ury": 2132,
      "illust": 2133,
      "elect": 2134,
      "question": 2135,
      "immedi": 2136,
      "scotland": 2137,
      "spec": 2138,
      "idence": 2139,
      "added": 2140,
      "nation": 2141,
      "third": 2142,
      "laid": 2143,
      "pleasure": 2144,
      "until": 2145,
      "dut": 2146,
      "ges": 2147,
      "ians": 2148,
      "ination": 2149,
      "ously": 2150,
      "children": 2151,
      "cry": 2152,
      "84": 2153,
      "daugh": 2154,
      "steen": 2155,
      "colum": 2156,
      "middle": 2157,
      "lost": 2158,
      "rew": 2159,
      "ats": 2160,
      "assem": 2161,
      "fellow": 2162,
      "alth": 2163,
      "youth": 2164,
      "help": 2165,
      "suffer": 2166,
      "gall": 2167,
      "bound": 2168,
      "cham": 2169,
      "pauls": 2170,
      "wherein": 2171,
      "standing": 2172,
      "natural": 2173,
      "glo": 2174,
      "begin": 2175,
      "ming": 2176,
      "rid": 2177,
      "seems": 2178,
      "states": 2179,
      "phi": 2180,
      "scho": 2181,
      "laws": 2182,
      "sense": 2183,
      "elizabeth": 2184,
      "jan": 2185,
      "hair": 2186,
      "dream": 2187,
      "indic": 2188,
      "consc": 2189,
      "glass": 2190,
      "usu": 2191,
      "received": 2192,
      "making": 2193,
      "persons": 2194,
      "notes": 2195,
      "sister": 2196,
      "regard": 2197,
      "imp": 2198,
      "poem": 2199,
      "touch": 2200,
      "army": 2201,
      "sometim": 2202,
      "vel": 2203,
      "prison": 2204,
      "noble": 2205,
      "lane": 2206,
      "start": 2207,
      "_adj": 2208,
      "lake": 2209,
      "97": 2210,
      "vir": 2211,
      "ature": 2212,
      "adv": 2213,
      "esq": 2214,
      "cord": 2215,
      "iling": 2216,
      "comes": 2217,
      "liber": 2218,
      "worth": 2219,
      "_pl": 2220,
      "liter": 2221,
      "cut": 2222,
      "yed": 2223,
      "following": 2224,
      "except": 2225,
      "satis": 2226,
      "along": 2227,
      "shed": 2228,
      "stead": 2229,
      "necessary": 2230,
      "husband": 2231,
      "crown": 2232,
      "beli": 2233,
      "content": 2234,
      "polit": 2235,
      "graph": 2236,
      "danger": 2237,
      "observ": 2238,
      "software": 2239,
      "sight": 2240,
      "force": 2241,
      "dri": 2242,
      "ences": 2243,
      "ption": 2244,
      "twent": 2245,
      "sens": 2246,
      "formation": 2247,
      "pract": 2248,
      "ror": 2249,
      "prince": 2250,
      "hun": 2251,
      "grave": 2252,
      "lords": 2253,
      "ander": 2254,
      "acqu": 2255,
      "phe": 2256,
      "pho": 2257,
      "ples": 2258,
      "rad": 2259,
      "fol": 2260,
      "rench": 2261,
      "remo": 2262,
      "exp": 2263,
      "paris": 2264,
      "ained": 2265,
      "dio": 2266,
      "became": 2267,
      "pped": 2268,
      "desk": 2269,
      "www": 2270,
      "scarce": 2271,
      "become": 2272,
      "57": 2273,
      "preached": 2274,
      "diffic": 2275,
      "refer": 2276,
      "died": 2277,
      "stu": 2278,
      "circumst": 2279,
      "song": 2280,
      "christian": 2281,
      "loved": 2282,
      "92": 2283,
      "front": 2284,
      "franc": 2285,
      "cross": 2286,
      "delight": 2287,
      "dread": 2288,
      "castle": 2289,
      "allow": 2290,
      "treat": 2291,
      "religion": 2292,
      "westminster": 2293,
      "watch": 2294,
      "twenty": 2295,
      "margin": 2296,
      "chamber": 2297,
      "incre": 2298,
      "aug": 2299,
      "emplo": 2300,
      "perfect": 2301,
      "agre": 2302,
      "minister": 2303,
      "relat": 2304,
      "remember": 2305,
      "opin": 2306,
      "build": 2307,
      "bad": 2308,
      "ceive": 2309,
      "iles": 2310,
      "panel": 2311,
      "sort": 2312,
      "dog": 2313,
      "smo": 2314,
      "government": 2315,
      "//": 2316,
      "various": 2317,
      "06": 2318,
      "wed": 2319,
      "feeling": 2320,
      "chan": 2321,
      "sometimes": 2322,
      "font": 2323,
      "isa": 2324,
      "sive": 2325,
      "anything": 2326,
      "alogue": 2327,
      "tor": 2328,
      "fice": 2329,
      "dav": 2330,
      "tower": 2331,
      "continued": 2332,
      "kings": 2333,
      "school": 2334,
      "fine": 2335,
      "inv": 2336,
      "shop": 2337,
      "stor": 2338,
      "says": 2339,
      "music": 2340,
      "ths": 2341,
      "chair": 2342,
      "ran": 2343,
      "illustr": 2344,
      "library": 2345,
      "41": 2346,
      "else": 2347,
      "mart": 2348,
      "party": 2349,
      "blue": 2350,
      "rent": 2351,
      "story": 2352,
      "purpose": 2353,
      "cp": 2354,
      "ator": 2355,
      "lips": 2356,
      "abl": 2357,
      "evening": 2358,
      "beneath": 2359,
      "acy": 2360,
      "terms": 2361,
      "usion": 2362,
      "battle": 2363,
      "grow": 2364,
      "cam": 2365,
      "hd": 2366,
      "item": 2367,
      "pit": 2368,
      "taking": 2369,
      "ril": 2370,
      "ee": 2371,
      "bru": 2372,
      "intel": 2373,
      "c3": 2374,
      "philo": 2375,
      "cles": 2376,
      "cem": 2377,
      "favour": 2378,
      "vain": 2379,
      "living": 2380,
      "lan": 2381,
      "background": 2382,
      "visit": 2383,
      "56": 2384,
      "kept": 2385,
      "ledge": 2386,
      "ument": 2387,
      "original": 2388,
      "antly": 2389,
      "cred": 2390,
      "grand": 2391,
      "htt": 2392,
      "iron": 2393,
      "ries": 2394,
      "mention": 2395,
      "vill": 2396,
      "bid": 2397,
      "render": 2398,
      "aking": 2399,
      "bis": 2400,
      "fun": 2401,
      "separ": 2402,
      "rie": 2403,
      "daughter": 2404,
      "dim": 2405,
      "east": 2406,
      "4rem": 2407,
      "desktop": 2408,
      "kne": 2409,
      "fan": 2410,
      "scene": 2411,
      "din": 2412,
      "sell": 2413,
      "croft": 2414,
      "histor": 2415,
      "hidden": 2416,
      "cloud": 2417,
      "feelings": 2418,
      "society": 2419,
      "eu": 2420,
      "meas": 2421,
      "quire": 2422,
      "foundation": 2423,
      "ually": 2424,
      "consequ": 2425,
      "hood": 2426,
      "dar": 2427,
      "wis": 2428,
      "trou": 2429,
      "habit": 2430,
      "speech": 2431,
      "fat": 2432,
      "scott": 2433,
      "offic": 2434,
      "mayor": 2435,
      "stream": 2436,
      "fleet": 2437,
      "neither": 2438,
      "guard": 2439,
      "08": 2440,
      "non": 2441,
      "dan": 2442,
      "greater": 2443,
      "isters": 2444,
      "5rem": 2445,
      "seven": 2446,
      "french": 2447,
      "offer": 2448,
      "moon": 2449,
      "arent": 2450,
      "trust": 2451,
      "rob": 2452,
      "imag": 2453,
      "presented": 2454,
      "oliver": 2455,
      "exec": 2456,
      "ense": 2457,
      "tm": 2458,
      "priv": 2459,
      "ica": 2460,
      "deal": 2461,
      "ency": 2462,
      "break": 2463,
      "born": 2464,
      "ilt": 2465,
      "portion": 2466,
      "beyond": 2467,
      "ention": 2468,
      "bold": 2469,
      "slow": 2470,
      "tur": 2471,
      "wait": 2472,
      "yon": 2473,
      "tar": 2474,
      "shelley": 2475,
      "brown": 2476,
      "langu": 2477,
      "inct": 2478,
      "duke": 2479,
      "tears": 2480,
      "gle": 2481,
      "53": 2482,
      "ston": 2483,
      "rious": 2484,
      "mach": 2485,
      "prote": 2486,
      "bill": 2487,
      "river": 2488,
      "ends": 2489,
      "stat": 2490,
      "arri": 2491,
      "sheet": 2492,
      "charge": 2493,
      "agree": 2494,
      "pel": 2495,
      "52": 2496,
      "sav": 2497,
      "letters": 2498,
      "pot": 2499,
      "rever": 2500,
      "broad": 2501,
      "sulph": 2502,
      "ains": 2503,
      "block": 2504,
      "april": 2505,
      "96": 2506,
      "voc": 2507,
      "ding": 2508,
      "neigh": 2509,
      "women": 2510,
      "produced": 2511,
      "commit": 2512,
      "ather": 2513,
      "deser": 2514,
      "wine": 2515,
      "ornament": 2516,
      "philoso": 2517,
      "tions": 2518,
      "print": 2519,
      "quiet": 2520,
      "ava": 2521,
      "mouth": 2522,
      "colour": 2523,
      "gun": 2524,
      "oper": 2525,
      "glad": 2526,
      "dry": 2527,
      "chapter": 2528,
      "ladies": 2529,
      "doctor": 2530,
      "shadow": 2531,
      "majesty": 2532,
      "az": 2533,
      "pow": 2534,
      "stem": 2535,
      "vert": 2536,
      "reng": 2537,
      "direct": 2538,
      "protest": 2539,
      "stands": 2540,
      "ric": 2541,
      "cked": 2542,
      "cler": 2543,
      "utes": 2544,
      "kingdom": 2545,
      "ism": 2546,
      "sail": 2547,
      "wing": 2548,
      "parish": 2549,
      "spoke": 2550,
      "probably": 2551,
      "early": 2552,
      "tes": 2553,
      "secret": 2554,
      "nd": 2555,
      "closed": 2556,
      "size": 2557,
      "around": 2558,
      "_pt": 2559,
      "ib": 2560,
      "ified": 2561,
      "ronic": 2562,
      "france": 2563,
      "fig": 2564,
      "addition": 2565,
      "_pp": 2566,
      "thine": 2567,
      "amed": 2568,
      "petition": 2569,
      "bles": 2570,
      "appears": 2571,
      "quick": 2572,
      "drew": 2573,
      "electronic": 2574,
      "lid": 2575,
      "iful": 2576,
      "bless": 2577,
      "pointed": 2578,
      "thoughts": 2579,
      "fro": 2580,
      "degre": 2581,
      "ired": 2582,
      "ics": 2583,
      "fli": 2584,
      "repe": 2585,
      "excell": 2586,
      "hang": 2587,
      "firm": 2588,
      "93": 2589,
      "stair": 2590,
      "thir": 2591,
      "super": 2592,
      "distribut": 2593,
      "\"></": 2594,
      "commun": 2595,
      "58": 2596,
      "ying": 2597,
      "seph": 2598,
      "followed": 2599,
      "false": 2600,
      "really": 2601,
      "heat": 2602,
      "fold": 2603,
      "ressed": 2604,
      "pride": 2605,
      "-|": 2606,
      "desp": 2607,
      "cially": 2608,
      "copper": 2609,
      "1641": 2610,
      "pencroft": 2611,
      "oth": 2612,
      "comfort": 2613,
      "shire": 2614,
      "brief": 2615,
      "reign": 2616,
      "71": 2617,
      "ral": 2618,
      "observed": 2619,
      "thes": 2620,
      "viol": 2621,
      "univers": 2622,
      "bir": 2623,
      "uc": 2624,
      "ordinary": 2625,
      "silence": 2626,
      "mortal": 2627,
      "pes": 2628,
      "united": 2629,
      "breath": 2630,
      "uded": 2631,
      "exc": 2632,
      "rus": 2633,
      "ws": 2634,
      "01": 2635,
      "ell": 2636,
      "mess": 2637,
      "deliver": 2638,
      "longer": 2639,
      "garden": 2640,
      "moder": 2641,
      "h4": 2642,
      "motion": 2643,
      "spread": 2644,
      "oxford": 2645,
      "stay": 2646,
      "holy": 2647,
      "gentlemen": 2648,
      "sits": 2649,
      "frequ": 2650,
      "va": 2651,
      "exhi": 2652,
      "afterwards": 2653,
      "carried": 2654,
      "samuel": 2655,
      "219": 2656,
      "eag": 2657,
      "brow": 2658,
      "latter": 2659,
      "suff": 2660,
      "supposed": 2661,
      "intro": 2662,
      "seeing": 2663,
      "pun": 2664,
      "eds": 2665,
      "opened": 2666,
      "catalogue": 2667,
      "cul": 2668,
      "kis": 2669,
      "star": 2670,
      "joseph": 2671,
      "lying": 2672,
      "termin": 2673,
      "stra": 2674,
      "98": 2675,
      "agr": 2676,
      "cript": 2677,
      "tin": 2678,
      "vict": 2679,
      "below": 2680,
      "roll": 2681,
      "overflow": 2682,
      "captain": 2683,
      "occup": 2684,
      "establ": 2685,
      "preach": 2686,
      "pher": 2687,
      "weight": 2688,
      "weak": 2689,
      "27118": 2690,
      "suppose": 2691,
      "han": 2692,
      "exts": 2693,
      "weller": 2694,
      "eight": 2695,
      "bury": 2696,
      "sad": 2697,
      "move": 2698,
      "mic": 2699,
      "important": 2700,
      "fs": 2701,
      "nearly": 2702,
      "beside": 2703,
      "condu": 2704,
      "shak": 2705,
      "servant": 2706,
      "blow": 2707,
      "influ": 2708,
      "thereof": 2709,
      "grey": 2710,
      "xxx": 2711,
      "exer": 2712,
      "54": 2713,
      "wide": 2714,
      "admir": 2715,
      "labour": 2716,
      "catho": 2717,
      "prove": 2718,
      "press": 2719,
      "warwick": 2720,
      "ape": 2721,
      "xl": 2722,
      "uted": 2723,
      "fortun": 2724,
      "paper": 2725,
      "ening": 2726,
      "cher": 2727,
      "streng": 2728,
      "sword": 2729,
      "smile": 2730,
      "complete": 2731,
      "price": 2732,
      "arrow": 2733,
      "lot": 2734,
      "pipe": 2735,
      "rise": 2736,
      "bible": 2737,
      "bird": 2738,
      "justice": 2739,
      "constit": 2740,
      "record": 2741,
      "eld": 2742,
      "uses": 2743,
      "knowledge": 2744,
      "looks": 2745,
      "business": 2746,
      "conne": 2747,
      "prep": 2748,
      "solem": 2749,
      "audio": 2750,
      "hours": 2751,
      "digit": 2752,
      "enem": 2753,
      "sick": 2754,
      "brand": 2755,
      "raised": 2756,
      "warm": 2757,
      "immediately": 2758,
      "claimed": 2759,
      "alder": 2760,
      "iel": 2761,
      "july": 2762,
      "feat": 2763,
      "align": 2764,
      "trees": 2765,
      "surpr": 2766,
      "jour": 2767,
      "placed": 2768,
      "suffic": 2769,
      "013": 2770,
      "ounds": 2771,
      "introdu": 2772,
      "pale": 2773,
      "depart": 2774,
      "loud": 2775,
      "trem": 2776,
      "utter": 2777,
      "peter": 2778,
      "digitized": 2779,
      "dun": 2780,
      "ald": 2781,
      "lion": 2782,
      "learned": 2783,
      "51": 2784,
      "svo": 2785,
      "please": 2786,
      "pursu": 2787,
      "cil": 2788,
      "eved": 2789,
      "column": 2790,
      "dress": 2791,
      "june": 2792,
      "nest": 2793,
      "*'": 2794,
      "1648": 2795,
      "especially": 2796,
      "office": 2797,
      "harding": 2798,
      "sand": 2799,
      "chance": 2800,
      "whate": 2801,
      "reader": 2802,
      "yer": 2803,
      "further": 2804,
      "absol": 2805,
      "81": 2806,
      "kin": 2807,
      "access": 2808,
      "miles": 2809,
      "bing": 2810,
      "exact": 2811,
      "index": 2812,
      "ising": 2813,
      "fut": 2814,
      "ose": 2815,
      "service": 2816,
      "ternal": 2817,
      "sept": 2818,
      "honourable": 2819,
      "beauty": 2820,
      "coll": 2821,
      "resp": 2822,
      "gospe": 2823,
      "active": 2824,
      "considered": 2825,
      "nal": 2826,
      "description": 2827,
      "ende": 2828,
      "proved": 2829,
      "forest": 2830,
      "amy": 2831,
      "preci": 2832,
      "kins": 2833,
      "zz": 2834,
      "ja": 2835,
      "ore": 2836,
      "pers": 2837,
      "label": 2838,
      "02": 2839,
      "crow": 2840,
      "cing": 2841,
      "kit": 2842,
      "teen": 2843,
      "fare": 2844,
      "slight": 2845,
      "expe": 2846,
      "license": 2847,
      "vari": 2848,
      "riage": 2849,
      "talk": 2850,
      "tee": 2851,
      "phen": 2852,
      "profess": 2853,
      "assu": 2854,
      "ets": 2855,
      "entered": 2856,
      "discovered": 2857,
      "vindic": 2858,
      "amer": 2859,
      "ishment": 2860,
      "passion": 2861,
      "whis": 2862,
      "proud": 2863,
      "max": 2864,
      "trade": 2865,
      "distance": 2866,
      "subst": 2867,
      "declar": 2868,
      "lam": 2869,
      "host": 2870,
      "artic": 2871,
      "$--": 2872,
      "ume": 2873,
      "yor": 2874,
      "occur": 2875,
      "belong": 2876,
      "och": 2877,
      "concl": 2878,
      "ali": 2879,
      "rock": 2880,
      "aries": 2881,
      "opinion": 2882,
      "avern": 2883,
      "reli": 2884,
      "giving": 2885,
      "mann": 2886,
      "mass": 2887,
      "action": 2888,
      "gal": 2889,
      "convers": 2890,
      "1642": 2891,
      "certainly": 2892,
      "circumstances": 2893,
      "gi": 2894,
      "mitted": 2895,
      "anx": 2896,
      "anno": 2897,
      "trave": 2898,
      "divine": 2899,
      "wear": 2900,
      "type": 2901,
      "scarcely": 2902,
      "saying": 2903,
      "spring": 2904,
      "antiqu": 2905,
      "plate": 2906,
      "wrong": 2907,
      "affection": 2908,
      "cheer": 2909,
      "judg": 2910,
      "ireland": 2911,
      "contr": 2912,
      "space": 2913,
      "desire": 2914,
      "ogle": 2915,
      "err": 2916,
      "erce": 2917,
      "carry": 2918,
      "whatever": 2919,
      "vision": 2920,
      "camp": 2921,
      "preser": 2922,
      "news": 2923,
      "donate": 2924,
      "423529": 2925,
      "information": 2926,
      "vas": 2927,
      "phys": 2928,
      "single": 2929,
      "associ": 2930,
      "chester": 2931,
      "sex": 2932,
      "breast": 2933,
      "rope": 2934,
      "iment": 2935,
      "tender": 2936,
      "attempt": 2937,
      "mes": 2938,
      "rome": 2939,
      "francis": 2940,
      "leaves": 2941,
      "temper": 2942,
      "exhib": 2943,
      "shar": 2944,
      "roman": 2945,
      "advant": 2946,
      "prevent": 2947,
      "speed": 2948,
      "lands": 2949,
      "aved": 2950,
      "forward": 2951,
      "quir": 2952,
      "doct": 2953,
      "beautiful": 2954,
      "cost": 2955,
      "ilar": 2956,
      "bling": 2957,
      "places": 2958,
      "cand": 2959,
      "sym": 2960,
      "resu": 2961,
      "olog": 2962,
      "heath": 2963,
      "absolute": 2964,
      "lou": 2965,
      "corner": 2966,
      "worthy": 2967,
      "appearance": 2968,
      "reat": 2969,
      "presence": 2970,
      "itude": 2971,
      "acid": 2972,
      "famili": 2973,
      "wink": 2974,
      "arg": 2975,
      "silver": 2976,
      "sn": 2977,
      "language": 2978,
      "rit": 2979,
      "tree": 2980,
      "piece": 2981,
      "inn": 2982,
      "google": 2983,
      "$--><!": 2984,
      "viii": 2985,
      "reply": 2986,
      "anne": 2987,
      "quer": 2988,
      "future": 2989,
      "awber": 2990,
      "micawber": 2991,
      "''": 2992,
      "peg": 2993,
      "vii": 2994,
      "fled": 2995,
      "288": 2996,
      "herbert": 2997,
      "simple": 2998,
      "dn": 2999,
      "dor": 3000,
      "oe": 3001,
      "broken": 3002,
      "rey": 3003,
      "dwell": 3004,
      "advan": 3005,
      "usual": 3006,
      "influence": 3007,
      "grant": 3008,
      "calm": 3009,
      "istr": 3010,
      "quant": 3011,
      "fff": 3012,
      "authority": 3013,
      "chen": 3014,
      "aft": 3015,
      "solemn": 3016,
      "steps": 3017,
      "liberty": 3018,
      "°.": 3019,
      "ining": 3020,
      "shut": 3021,
      "sett": 3022,
      "apo": 3023,
      "swi": 3024,
      "although": 3025,
      "images": 3026,
      "cial": 3027,
      "afford": 3028,
      "bottom": 3029,
      "strength": 3030,
      "gas": 3031,
      "wander": 3032,
      "video": 3033,
      "nod": 3034,
      "arts": 3035,
      "priest": 3036,
      "lor": 3037,
      "agreement": 3038,
      "1rem": 3039,
      "pted": 3040,
      "rant": 3041,
      "verse": 3042,
      "406779": 3043,
      "rule": 3044,
      "2711864": 3045,
      "gospel": 3046,
      "paid": 3047,
      "equ": 3048,
      "address": 3049,
      "fifth": 3050,
      "liar": 3051,
      "pra": 3052,
      "tenance": 3053,
      "catholic": 3054,
      "oce": 3055,
      "obli": 3056,
      "drawn": 3057,
      "edit": 3058,
      "ballad": 3059,
      "vin": 3060,
      "ises": 3061,
      "cock": 3062,
      "wealth": 3063,
      "joined": 3064,
      "divers": 3065,
      "ives": 3066,
      "ease": 3067,
      "suddenly": 3068,
      "british": 3069,
      "ingly": 3070,
      "discourse": 3071,
      "cliff": 3072,
      "described": 3073,
      "auto": 3074,
      "pressed": 3075,
      "tale": 3076,
      "forms": 3077,
      "bank": 3078,
      "remark": 3079,
      "coloured": 3080,
      "fixed": 3081,
      "relation": 3082,
      "august": 3083,
      "\"-": 3084,
      "trium": 3085,
      "stir": 3086,
      "containing": 3087,
      "lier": 3088,
      "magn": 3089,
      "sought": 3090,
      "mater": 3091,
      "anon": 3092,
      "golden": 3093,
      "expected": 3094,
      "hom": 3095,
      "tone": 3096,
      "ishing": 3097,
      "design": 3098,
      "cav": 3099,
      "nay": 3100,
      "atic": 3101,
      "attention": 3102,
      "token": 3103,
      "user": 3104,
      "fly": 3105,
      "ml": 3106,
      "tlie": 3107,
      "ina": 3108,
      "fed": 3109,
      "fight": 3110,
      "105": 3111,
      "mighty": 3112,
      "fortune": 3113,
      "twi": 3114,
      "week": 3115,
      "lived": 3116,
      "affair": 3117,
      "idea": 3118,
      "confess": 3119,
      "sw": 3120,
      "manus": 3121,
      "monstr": 3122,
      "mentioned": 3123,
      "san": 3124,
      "uments": 3125,
      "discover": 3126,
      "hambur": 3127,
      "due": 3128,
      "civil": 3129,
      "jane": 3130,
      "flowers": 3131,
      "dare": 3132,
      "grad": 3133,
      "trait": 3134,
      "*.": 3135,
      "preh": 3136,
      "lling": 3137,
      "key": 3138,
      "temple": 3139,
      "shore": 3140,
      "texts": 3141,
      "fc": 3142,
      "safe": 3143,
      "meth": 3144,
      "wherefore": 3145,
      "mut": 3146,
      "ray": 3147,
      "ingu": 3148,
      "len": 3149,
      "report": 3150,
      "engine": 3151,
      "lock": 3152,
      "canvas": 3153,
      "phy": 3154,
      "figure": 3155,
      "york": 3156,
      "equal": 3157,
      "condition": 3158,
      "demand": 3159,
      "stairs": 3160,
      "manuscript": 3161,
      "jes": 3162,
      "stan": 3163,
      "manu": 3164,
      "process": 3165,
      "silent": 3166,
      "cou": 3167,
      "athe": 3168,
      "oo": 3169,
      "uit": 3170,
      "experi": 3171,
      "triumph": 3172,
      "spl": 3173,
      "tic": 3174,
      "omen": 3175,
      "sig": 3176,
      "walk": 3177,
      "pretty": 3178,
      "evil": 3179,
      "gotty": 3180,
      "remained": 3181,
      "peggotty": 3182,
      "hence": 3183,
      "itation": 3184,
      "1646": 3185,
      "burgh": 3186,
      "orted": 3187,
      "stranger": 3188,
      "citiz": 3189,
      "scottish": 3190,
      "marks": 3191,
      "lower": 3192,
      "270588": 3193,
      "corre": 3194,
      "6779661h": 3195,
      "vet": 3196,
      "resist": 3197,
      "visible": 3198,
      "transl": 3199,
      "numer": 3200,
      "murder": 3201,
      "copyright": 3202,
      "furn": 3203,
      "w2": 3204,
      "later": 3205,
      "system": 3206,
      "aa": 3207,
      "entire": 3208,
      "expect": 3209,
      "grap": 3210,
      "memory": 3211,
      "sky": 3212,
      "rul": 3213,
      "oxy": 3214,
      "destroy": 3215,
      "communic": 3216,
      "mill": 3217,
      "263": 3218,
      "spirits": 3219,
      "muse": 3220,
      "aria": 3221,
      "mons": 3222,
      "distingu": 3223,
      "monarch": 3224,
      "degree": 3225,
      "situ": 3226,
      "support": 3227,
      "issu": 3228,
      "amid": 3229,
      "ception": 3230,
      "ey": 3231,
      "zed": 3232,
      "beat": 3233,
      "img": 3234,
      "difficult": 3235,
      "winter": 3236,
      "using": 3237,
      "assist": 3238,
      "burst": 3239,
      "fourth": 3240,
      "stud": 3241,
      "everything": 3242,
      "broke": 3243,
      "changed": 3244,
      "links": 3245,
      "send": 3246,
      "enjoy": 3247,
      "lace": 3248,
      "grew": 3249,
      "value": 3250,
      "foreign": 3251,
      "narr": 3252,
      "fresh": 3253,
      "lives": 3254,
      "rain": 3255,
      "stro": 3256,
      "explain": 3257,
      "grat": 3258,
      "interior": 3259,
      "pecu": 3260,
      "notice": 3261,
      "sorrow": 3262,
      "determin": 3263,
      "fet": 3264,
      "meg": 3265,
      "fame": 3266,
      "ift": 3267,
      "accom": 3268,
      "merry": 3269,
      "atta": 3270,
      "aren": 3271,
      "seek": 3272,
      "center": 3273,
      "bay": 3274,
      "uced": 3275,
      "lime": 3276,
      "cot": 3277,
      "2823529": 3278,
      "php": 3279,
      "board": 3280,
      "passage": 3281,
      "glas": 3282,
      "walter": 3283,
      "2cm": 3284,
      "^.": 3285,
      "considerable": 3286,
      "similar": 3287,
      "ging": 3288,
      "approach": 3289,
      "c1": 3290,
      "fields": 3291,
      "literary": 3292,
      "fing": 3293,
      "race": 3294,
      "summer": 3295,
      "hardly": 3296,
      "ggest": 3297,
      "rous": 3298,
      "rine": 3299,
      "alley": 3300,
      "sigh": 3301,
      "sr": 3302,
      "seat": 3303,
      "189": 3304,
      "makes": 3305,
      "fied": 3306,
      "refle": 3307,
      "fil": 3308,
      "jack": 3309,
      "roo": 3310,
      "derick": 3311,
      "ability": 3312,
      "================": 3313,
      "exclaimed": 3314,
      "holds": 3315,
      "sitting": 3316,
      "hamburger": 3317,
      "••": 3318,
      "milit": 3319,
      "rate": 3320,
      "duty": 3321,
      "bent": 3322,
      "names": 3323,
      "bore": 3324,
      "faction": 3325,
      "prog": 3326,
      "serious": 3327,
      "uding": 3328,
      "peculiar": 3329,
      "inf": 3330,
      "1649": 3331,
      "capital": 3332,
      "besides": 3333,
      "pleasant": 3334,
      "acity": 3335,
      "yourself": 3336,
      "link": 3337,
      "rapid": 3338,
      "private": 3339,
      "septem": 3340,
      "ocean": 3341,
      "season": 3342,
      "trist": 3343,
      "gods": 3344,
      "snow": 3345,
      "suggest": 3346,
      "coat": 3347,
      "reco": 3348,
      "sport": 3349,
      "1647": 3350,
      "merely": 3351,
      "david": 3352,
      "gare": 3353,
      "struck": 3354,
      "conscious": 3355,
      "025": 3356,
      "popular": 3357,
      "fancy": 3358,
      "minstre": 3359,
      "1643": 3360,
      "possession": 3361,
      "_adv": 3362,
      "delivered": 3363,
      "whisper": 3364,
      "gran": 3365,
      "woe": 3366,
      "acts": 3367,
      "bread": 3368,
      "sect": 3369,
      "uret": 3370,
      "cape": 3371,
      "3rem": 3372,
      "photo": 3373,
      "impossible": 3374,
      "shame": 3375,
      "heavy": 3376,
      "relative": 3377,
      "aven": 3378,
      "chant": 3379,
      "ulty": 3380,
      "lately": 3381,
      "regular": 3382,
      "objects": 3383,
      "birth": 3384,
      "inor": 3385,
      "illustration": 3386,
      "mac": 3387,
      "ping": 3388,
      "lls": 3389,
      "moved": 3390,
      "marked": 3391,
      "cases": 3392,
      "a_": 3393,
      "vv": 3394,
      "historical": 3395,
      "thick": 3396,
      "flex": 3397,
      "iers": 3398,
      "edge": 3399,
      "gue": 3400,
      "wes": 3401,
      "gain": 3402,
      "kno": 3403,
      "wound": 3404,
      "upper": 3405,
      "pleased": 3406,
      "borne": 3407,
      "117": 3408,
      "lst": 3409,
      "dep": 3410,
      "ulation": 3411,
      "crom": 3412,
      "h3": 3413,
      "prophe": 3414,
      "walked": 3415,
      "cise": 3416,
      "dev": 3417,
      "married": 3418,
      "alt": 3419,
      "ino": 3420,
      "myster": 3421,
      "card": 3422,
      "advent": 3423,
      "proof": 3424,
      "forget": 3425,
      "weep": 3426,
      "species": 3427,
      "llo": 3428,
      "pure": 3429,
      "ago": 3430,
      "easy": 3431,
      "represent": 3432,
      "indiv": 3433,
      "vols": 3434,
      "cd": 3435,
      "vul": 3436,
      "brave": 3437,
      "mont": 3438,
      "volume": 3439,
      "beginning": 3440,
      "antic": 3441,
      "aces": 3442,
      "grass": 3443,
      "understand": 3444,
      "happiness": 3445,
      "eat": 3446,
      "hot": 3447,
      "octo": 3448,
      "property": 3449,
      "tast": 3450,
      "gray": 3451,
      "tried": 3452,
      "susp": 3453,
      "principles": 3454,
      "devo": 3455,
      "phr": 3456,
      "hearing": 3457,
      "produce": 3458,
      "een": 3459,
      "alous": 3460,
      "exper": 3461,
      "truly": 3462,
      "kill": 3463,
      "unless": 3464,
      "mond": 3465,
      "pression": 3466,
      "ministers": 3467,
      "ross": 3468,
      "1824": 3469,
      "doing": 3470,
      "eve": 3471,
      "lis": 3472,
      "reach": 3473,
      "turning": 3474,
      "filled": 3475,
      "bare": 3476,
      "squ": 3477,
      "thrown": 3478,
      "ams": 3479,
      "months": 3480,
      "county": 3481,
      "declaration": 3482,
      "saint": 3483,
      "palace": 3484,
      "resolved": 3485,
      "churches": 3486,
      "engr": 3487,
      "ost": 3488,
      "appointed": 3489,
      "council": 3490,
      "minutes": 3491,
      "ium": 3492,
      "vation": 3493,
      "boat": 3494,
      "holding": 3495,
      "elinor": 3496,
      "'*": 3497,
      "gay": 3498,
      "infer": 3499,
      "expression": 3500,
      "1839": 3501,
      "tavern": 3502,
      "teach": 3503,
      "poetry": 3504,
      "excellent": 3505,
      "fash": 3506,
      "sher": 3507,
      "generally": 3508,
      "expen": 3509,
      "assembled": 3510,
      "shakespe": 3511,
      "unity": 3512,
      "individ": 3513,
      "twel": 3514,
      "glory": 3515,
      "countenance": 3516,
      "bride": 3517,
      "powers": 3518,
      "116": 3519,
      "spot": 3520,
      "lone": 3521,
      "an_": 3522,
      "aded": 3523,
      "hooch": 3524,
      "yellow": 3525,
      "download": 3526,
      "inno": 3527,
      "fool": 3528,
      "hosp": 3529,
      "metsu": 3530,
      "hung": 3531,
      "lia": 3532,
      "cket": 3533,
      "shakespeare": 3534,
      "nit": 3535,
      "odd": 3536,
      "consist": 3537,
      "bas": 3538,
      "forgot": 3539,
      "tax": 3540,
      "throne": 3541,
      "foun": 3542,
      "py": 3543,
      "loss": 3544,
      "conce": 3545,
      "onel": 3546,
      "oppos": 3547,
      "previ": 3548,
      "bodies": 3549,
      "http": 3550,
      "fate": 3551,
      "male": 3552,
      "ables": 3553,
      "athan": 3554,
      "pard": 3555,
      "ones": 3556,
      "share": 3557,
      "vey": 3558,
      "acious": 3559,
      "crit": 3560,
      "4235294": 3561,
      "cruel": 3562,
      "throw": 3563,
      "instead": 3564,
      "isto": 3565,
      "peas": 3566,
      "wy": 3567,
      "wre": 3568,
      "floor": 3569,
      "intellect": 3570,
      "5em": 3571,
      "bard": 3572,
      "sour": 3573,
      "arrang": 3574,
      "ihe": 3575,
      "disco": 3576,
      "receive": 3577,
      "sake": 3578,
      "margare": 3579,
      "chapel": 3580,
      "september": 3581,
      "political": 3582,
      "pest": 3583,
      "rot": 3584,
      "reasons": 3585,
      "photograph": 3586,
      "uncle": 3587,
      "bran": 3588,
      "bishops": 3589,
      "existence": 3590,
      "endeav": 3591,
      "1660": 3592,
      "pag": 3593,
      "judge": 3594,
      "formerly": 3595,
      "ini": 3596,
      "revol": 3597,
      "aled": 3598,
      "neighbour": 3599,
      "edin": 3600,
      "cere": 3601,
      "quarter": 3602,
      "quantity": 3603,
      "stop": 3604,
      "colon": 3605,
      "thern": 3606,
      "earnest": 3607,
      "observations": 3608,
      "reached": 3609,
      "cf": 3610,
      "ub": 3611,
      "frag": 3612,
      "lincol": 3613,
      "particularly": 3614,
      "ching": 3615,
      "ify": 3616,
      "happened": 3617,
      "transition": 3618,
      "europe": 3619,
      "lest": 3620,
      "apt": 3621,
      "venge": 3622,
      "market": 3623,
      "tristrem": 3624,
      "deem": 3625,
      "angel": 3626,
      "treme": 3627,
      "profit": 3628,
      "accordingly": 3629,
      "separate": 3630,
      "uary": 3631,
      "yield": 3632,
      "wark": 3633,
      "poetical": 3634,
      "proceedings": 3635,
      "vn": 3636,
      "clam": 3637,
      "119": 3638,
      "aston": 3639,
      "easily": 3640,
      "afr": 3641,
      "dale": 3642,
      "distant": 3643,
      "'^": 3644,
      "lain": 3645,
      "input": 3646,
      "upload": 3647,
      "humble": 3648,
      "465": 3649,
      "iu": 3650,
      "cking": 3651,
      "museum": 3652,
      "vr": 3653,
      "noon": 3654,
      "hither": 3655,
      "pul": 3656,
      "cheap": 3657,
      "succeed": 3658,
      "repeated": 3659,
      "dash": 3660,
      "minute": 3661,
      "passing": 3662,
      "walls": 3663,
      "date": 3664,
      "pon": 3665,
      "terri": 3666,
      "conduct": 3667,
      "apart": 3668,
      "composed": 3669,
      "ais": 3670,
      "wished": 3671,
      "commission": 3672,
      "advantage": 3673,
      "writing": 3674,
      "extreme": 3675,
      "890": 3676,
      "729": 3677,
      "8cm": 3678,
      "cen": 3679,
      "cult": 3680,
      "lif": 3681,
      "entr": 3682,
      "neb": 3683,
      "complain": 3684,
      "science": 3685,
      "akes": 3686,
      "attend": 3687,
      "modern": 3688,
      "sions": 3689,
      "focus": 3690,
      "stern": 3691,
      "employed": 3692,
      "eks": 3693,
      "moral": 3694,
      "rising": 3695,
      "ered": 3696,
      "loy": 3697,
      "distinct": 3698,
      "laurie": 3699,
      "learn": 3700,
      "”,": 3701,
      "sales": 3702,
      "218": 3703,
      "ering": 3704,
      "plant": 3705,
      "apparent": 3706,
      "clock": 3707,
      "tray": 3708,
      "foe": 3709,
      "_pr": 3710,
      "tum": 3711,
      "andrew": 3712,
      "outline": 3713,
      "vile": 3714,
      "didn": 3715,
      "manufact": 3716,
      "fright": 3717,
      "nove": 3718,
      "defence": 3719,
      "winkle": 3720,
      "organ": 3721,
      "fierce": 3722,
      "courage": 3723,
      "direction": 3724,
      "gs": 3725,
      "wret": 3726,
      "sole": 3727,
      "somewhat": 3728,
      "glance": 3729,
      "heads": 3730,
      "cyrus": 3731,
      "baron": 3732,
      "eccles": 3733,
      "rendered": 3734,
      "lod": 3735,
      "exchange": 3736,
      "believed": 3737,
      "emin": 3738,
      "touching": 3739,
      "oke": 3740,
      "rough": 3741,
      "cather": 3742,
      "***": 3743,
      "dated": 3744,
      "ties": 3745,
      "coast": 3746,
      "engineer": 3747,
      "iast": 3748,
      "inity": 3749,
      "oul": 3750,
      "prospect": 3751,
      "sax": 3752,
      "witness": 3753,
      "zing": 3754,
      "dinner": 3755,
      "%;": 3756,
      "inquired": 3757,
      "inhabit": 3758,
      "require": 3759,
      "fles": 3760,
      "descid": 3761,
      "theat": 3762,
      "4067797": 3763,
      "vere": 3764,
      "train": 3765,
      "ively": 3766,
      "streets": 3767,
      "ification": 3768,
      "__": 3769,
      "gor": 3770,
      "atom": 3771,
      "sacred": 3772,
      "wol": 3773,
      "fallen": 3774,
      "catherine": 3775,
      "append": 3776,
      "tries": 3777,
      "matters": 3778,
      "200": 3779,
      "lett": 3780,
      "bility": 3781,
      "coach": 3782,
      "extra": 3783,
      "sible": 3784,
      "girls": 3785,
      "essay": 3786,
      "pom": 3787,
      "quis": 3788,
      "subjects": 3789,
      "footnote": 3790,
      "signe": 3791,
      "chron": 3792,
      "ically": 3793,
      "reading": 3794,
      "ax": 3795,
      "avas": 3796,
      "folk": 3797,
      "slowly": 3798,
      "method": 3799,
      "_5": 3800,
      "century": 3801,
      "grim": 3802,
      "bag": 3803,
      "rocks": 3804,
      "park": 3805,
      "shook": 3806,
      "afraid": 3807,
      "1644": 3808,
      "brew": 3809,
      "thirty": 3810,
      "chase": 3811,
      "meant": 3812,
      "thank": 3813,
      "daw": 3814,
      "pau": 3815,
      "asser": 3816,
      "ggle": 3817,
      "zy": 3818,
      "sey": 3819,
      "external": 3820,
      "burg": 3821,
      "obliged": 3822,
      "tering": 3823,
      "jewish": 3824,
      "curious": 3825,
      "example": 3826,
      "oxygen": 3827,
      "seated": 3828,
      "mercy": 3829,
      "tw": 3830,
      "spi": 3831,
      "donations": 3832,
      "mountains": 3833,
      "treatise": 3834,
      "machine": 3835,
      "adam": 3836,
      "exceed": 3837,
      "ived": 3838,
      "thinking": 3839,
      "lean": 3840,
      "marriage": 3841,
      "points": 3842,
      "mour": 3843,
      "hell": 3844,
      "shout": 3845,
      "aked": 3846,
      "333": 3847,
      "suit": 3848,
      "iding": 3849,
      "marian": 3850,
      "volcan": 3851,
      "bitter": 3852,
      "sufficient": 3853,
      "thro": 3854,
      "gives": 3855,
      "provin": 3856,
      "stock": 3857,
      "independ": 3858,
      "respond": 3859,
      "conversation": 3860,
      "dc": 3861,
      "chor": 3862,
      "solit": 3863,
      "monument": 3864,
      "benef": 3865,
      "ih": 3866,
      "uous": 3867,
      "thur": 3868,
      "anal": 3869,
      "figu": 3870,
      "ener": 3871,
      "colonel": 3872,
      "pine": 3873,
      "decem": 3874,
      "drag": 3875,
      "drink": 3876,
      "grief": 3877,
      "70588236": 3878,
      "bul": 3879,
      "agu": 3880,
      "ference": 3881,
      "obtain": 3882,
      "ize": 3883,
      "promise": 3884,
      "patri": 3885,
      "hills": 3886,
      "advanced": 3887,
      "fashion": 3888,
      "2000": 3889,
      "eral": 3890,
      "hero": 3891,
      "farther": 3892,
      "quiry": 3893,
      "october": 3894,
      "figures": 3895,
      "dying": 3896,
      "agraph": 3897,
      "papers": 3898,
      "solid": 3899,
      "thered": 3900,
      "whence": 3901,
      "hide": 3902,
      "icel": 3903,
      "rence": 3904,
      "cloth": 3905,
      "publi": 3906,
      "anxious": 3907,
      "pardon": 3908,
      "faint": 3909,
      "flat": 3910,
      "stopped": 3911,
      "flower": 3912,
      "stret": 3913,
      "winds": 3914,
      "amongst": 3915,
      "poems": 3916,
      "nur": 3917,
      "orious": 3918,
      "imper": 3919,
      "aced": 3920,
      "worship": 3921,
      "preced": 3922,
      "paragraph": 3923,
      "gloom": 3924,
      "measure": 3925,
      "eager": 3926,
      "sharp": 3927,
      "velo": 3928,
      "whilst": 3929,
      "145": 3930,
      "causes": 3931,
      "affairs": 3932,
      "fond": 3933,
      "lover": 3934,
      "neck": 3935,
      "gallery": 3936,
      "cromwell": 3937,
      "across": 3938,
      "prayer": 3939,
      "dow": 3940,
      "forced": 3941,
      "frank": 3942,
      "tongue": 3943,
      "vessel": 3944,
      "ignor": 3945,
      "douglas": 3946,
      "mistress": 3947,
      "enemy": 3948,
      "coven": 3949,
      "opport": 3950,
      "sermons": 3951,
      "companions": 3952,
      "xml": 3953,
      "sele": 3954,
      "abb": 3955,
      "pping": 3956,
      "irs": 3957,
      "91": 3958,
      "hate": 3959,
      "narrow": 3960,
      "wro": 3961,
      "leaving": 3962,
      "iments": 3963,
      "1739": 3964,
      "prepared": 3965,
      "twelve": 3966,
      "hors": 3967,
      "thunder": 3968,
      "tact": 3969,
      "sons": 3970,
      "probable": 3971,
      "britain": 3972,
      "opposite": 3973,
      "cele": 3974,
      "shape": 3975,
      "orders": 3976,
      "1654": 3977,
      "tide": 3978,
      "otherwise": 3979,
      "knows": 3980,
      "obtained": 3981,
      "storm": 3982,
      "orable": 3983,
      "hearts": 3984,
      "gather": 3985,
      "wanted": 3986,
      "satisfaction": 3987,
      "difficulty": 3988,
      "marianne": 3989,
      "js": 3990,
      "ram": 3991,
      "dell": 3992,
      "contrary": 3993,
      "whit": 3994,
      "arest": 3995,
      "members": 3996,
      "game": 3997,
      "refu": 3998,
      "clouds": 3999,
      "officers": 4000,
      "frequently": 4001,
      "greatest": 4002,
      "dnb": 4003,
      "mul": 4004,
      "asc": 4005,
      "186": 4006,
      "instant": 4007,
      "cob": 4008,
      "fain": 4009,
      "nn": 4010,
      "vic": 4011,
      "harry": 4012,
      "rum": 4013,
      "compar": 4014,
      "intended": 4015,
      "constant": 4016,
      "changes": 4017,
      "1px": 4018,
      "w3": 4019,
      "zen": 4020,
      "armed": 4021,
      "brook": 4022,
      "skd": 4023,
      "protestant": 4024,
      "splend": 4025,
      "xmlns": 4026,
      "pity": 4027,
      "alter": 4028,
      "capt": 4029,
      "nine": 4030,
      "section": 4031,
      "aff": 4032,
      "flame": 4033,
      "compli": 4034,
      "onym": 4035,
      "principal": 4036,
      "despair": 4037,
      "https": 4038,
      "fish": 4039,
      "speaking": 4040,
      "execution": 4041,
      "glow": 4042,
      "ich": 4043,
      "oy": 4044,
      "veget": 4045,
      "iff": 4046,
      "dign": 4047,
      "join": 4048,
      "pieces": 4049,
      "2s": 4050,
      "pill": 4051,
      "threw": 4052,
      "dick": 4053,
      "likely": 4054,
      "remains": 4055,
      "exhibited": 4056,
      "numerous": 4057,
      "entrance": 4058,
      "hes": 4059,
      "sd": 4060,
      "scre": 4061,
      "articles": 4062,
      "determined": 4063,
      "x10": 4064,
      "labe": 4065,
      "styles": 4066,
      "conscience": 4067,
      "phenomen": 4068,
      "hague": 4069,
      "chim": 4070,
      "health": 4071,
      "resto": 4072,
      "boys": 4073,
      "journey": 4074,
      "memo": 4075,
      "kir": 4076,
      "ision": 4077,
      "honest": 4078,
      "claire": 4079,
      "martin": 4080,
      "narrative": 4081,
      "bosom": 4082,
      "blind": 4083,
      "tribut": 4084,
      "agnes": 4085,
      "food": 4086,
      "appendix": 4087,
      "dome": 4088,
      "rat": 4089,
      "knowing": 4090,
      "progress": 4091,
      "hed": 4092,
      "iss": 4093,
      "evid": 4094,
      "contro": 4095,
      "maiden": 4096,
      "including": 4097,
      "ds": 4098,
      "echo": 4099,
      "required": 4100,
      "avo": 4101,
      "attack": 4102,
      "153": 4103,
      "guest": 4104,
      "shady": 4105,
      "troop": 4106,
      "tou": 4107,
      "animal": 4108,
      "companion": 4109,
      "usually": 4110,
      "presently": 4111,
      "dreadful": 4112,
      "bart": 4113,
      "bum": 4114,
      "inner": 4115,
      "hol": 4116,
      "freed": 4117,
      "oxide": 4118,
      "assembly": 4119,
      "eper": 4120,
      "pent": 4121,
      "thri": 4122,
      "worn": 4123,
      "discovery": 4124,
      "ruin": 4125,
      "perfectly": 4126,
      "offered": 4127,
      "religious": 4128,
      "ik": 4129,
      "sain": 4130,
      "holl": 4131,
      "series": 4132,
      "ivated": 4133,
      "trouble": 4134,
      "inj": 4135,
      "alle": 4136,
      "wears": 4137,
      "1659": 4138,
      "citizens": 4139,
      "nu": 4140,
      "128": 4141,
      "logy": 4142,
      "burning": 4143,
      "grou": 4144,
      "135": 4145,
      "applic": 4146,
      "copperfield": 4147,
      "ebook": 4148,
      "waves": 4149,
      "device": 4150,
      "utions": 4151,
      "agement": 4152,
      "126": 4153,
      "steel": 4154,
      "spoken": 4155,
      "building": 4156,
      "viewbox": 4157,
      "built": 4158,
      "opening": 4159,
      "familiar": 4160,
      "margaret": 4161,
      "leaf": 4162,
      "feast": 4163,
      "composition": 4164,
      "hopes": 4165,
      "plague": 4166,
      "src": 4167,
      "alas": 4168,
      "comment": 4169,
      "distur": 4170,
      "rude": 4171,
      "belief": 4172,
      "cof": 4173,
      "eness": 4174,
      "devil": 4175,
      "grate": 4176,
      "diction": 4177,
      "evidence": 4178,
      "caused": 4179,
      "von": 4180,
      "etc": 4181,
      "welcome": 4182,
      "lincoln": 4183,
      "bb": 4184,
      "eth": 4185,
      "195": 4186,
      "ng": 4187,
      "udes": 4188,
      "1679": 4189,
      "giles": 4190,
      "vast": 4191,
      "affected": 4192,
      "constitution": 4193,
      "tay": 4194,
      "desper": 4195,
      "aken": 4196,
      "pipeline": 4197,
      "manners": 4198,
      "proportion": 4199,
      "consideration": 4200,
      "supply": 4201,
      "els": 4202,
      "addles": 4203,
      "college": 4204,
      "extent": 4205,
      "cid": 4206,
      "mber": 4207,
      "printer": 4208,
      "blu": 4209,
      "majesties": 4210,
      "^'": 4211,
      "escape": 4212,
      "iced": 4213,
      "explo": 4214,
      "worse": 4215,
      "mud": 4216,
      "simp": 4217,
      "pocket": 4218,
      "siby": 4219,
      "treas": 4220,
      "caught": 4221,
      "custo": 4222,
      "exactly": 4223,
      "recogn": 4224,
      "].": 4225,
      "ato": 4226,
      "doth": 4227,
      "tear": 4228,
      "native": 4229,
      "capable": 4230,
      "additional": 4231,
      "423": 4232,
      "ien": 4233,
      "geo": 4234,
      "tall": 4235,
      "init": 4236,
      "penes": 4237,
      "magistr": 4238,
      "necessity": 4239,
      "committee": 4240,
      "rank": 4241,
      "emper": 4242,
      "ements": 4243,
      "clan": 4244,
      "pled": 4245,
      "powerful": 4246,
      "portrait": 4247,
      "antiquities": 4248,
      "iour": 4249,
      "hau": 4250,
      "herit": 4251,
      "month": 4252,
      "cester": 4253,
      "views": 4254,
      "soldiers": 4255,
      "darkness": 4256,
      "showed": 4257,
      "nesse": 4258,
      "immediate": 4259,
      "dora": 4260,
      "taste": 4261,
      "gil": 4262,
      "swell": 4263,
      "vs": 4264,
      "unte": 4265,
      "scorn": 4266,
      "meeting": 4267,
      "ky": 4268,
      "mot": 4269,
      "thence": 4270,
      "accus": 4271,
      "^^^^": 4272,
      "square": 4273,
      "ggl": 4274,
      "iently": 4275,
      "pour": 4276,
      "traddles": 4277,
      "pton": 4278,
      "takes": 4279,
      "forming": 4280,
      "1645": 4281,
      "morrow": 4282,
      "lament": 4283,
      "resem": 4284,
      "ders": 4285,
      "saf": 4286,
      "phil": 4287,
      "presby": 4288,
      "260": 4289,
      "vindication": 4290,
      "accur": 4291,
      "mony": 4292,
      "curi": 4293,
      "arrived": 4294,
      "dit": 4295,
      "entit": 4296,
      "union": 4297,
      "consu": 4298,
      "shepher": 4299,
      "foreground": 4300,
      "thanks": 4301,
      "miser": 4302,
      "sibyll": 4303,
      "dressed": 4304,
      "rare": 4305,
      "instr": 4306,
      "asp": 4307,
      "hem": 4308,
      "strain": 4309,
      "individual": 4310,
      "aps": 4311,
      "emark": 4312,
      "register": 4313,
      "finding": 4314,
      "infe": 4315,
      "inline": 4316,
      "fix": 4317,
      "123": 4318,
      "engaged": 4319,
      "trademark": 4320,
      "iest": 4321,
      "vest": 4322,
      "countries": 4323,
      "personal": 4324,
      "iohn": 4325,
      "titleid": 4326,
      "pictures": 4327,
      "18918": 4328,
      "military": 4329,
      "ots": 4330,
      "tend": 4331,
      "liest": 4332,
      "ceased": 4333,
      "conven": 4334,
      "umber": 4335,
      "rush": 4336,
      "translated": 4337,
      "3cm": 4338,
      "pse": 4339,
      "depend": 4340,
      "tyr": 4341,
      "german": 4342,
      "allowed": 4343,
      "irt": 4344,
      "sus": 4345,
      "woods": 4346,
      "acquaint": 4347,
      "rer": 4348,
      "178": 4349,
      "removed": 4350,
      "surprise": 4351,
      "nations": 4352,
      "pair": 4353,
      "aside": 4354,
      "aments": 4355,
      "lovely": 4356,
      "remarkable": 4357,
      "fy": 4358,
      "ht": 4359,
      "horn": 4360,
      "125": 4361,
      "warri": 4362,
      "collected": 4363,
      "consequence": 4364,
      "allen": 4365,
      "jew": 4366,
      "obje": 4367,
      "contem": 4368,
      "skill": 4369,
      "preacher": 4370,
      "altogether": 4371,
      "ghost": 4372,
      "fifty": 4373,
      "agreeable": 4374,
      "thames": 4375,
      "forty": 4376,
      "gry": 4377,
      "lighted": 4378,
      "hastings": 4379,
      "possessed": 4380,
      "dish": 4381,
      "named": 4382,
      "intim": 4383,
      "frame": 4384,
      "faithful": 4385,
      "gallant": 4386,
      "directly": 4387,
      "request": 4388,
      "regarded": 4389,
      "fortunate": 4390,
      "substance": 4391,
      "explan": 4392,
      "tea": 4393,
      "laughed": 4394,
      "straight": 4395,
      "becomes": 4396,
      "ordered": 4397,
      "editions": 4398,
      "anth": 4399,
      "chol": 4400,
      "established": 4401,
      "celebr": 4402,
      "stars": 4403,
      "roof": 4404,
      "surround": 4405,
      "experience": 4406,
      "rebel": 4407,
      "wilt": 4408,
      "ulous": 4409,
      "iah": 4410,
      "309": 4411,
      "copies": 4412,
      "hydro": 4413,
      "birds": 4414,
      "december": 4415,
      "nathan": 4416,
      "pounds": 4417,
      "oned": 4418,
      "oration": 4419,
      "improve": 4420,
      "unknown": 4421,
      "services": 4422,
      "8p": 4423,
      "ail": 4424,
      "mn": 4425,
      "nel": 4426,
      "167": 4427,
      "southwark": 4428,
      "cambridge": 4429,
      "equally": 4430,
      "beg": 4431,
      "umes": 4432,
      "entirely": 4433,
      "graphy": 4434,
      "granite": 4435,
      "029": 4436,
      "hil": 4437,
      "invent": 4438,
      "volunte": 4439,
      "tue": 4440,
      "instru": 4441,
      "decor": 4442,
      "outside": 4443,
      "phili": 4444,
      "genius": 4445,
      "jam": 4446,
      "current": 4447,
      "harold": 4448,
      "anonym": 4449,
      "arily": 4450,
      "deb": 4451,
      "clothes": 4452,
      "judgment": 4453,
      "atory": 4454,
      "adop": 4455,
      "sore": 4456,
      "ante": 4457,
      "marry": 4458,
      "misery": 4459,
      "suffered": 4460,
      "goes": 4461,
      "doom": 4462,
      "willing": 4463,
      "limited": 4464,
      "labelled": 4465,
      "grown": 4466,
      "ote": 4467,
      "glen": 4468,
      "correspond": 4469,
      "nigh": 4470,
      "065": 4471,
      "pages": 4472,
      "twas": 4473,
      "famous": 4474,
      "intellectual": 4475,
      "rochester": 4476,
      "exten": 4477,
      "147": 4478,
      "collect": 4479,
      "chris": 4480,
      "national": 4481,
      "result": 4482,
      "086": 4483,
      "uring": 4484,
      "running": 4485,
      "heathcliff": 4486,
      "890px": 4487,
      "wrote": 4488,
      "labelledby": 4489,
      "lli": 4490,
      "adap": 4491,
      "contact": 4492,
      "pier": 4493,
      "transform": 4494,
      "village": 4495,
      "term": 4496,
      "centre": 4497,
      "perior": 4498,
      "ceiving": 4499,
      "meaning": 4500,
      "tracted": 4501,
      "115": 4502,
      "evident": 4503,
      "yeare": 4504,
      "interrup": 4505,
      "thomason": 4506,
      "horses": 4507,
      "iner": 4508,
      "ui": 4509,
      "mod": 4510,
      "owed": 4511,
      "counsel": 4512,
      "warrant": 4513,
      "sounds": 4514,
      "reverend": 4515,
      "hospital": 4516,
      "impression": 4517,
      "commer": 4518,
      "metal": 4519,
      "expand": 4520,
      "accompl": 4521,
      "inhabitants": 4522,
      "guild": 4523,
      "dust": 4524,
      "brain": 4525,
      "express": 4526,
      "covenant": 4527,
      "bree": 4528,
      "liqu": 4529,
      "llen": 4530,
      "amb": 4531,
      "defect": 4532,
      "mel": 4533,
      "prepar": 4534,
      "steer": 4535,
      "dram": 4536,
      "write": 4537,
      "soldier": 4538,
      "animals": 4539,
      "essex": 4540,
      "irish": 4541,
      "ounced": 4542,
      "serve": 4543,
      "146": 4544,
      "smiled": 4545,
      "guide": 4546,
      "curtain": 4547,
      "doctrine": 4548,
      "bted": 4549,
      "nin": 4550,
      "recent": 4551,
      "posing": 4552,
      "consent": 4553,
      "painted": 4554,
      "universal": 4555,
      "',": 4556,
      "426": 4557,
      "wave": 4558,
      "coal": 4559,
      "cool": 4560,
      "events": 4561,
      "drin": 4562,
      "trial": 4563,
      "itle": 4564,
      "adem": 4565,
      "manif": 4566,
      "avail": 4567,
      "cous": 4568,
      "educ": 4569,
      "delic": 4570,
      "proposed": 4571,
      "goth": 4572,
      "passages": 4573,
      "earthqu": 4574,
      "increased": 4575,
      "settled": 4576,
      "coffee": 4577,
      "dew": 4578,
      "persu": 4579,
      "accept": 4580,
      "cheek": 4581,
      "smoke": 4582,
      "frequent": 4583,
      "bade": 4584,
      "praise": 4585,
      "situation": 4586,
      "extraordinary": 4587,
      "agen": 4588,
      "waters": 4589,
      "instit": 4590,
      "possibly": 4591,
      "employ": 4592,
      "ecclesiast": 4593,
      "ssed": 4594,
      "behold": 4595,
      "forts": 4596,
      "understood": 4597,
      "candle": 4598,
      "saints": 4599,
      "lap": 4600,
      "abroad": 4601,
      "fruit": 4602,
      "clay": 4603,
      "187": 4604,
      "spilett": 4605,
      "3c": 4606,
      "7em": 4607,
      "fail": 4608,
      "155": 4609,
      "265": 4610,
      "cru": 4611,
      "double": 4612,
      "clergy": 4613,
      "distinguished": 4614,
      "aster": 4615,
      "scen": 4616,
      "playing": 4617,
      "proceeded": 4618,
      "fountain": 4619,
      "wouldn": 4620,
      "partly": 4621,
      "laughing": 4622,
      "dangerous": 4623,
      "sulphur": 4624,
      "140": 4625,
      "sailor": 4626,
      "swift": 4627,
      "vereign": 4628,
      "988": 4629,
      "thither": 4630,
      "ican": 4631,
      "jews": 4632,
      "counter": 4633,
      "anthony": 4634,
      "amoun": 4635,
      "055": 4636,
      "calling": 4637,
      "026": 4638,
      "mental": 4639,
      "pire": 4640,
      "399": 4641,
      "popes": 4642,
      "columns": 4643,
      "victory": 4644,
      "physic": 4645,
      "selected": 4646,
      "6p": 4647,
      "yr": 4648,
      "hers": 4649,
      "271": 4650,
      "surface": 4651,
      "ville": 4652,
      "evidently": 4653,
      "dance": 4654,
      "shown": 4655,
      "blank": 4656,
      "keeping": 4657,
      "sorry": 4658,
      "shot": 4659,
      "opportunity": 4660,
      "oath": 4661,
      "158": 4662,
      "122": 4663,
      "lesex": 4664,
      "higher": 4665,
      "bio": 4666,
      "6779661v": 4667,
      "6779661c0": 4668,
      "reference": 4669,
      "presbyter": 4670,
      "itleid": 4671,
      "moses": 4672,
      "harp": 4673,
      "difference": 4674,
      "credit": 4675,
      "hare": 4676,
      "108": 4677,
      "1650": 4678,
      "1653": 4679,
      "auth": 4680,
      "bestow": 4681,
      "confidence": 4682,
      "ligence": 4683,
      "phenomena": 4684,
      "flight": 4685,
      "gif": 4686,
      "mild": 4687,
      "rust": 4688,
      "loc": 4689,
      "conquer": 4690,
      "gram": 4691,
      "destru": 4692,
      "patient": 4693,
      "tomb": 4694,
      "gradually": 4695,
      "alive": 4696,
      "terror": 4697,
      "sovereign": 4698,
      "gret": 4699,
      "greatly": 4700,
      "laughter": 4701,
      "tradition": 4702,
      "virtue": 4703,
      "crowd": 4704,
      "765": 4705,
      "servants": 4706,
      "spiritual": 4707,
      "ancing": 4708,
      "bloody": 4709,
      "freedom": 4710,
      "um_": 4711,
      "buried": 4712,
      "slain": 4713,
      "jen": 4714,
      "sie": 4715,
      "alex": 4716,
      "leep": 4717,
      "hebrew": 4718,
      "mood": 4719,
      "propri": 4720,
      "sar": 4721,
      "thorn": 4722,
      "superior": 4723,
      "aware": 4724,
      "severall": 4725,
      "instance": 4726,
      "tokens": 4727,
      "6cm": 4728,
      "gest": 4729,
      "vit": 4730,
      "wn": 4731,
      "wore": 4732,
      "putting": 4733,
      "finite": 4734,
      "middlesex": 4735,
      "_i": 4736,
      "hin": 4737,
      "orter": 4738,
      "arise": 4739,
      "level": 4740,
      "cott": 4741,
      "shade": 4742,
      "bennet": 4743,
      "wicked": 4744,
      "chiefly": 4745,
      "remarks": 4746,
      "pole": 4747,
      "trace": 4748,
      "quit": 4749,
      "aldermen": 4750,
      "fen": 4751,
      "beast": 4752,
      "discus": 4753,
      "january": 4754,
      "practice": 4755,
      "radius": 4756,
      "acquaintance": 4757,
      "lets": 4758,
      "weather": 4759,
      "bob": 4760,
      "linton": 4761,
      "big": 4762,
      "darcy": 4763,
      "image": 4764,
      "appreh": 4765,
      "acknow": 4766,
      "bearing": 4767,
      "relating": 4768,
      "advice": 4769,
      "dissol": 4770,
      "137": 4771,
      "calcul": 4772,
      "pinx": 4773,
      "driven": 4774,
      "mate": 4775,
      "ators": 4776,
      "cities": 4777,
      "wyn": 4778,
      "lee": 4779,
      "ride": 4780,
      "compass": 4781,
      "safety": 4782,
      "asleep": 4783,
      "stain": 4784,
      "soever": 4785,
      "175": 4786,
      "positions": 4787,
      "patience": 4788,
      "questions": 4789,
      "sides": 4790,
      "stated": 4791,
      "voy": 4792,
      "founded": 4793,
      "osity": 4794,
      "limbs": 4795,
      "connected": 4796,
      "425": 4797,
      "x15": 4798,
      "lip": 4799,
      "disput": 4800,
      "raise": 4801,
      "ideas": 4802,
      "rub": 4803,
      "metro": 4804,
      "manifest": 4805,
      "pil": 4806,
      "eminent": 4807,
      "cart": 4808,
      "neg": 4809,
      "relief": 4810,
      "hart": 4811,
      "lose": 4812,
      "spite": 4813,
      "delay": 4814,
      "quickly": 4815,
      "nie": 4816,
      "obey": 4817,
      "pam": 4818,
      "arose": 4819,
      "acle": 4820,
      "served": 4821,
      "flash": 4822,
      "aker": 4823,
      "dimin": 4824,
      "114": 4825,
      "_3": 4826,
      "wen": 4827,
      "inquiry": 4828,
      "160": 4829,
      "138": 4830,
      "mun": 4831,
      "oak": 4832,
      "xter": 4833,
      "invol": 4834,
      "ories": 4835,
      "loves": 4836,
      "soo": 4837,
      "permission": 4838,
      "perception": 4839,
      "guess": 4840,
      "wake": 4841,
      "provided": 4842,
      "francs": 4843,
      "phrase": 4844,
      "november": 4845,
      "hydrogen": 4846,
      "nth": 4847,
      "thai": 4848,
      "utmost": 4849,
      "waste": 4850,
      "robin": 4851,
      "theatre": 4852,
      "2rem": 4853,
      "cure": 4854,
      "rage": 4855,
      "xli": 4856,
      "enced": 4857,
      "attered": 4858,
      "icall": 4859,
      "oftware": 4860,
      "nichol": 4861,
      "listen": 4862,
      "7212": 4863,
      "importance": 4864,
      "sensation": 4865,
      "2197212": 4866,
      "eagle": 4867,
      "associated": 4868,
      "pause": 4869,
      "alty": 4870,
      "adata": 4871,
      "uled": 4872,
      "dies": 4873,
      "greg": 4874,
      "metadata": 4875,
      "useful": 4876,
      "dwelling": 4877,
      "gers": 4878,
      "jon": 4879,
      "lers": 4880,
      "uch": 4881,
      "escap": 4882,
      "ump": 4883,
      "plants": 4884,
      "transp": 4885,
      "committed": 4886,
      "louis": 4887,
      "shepherd": 4888,
      "principle": 4889,
      "forces": 4890,
      "ural": 4891,
      "weary": 4892,
      "shaw": 4893,
      "faces": 4894,
      "study": 4895,
      "uce": 4896,
      "’,": 4897,
      "murmur": 4898,
      "declared": 4899,
      "attached": 4900,
      "infant": 4901,
      "thed": 4902,
      "mode": 4903,
      "jealous": 4904,
      "whereupon": 4905,
      "dull": 4906,
      "plot": 4907,
      "chem": 4908,
      "nings": 4909,
      "sche": 4910,
      "ears": 4911,
      "cab": 4912,
      "haw": 4913,
      "agin": 4914,
      "agger": 4915,
      "sphere": 4916,
      "increase": 4917,
      "ancy": 4918,
      "ofe": 4919,
      "excl": 4920,
      "aud": 4921,
      "creature": 4922,
      "schol": 4923,
      "rash": 4924,
      "ington": 4925,
      "nobody": 4926,
      "neer": 4927,
      "notion": 4928,
      "tail": 4929,
      "custom": 4930,
      "expressed": 4931,
      "banks": 4932,
      "occupied": 4933,
      "isle": 4934,
      "edinburgh": 4935,
      "collections": 4936,
      "source": 4937,
      "cio": 4938,
      "effects": 4939,
      "explained": 4940,
      "534": 4941,
      "cook": 4942,
      "derived": 4943,
      "yonder": 4944,
      "philosophy": 4945,
      "jesus": 4946,
      "tli": 4947,
      "alry": 4948,
      "icious": 4949,
      "accoun": 4950,
      "domest": 4951,
      "ships": 4952,
      "violent": 4953,
      "febru": 4954,
      "wich": 4955,
      "moor": 4956,
      "strict": 4957,
      "circumstance": 4958,
      "vertical": 4959,
      "twice": 4960,
      "desperate": 4961,
      "stout": 4962,
      "academ": 4963,
      "bol": 4964,
      "130": 4965,
      "contri": 4966,
      "trim": 4967,
      "clip": 4968,
      "surely": 4969,
      "bli": 4970,
      "tl": 4971,
      "x9": 4972,
      "threat": 4973,
      "orum": 4974,
      "laure": 4975,
      "889": 4976,
      "treason": 4977,
      "valu": 4978,
      "isaac": 4979,
      "eo": 4980,
      "nought": 4981,
      "ayr": 4982,
      "spent": 4983,
      "visions": 4984,
      "forgotten": 4985,
      "ara": 4986,
      "150": 4987,
      "handsome": 4988,
      "walking": 4989,
      "petab": 4990,
      "finished": 4991,
      "mingled": 4992,
      "records": 4993,
      "cc": 4994,
      "wan": 4995,
      "embr": 4996,
      "grav": 4997,
      "addressed": 4998,
      "divided": 4999,
      "secure": 5000,
      "clearly": 5001,
      "steerforth": 5002,
      "petabox": 5003,
      "aim": 5004,
      "glorious": 5005,
      "couldn": 5006,
      "divines": 5007,
      "tempest": 5008,
      "prisoner": 5009,
      "phosp": 5010,
      "nice": 5011,
      "uri": 5012,
      "recon": 5013,
      "alarm": 5014,
      "ller": 5015,
      "persec": 5016,
      "penny": 5017,
      "corpor": 5018,
      "supper": 5019,
      "severe": 5020,
      "wisdom": 5021,
      "kiss": 5022,
      "bumble": 5023,
      "949": 5024,
      "ras": 5025,
      "vy": 5026,
      "omin": 5027,
      "liked": 5028,
      "abra": 5029,
      "provide": 5030,
      "nearer": 5031,
      "getting": 5032,
      "sper": 5033,
      "ug": 5034,
      "bee": 5035,
      "understanding": 5036,
      "28c": 5037,
      "dedic": 5038,
      "steep": 5039,
      "matur": 5040,
      "1651": 5041,
      "ohg": 5042,
      "salt": 5043,
      "ordinance": 5044,
      "american": 5045,
      "taylor": 5046,
      "february": 5047,
      "vap": 5048,
      "chas": 5049,
      "station": 5050,
      "pope": 5051,
      "latin": 5052,
      "daily": 5053,
      "enemies": 5054,
      "jacob": 5055,
      "445": 5056,
      "attribut": 5057,
      "forman": 5058,
      "choice": 5059,
      "numbers": 5060,
      "precipit": 5061,
      ">*.": 5062,
      "ros": 5063,
      "ourselves": 5064,
      "activated": 5065,
      "6744": 5066,
      "satisfied": 5067,
      "27058828c": 5068,
      "6779661h1": 5069,
      "xi": 5070,
      "remem": 5071,
      "edm": 5072,
      "pear": 5073,
      "este": 5074,
      "marsh": 5075,
      "obsc": 5076,
      "285": 5077,
      "widow": 5078,
      "legal": 5079,
      "rupt": 5080,
      "excited": 5081,
      "multit": 5082,
      "270": 5083,
      "contents": 5084,
      "valley": 5085,
      "array": 5086,
      "agreed": 5087,
      "noise": 5088,
      "fever": 5089,
      "accompan": 5090,
      "istle": 5091,
      "176": 5092,
      "869": 5093,
      "--------": 5094,
      "talking": 5095,
      "entertain": 5096,
      "daniel": 5097,
      "farewell": 5098,
      "bud": 5099,
      "ires": 5100,
      "ials": 5101,
      "tb": 5102,
      "tab": 5103,
      "inherit": 5104,
      "roderick": 5105,
      "ime": 5106,
      "hollow": 5107,
      "crime": 5108,
      "domin": 5109,
      "major": 5110,
      "leading": 5111,
      "fab": 5112,
      "jer": 5113,
      "yt": 5114,
      "error": 5115,
      "appoint": 5116,
      "propos": 5117,
      "gracious": 5118,
      "scroo": 5119,
      "ache": 5120,
      "terrible": 5121,
      "hunt": 5122,
      "sme": 5123,
      "tv": 5124,
      "admit": 5125,
      "tram": 5126,
      "replace": 5127,
      "drun": 5128,
      "chael": 5129,
      "material": 5130,
      "saxon": 5131,
      "aming": 5132,
      "cow": 5133,
      "viz": 5134,
      "opinions": 5135,
      "stones": 5136,
      "arguments": 5137,
      "itive": 5138,
      "itated": 5139,
      "sted": 5140,
      "484": 5141,
      "minds": 5142,
      "directed": 5143,
      "elder": 5144,
      "sympath": 5145,
      "prud": 5146,
      "107": 5147,
      "278": 5148,
      "rules": 5149,
      "400": 5150,
      "elo": 5151,
      "mand": 5152,
      "rights": 5153,
      "struggl": 5154,
      "contains": 5155,
      "innocent": 5156,
      "task": 5157,
      "performed": 5158,
      "1661": 5159,
      "indign": 5160,
      "distress": 5161,
      "verses": 5162,
      "attended": 5163,
      "wales": 5164,
      "midnight": 5165,
      "scripture": 5166,
      "advance": 5167,
      "breakfast": 5168,
      "hangs": 5169,
      "comfortable": 5170,
      "surprised": 5171,
      "minstrel": 5172,
      "_the": 5173,
      "tot": 5174,
      "wash": 5175,
      "doors": 5176,
      "special": 5177,
      "acted": 5178,
      "rents": 5179,
      "contempt": 5180,
      "steed": 5181,
      "refund": 5182,
      "paused": 5183,
      "abode": 5184,
      "naturally": 5185,
      "duties": 5186,
      "dreams": 5187,
      "waiting": 5188,
      "featured": 5189,
      "jacket": 5190,
      "troops": 5191,
      "colours": 5192,
      "_comb": 5193,
      "dod": 5194,
      "gli": 5195,
      "taught": 5196,
      "rict": 5197,
      "soil": 5198,
      "female": 5199,
      "fox": 5200,
      "174": 5201,
      "reduced": 5202,
      "archbishop": 5203,
      "wrought": 5204,
      "loose": 5205,
      "fatal": 5206,
      "779": 5207,
      "bought": 5208,
      "thb": 5209,
      "chain": 5210,
      "shr": 5211,
      "compe": 5212,
      "1820": 5213,
      "shewing": 5214,
      "applied": 5215,
      "commonly": 5216,
      "pastor": 5217,
      "quality": 5218,
      "sulphuret": 5219,
      "seld": 5220,
      "effort": 5221,
      "grounds": 5222,
      "lucy": 5223,
      "windows": 5224,
      "variety": 5225,
      "assured": 5226,
      "abraham": 5227,
      "fran": 5228,
      "639": 5229,
      "reve": 5230,
      "melan": 5231,
      "sacri": 5232,
      "disci": 5233,
      "desir": 5234,
      "whereof": 5235,
      "powder": 5236,
      "peasant": 5237,
      "dart": 5238,
      "stage": 5239,
      "lions": 5240,
      "deer": 5241,
      "verted": 5242,
      "desired": 5243,
      "141": 5244,
      "igned": 5245,
      "singular": 5246,
      "contained": 5247,
      "savage": 5248,
      "hut": 5249,
      "convin": 5250,
      "shine": 5251,
      "solic": 5252,
      "quoth": 5253,
      "sire": 5254,
      "strand": 5255,
      "wery": 5256,
      "1656": 5257,
      "prayers": 5258,
      "fought": 5259,
      "ua": 5260,
      "lla": 5261,
      "upp": 5262,
      "154": 5263,
      "smiling": 5264,
      "tues": 5265,
      "benefit": 5266,
      "sisters": 5267,
      "geon": 5268,
      "hover": 5269,
      "shoulder": 5270,
      "gues": 5271,
      "romance": 5272,
      "361": 5273,
      "ellen": 5274,
      "flesh": 5275,
      "_10": 5276,
      "279": 5277,
      "sence": 5278,
      "seized": 5279,
      "angers": 5280,
      "highly": 5281,
      "igne": 5282,
      "philosopher": 5283,
      "version": 5284,
      "memoirs": 5285,
      "fid": 5286,
      "jd": 5287,
      "er_": 5288,
      "quo": 5289,
      "bers": 5290,
      "dict": 5291,
      "fulness": 5292,
      "empty": 5293,
      "wonderful": 5294,
      "athed": 5295,
      "explanation": 5296,
      "gla": 5297,
      "iy": 5298,
      "rag": 5299,
      "cepted": 5300,
      "weeks": 5301,
      "ainted": 5302,
      "us_": 5303,
      "184": 5304,
      "viv": 5305,
      "bull": 5306,
      "promised": 5307,
      "succeeded": 5308,
      "lof": 5309,
      "betray": 5310,
      "roar": 5311,
      "immortal": 5312,
      "condem": 5313,
      "spain": 5314,
      "anyone": 5315,
      "parties": 5316,
      "northern": 5317,
      "harm": 5318,
      "1657": 5319,
      "meanwhile": 5320,
      "interesting": 5321,
      "destroyed": 5322,
      "ket": 5323,
      "encour": 5324,
      "asy": 5325,
      "1825": 5326,
      "wholly": 5327,
      "196": 5328,
      "blessed": 5329,
      "apparently": 5330,
      "gul": 5331,
      "thefe": 5332,
      "tomed": 5333,
      "chest": 5334,
      "aye": 5335,
      "ows": 5336,
      "mans": 5337,
      "artist": 5338,
      "208": 5339,
      "bile": 5340,
      "introduction": 5341,
      "domestic": 5342,
      "bask": 5343,
      "pack": 5344,
      "ingen": 5345,
      "princes": 5346,
      "12mo": 5347,
      "topher": 5348,
      "246": 5349,
      "highland": 5350,
      "luck": 5351,
      "2353": 5352,
      "/>": 5353,
      "6rem": 5354,
      "base": 5355,
      "thew": 5356,
      "seal": 5357,
      "168": 5358,
      "evenodd": 5359,
      "carefully": 5360,
      "instantly": 5361,
      "italy": 5362,
      "characters": 5363,
      "webkit": 5364,
      "officer": 5365,
      "xl4": 5366,
      "2705883c": 5367,
      "previous": 5368,
      "group": 5369,
      "education": 5370,
      "accompanied": 5371,
      "western": 5372,
      "abri": 5373,
      "estim": 5374,
      "phan": 5375,
      "plays": 5376,
      "midst": 5377,
      "learning": 5378,
      "decided": 5379,
      "sensations": 5380,
      "kitchen": 5381,
      "expense": 5382,
      "112": 5383,
      "anced": 5384,
      "chin": 5385,
      "lazy": 5386,
      "therein": 5387,
      "subs": 5388,
      "pious": 5389,
      "cloak": 5390,
      "settle": 5391,
      "gently": 5392,
      "vised": 5393,
      "wretched": 5394,
      "grateful": 5395,
      "scrooge": 5396,
      "ater": 5397,
      "ornaments": 5398,
      "throughout": 5399,
      "cathe": 5400,
      "survey": 5401,
      "adventure": 5402,
      "cousin": 5403,
      "spare": 5404,
      "awa": 5405,
      "knights": 5406,
      "bun": 5407,
      "dir": 5408,
      "shi": 5409,
      "tracts": 5410,
      "resolution": 5411,
      "songs": 5412,
      "physical": 5413,
      "dignity": 5414,
      "pas": 5415,
      "renew": 5416,
      "sikes": 5417,
      "acquired": 5418,
      "gra": 5419,
      "243": 5420,
      "silk": 5421,
      "towns": 5422,
      "flood": 5423,
      "scription": 5424,
      "examined": 5425,
      "christopher": 5426,
      "bond": 5427,
      "wings": 5428,
      "x8": 5429,
      "arc": 5430,
      "shri": 5431,
      "modest": 5432,
      "exe": 5433,
      "1889": 5434,
      "repent": 5435,
      "talked": 5436,
      "fitz": 5437,
      "admiration": 5438,
      "rical": 5439,
      "daunt": 5440,
      "beit": 5441,
      "ards": 5442,
      "audi": 5443,
      "663": 5444,
      "michael": 5445,
      "falling": 5446,
      "libert": 5447,
      "confir": 5448,
      "disposed": 5449,
      "highest": 5450,
      "sket": 5451,
      "continue": 5452,
      "_2": 5453,
      "aband": 5454,
      "are_": 5455,
      "173": 5456,
      "victor": 5457,
      "comput": 5458,
      "betwi": 5459,
      "351": 5460,
      "regul": 5461,
      "mile": 5462,
      "remembered": 5463,
      "belonging": 5464,
      "uie": 5465,
      "thren": 5466,
      "excit": 5467,
      "likewise": 5468,
      "setting": 5469,
      "helvet": 5470,
      "melancho": 5471,
      "omon": 5472,
      "impri": 5473,
      "convi": 5474,
      "aneous": 5475,
      "fairy": 5476,
      "philip": 5477,
      "lum": 5478,
      "deli": 5479,
      "charged": 5480,
      "1658": 5481,
      "sundry": 5482,
      "hypo": 5483,
      "buildings": 5484,
      "university": 5485,
      "bind": 5486,
      "cies": 5487,
      "cease": 5488,
      "immen": 5489,
      "berlin": 5490,
      "cious": 5491,
      "returning": 5492,
      "accustomed": 5493,
      "lamp": 5494,
      "angl": 5495,
      "remonstr": 5496,
      "toil": 5497,
      "tool": 5498,
      "logo": 5499,
      "perpet": 5500,
      "store": 5501,
      "check": 5502,
      "spectator": 5503,
      "literature": 5504,
      "fest": 5505,
      "gates": 5506,
      "tup": 5507,
      "repro": 5508,
      "ascri": 5509,
      "perman": 5510,
      "yours": 5511,
      "gathered": 5512,
      "scenes": 5513,
      "isn": 5514,
      "pol": 5515,
      "120": 5516,
      "obed": 5517,
      "efforts": 5518,
      "sentence": 5519,
      "acquainted": 5520,
      "gust": 5521,
      "uke": 5522,
      "ential": 5523,
      "--\"": 5524,
      "lightning": 5525,
      "goods": 5526,
      "nibal": 5527,
      "continent": 5528,
      "],": 5529,
      "rejoined": 5530,
      "arthur": 5531,
      "toler": 5532,
      "asing": 5533,
      "begun": 5534,
      "unhappy": 5535,
      "pron": 5536,
      "1819": 5537,
      "merchant": 5538,
      "appeal": 5539,
      "brethren": 5540,
      "clean": 5541,
      "observe": 5542,
      "betwixt": 5543,
      "enlar": 5544,
      "ampton": 5545,
      "forgive": 5546,
      "deed": 5547,
      "loch": 5548,
      "keen": 5549,
      "excess": 5550,
      "estate": 5551,
      "aux": 5552,
      "134": 5553,
      "284": 5554,
      "frederick": 5555,
      "banner": 5556,
      "melancholy": 5557,
      "5s": 5558,
      "eh": 5559,
      "h2": 5560,
      "ji": 5561,
      "kn": 5562,
      "pound": 5563,
      "‘“": 5564,
      "rode": 5565,
      "mankind": 5566,
      "reporter": 5567,
      "1655": 5568,
      "started": 5569,
      "funeral": 5570,
      "preserved": 5571,
      "magnific": 5572,
      "minstrels": 5573,
      "eternal": 5574,
      "reward": 5575,
      "abbey": 5576,
      "blast": 5577,
      "203": 5578,
      "plainly": 5579,
      "chieftain": 5580,
      "busy": 5581,
      "bottle": 5582,
      "qualities": 5583,
      "affections": 5584,
      "speeches": 5585,
      "celebrated": 5586,
      "ture": 5587,
      "torn": 5588,
      "represented": 5589,
      "cht": 5590,
      "stick": 5591,
      "lice": 5592,
      "helen": 5593,
      "baby": 5594,
      "jug": 5595,
      "cathedr": 5596,
      "649": 5597,
      "gam": 5598,
      "sevent": 5599,
      "rice": 5600,
      "claren": 5601,
      "watched": 5602,
      "district": 5603,
      "election": 5604,
      "laying": 5605,
      "haste": 5606,
      "trembling": 5607,
      "touched": 5608,
      "holland": 5609,
      "ayrton": 5610,
      "\"]": 5611,
      "016": 5612,
      "ano": 5613,
      "resul": 5614,
      "admitted": 5615,
      "develo": 5616,
      "verso": 5617,
      "apes": 5618,
      "1811": 5619,
      "isted": 5620,
      "submit": 5621,
      "griev": 5622,
      "legs": 5623,
      "999": 5624,
      "-^": 5625,
      "assur": 5626,
      "cole": 5627,
      "meer": 5628,
      "partial": 5629,
      "akers": 5630,
      "mount": 5631,
      "murd": 5632,
      "folded": 5633,
      "113": 5634,
      "dat": 5635,
      "kent": 5636,
      "lust": 5637,
      "ners": 5638,
      "freely": 5639,
      "0309": 5640,
      "8rem": 5641,
      "athen": 5642,
      "fis": 5643,
      "mers": 5644,
      "oa": 5645,
      "esar": 5646,
      "escid": 5647,
      "chal": 5648,
      "vell": 5649,
      "quet": 5650,
      "reser": 5651,
      "6715": 5652,
      "miscell": 5653,
      "merch": 5654,
      "internal": 5655,
      "izing": 5656,
      "6779661zm": 5657,
      "granted": 5658,
      "119288": 5659,
      "independent": 5660,
      "9882353": 5661,
      "94915": 5662,
      "6744186": 5663,
      "helvetica": 5664,
      "tupman": 5665,
      "030905": 5666,
      "rhy": 5667,
      "whir": 5668,
      "ulars": 5669,
      "empire": 5670,
      "epis": 5671,
      "bark": 5672,
      "borough": 5673,
      "arrival": 5674,
      "assistance": 5675,
      "lonely": 5676,
      "ict": 5677,
      "shill": 5678,
      "sia": 5679,
      "owner": 5680,
      "129": 5681,
      "ferred": 5682,
      "wrap": 5683,
      "attent": 5684,
      "christians": 5685,
      "sweep": 5686,
      "hurt": 5687,
      "warrior": 5688,
      "escaped": 5689,
      "shalt": 5690,
      "trum": 5691,
      "1817": 5692,
      "berry": 5693,
      "parl": 5694,
      "trying": 5695,
      "1652": 5696,
      "madam": 5697,
      "fifteen": 5698,
      "errors": 5699,
      "whispered": 5700,
      "pamph": 5701,
      "edmund": 5702,
      "resh": 5703,
      "ensu": 5704,
      "abide": 5705,
      "indif": 5706,
      "spark": 5707,
      "preface": 5708,
      "hich": 5709,
      "457": 5710,
      "sunk": 5711,
      "knee": 5712,
      "families": 5713,
      "wounded": 5714,
      "alexander": 5715,
      "polic": 5716,
      "moving": 5717,
      "fears": 5718,
      "compreh": 5719,
      "spur": 5720,
      "preva": 5721,
      "304": 5722,
      "bib": 5723,
      "holder": 5724,
      "miserable": 5725,
      "clar": 5726,
      "183": 5727,
      "scand": 5728,
      "sooner": 5729,
      "sports": 5730,
      "decoration": 5731,
      "liquid": 5732,
      "amount": 5733,
      "825": 5734,
      "bin": 5735,
      "cave": 5736,
      "lift": 5737,
      "poison": 5738,
      "keeper": 5739,
      "perceived": 5740,
      "directions": 5741,
      "hurried": 5742,
      "invest": 5743,
      "violence": 5744,
      "bath": 5745,
      "hack": 5746,
      "ites": 5747,
      "beloved": 5748,
      "motions": 5749,
      "anglo": 5750,
      "255": 5751,
      "carriage": 5752,
      "extended": 5753,
      "knees": 5754,
      "ralph": 5755,
      "restored": 5756,
      "rav": 5757,
      "lius": 5758,
      "unable": 5759,
      "prosper": 5760,
      "parlia": 5761,
      "198": 5762,
      "256": 5763,
      "distin": 5764,
      "friendly": 5765,
      "favourite": 5766,
      "wandering": 5767,
      "initial": 5768,
      "224": 5769,
      "gained": 5770,
      "lud": 5771,
      "demonstr": 5772,
      "signs": 5773,
      "target": 5774,
      "argument": 5775,
      "stroke": 5776,
      "remembr": 5777,
      "fou": 5778,
      "l1": 5779,
      "mm": 5780,
      "inten": 5781,
      "heir": 5782,
      "uttered": 5783,
      "indust": 5784,
      "circle": 5785,
      "mounted": 5786,
      "observation": 5787,
      "messer": 5788,
      "tyrann": 5789,
      "adapter": 5790,
      "destruction": 5791,
      "ias": 5792,
      "rejo": 5793,
      "ares": 5794,
      "1666": 5795,
      "boast": 5796,
      "grains": 5797,
      "precise": 5798,
      "intention": 5799,
      "quarters": 5800,
      "seller": 5801,
      "philosoph": 5802,
      "correct": 5803,
      "chronic": 5804,
      "'.": 5805,
      "dal": 5806,
      "sic": 5807,
      "erup": 5808,
      "supre": 5809,
      "weigh": 5810,
      "fores": 5811,
      "1684": 5812,
      "fax": 5813,
      "liness": 5814,
      "matthew": 5815,
      "lifted": 5816,
      "editor": 5817,
      "hound": 5818,
      "jun": 5819,
      "lava": 5820,
      "theolog": 5821,
      "iting": 5822,
      "leon": 5823,
      "rivers": 5824,
      "brass": 5825,
      "193": 5826,
      "867": 5827,
      "kindness": 5828,
      "senses": 5829,
      "degrees": 5830,
      "bingley": 5831,
      "experiment": 5832,
      "entitled": 5833,
      "murdstone": 5834,
      "machin": 5835,
      "authors": 5836,
      "2x14": 5837,
      "iety": 5838,
      "rt": 5839,
      "wet": 5840,
      "mobile": 5841,
      "1662": 5842,
      "warning": 5843,
      "turns": 5844,
      "tired": 5845,
      "leader": 5846,
      "sixth": 5847,
      "occasioned": 5848,
      "resumed": 5849,
      "refuge": 5850,
      "elements": 5851,
      "cate": 5852,
      "oting": 5853,
      "regret": 5854,
      "absence": 5855,
      "india": 5856,
      "eline": 5857,
      "287": 5858,
      "particulars": 5859,
      "cornhill": 5860,
      "bella": 5861,
      "hannibal": 5862,
      "nicholas": 5863,
      "700": 5864,
      "lang": 5865,
      "slo": 5866,
      "tun": 5867,
      "reven": 5868,
      "quen": 5869,
      "sels": 5870,
      "canter": 5871,
      "relations": 5872,
      "medium": 5873,
      "intelligence": 5874,
      "occurred": 5875,
      "mb": 5876,
      "216": 5877,
      "995": 5878,
      "mechan": 5879,
      "179": 5880,
      "apped": 5881,
      "calls": 5882,
      "pens": 5883,
      "showing": 5884,
      "deeply": 5885,
      "occasions": 5886,
      "volcanic": 5887,
      "hay": 5888,
      "rf": 5889,
      "angry": 5890,
      "unfortunate": 5891,
      "docum": 5892,
      "hugh": 5893,
      "mixed": 5894,
      "duration": 5895,
      "graphical": 5896,
      "2v": 5897,
      "544": 5898,
      "630": 5899,
      "bap": 5900,
      "x18": 5901,
      "utation": 5902,
      "abund": 5903,
      "ifying": 5904,
      "fires": 5905,
      "obvi": 5906,
      "friendship": 5907,
      "gaze": 5908,
      "concern": 5909,
      "exercise": 5910,
      "943": 5911,
      "stal": 5912,
      "beam": 5913,
      "nose": 5914,
      "sip": 5915,
      "177": 5916,
      "294": 5917,
      "churchyard": 5918,
      "wrath": 5919,
      "buck": 5920,
      "wheel": 5921,
      "uniform": 5922,
      "examination": 5923,
      "executed": 5924,
      "rector": 5925,
      "secur": 5926,
      "etz": 5927,
      "abbot": 5928,
      "1678": 5929,
      "1827": 5930,
      "affect": 5931,
      "telling": 5932,
      "features": 5933,
      "kirk": 5934,
      "basket": 5935,
      "jev": 5936,
      "ȝe": 5937,
      "imony": 5938,
      "shone": 5939,
      "kingdome": 5940,
      "seless": 5941,
      "ellips": 5942,
      "muri": 5943,
      "bush": 5944,
      "cury": 5945,
      "singing": 5946,
      "zeal": 5947,
      "madeline": 5948,
      "listened": 5949,
      "groan": 5950,
      "succession": 5951,
      "nathaniel": 5952,
      "behav": 5953,
      "jest": 5954,
      "mam": 5955,
      "fel": 5956,
      "commen": 5957,
      "combat": 5958,
      "bench": 5959,
      "towers": 5960,
      "097": 5961,
      "maintain": 5962,
      "pursued": 5963,
      "================================": 5964,
      "devoted": 5965,
      "adapterpipeline": 5966,
      "948": 5967,
      "notwith": 5968,
      "whereas": 5969,
      "match": 5970,
      "confusion": 5971,
      "ecclesiastical": 5972,
      "guildhall": 5973,
      "fagin": 5974,
      "jac": 5975,
      "pence": 5976,
      "retain": 5977,
      "enthus": 5978,
      "ques": 5979,
      "indul": 5980,
      "working": 5981,
      "contribut": 5982,
      "periodical": 5983,
      "endeavour": 5984,
      "drinking": 5985,
      "seldom": 5986,
      "024": 5987,
      "emotion": 5988,
      "orous": 5989,
      "alo": 5990,
      "permitted": 5991,
      "fault": 5992,
      "spen": 5993,
      "desol": 5994,
      "121": 5995,
      "238": 5996,
      "rested": 5997,
      "imagine": 5998,
      "introduced": 5999,
      "couple": 6000,
      "cathedral": 6001,
      "dain": 6002,
      "gide": 6003,
      "l25": 6004,
      "iter": 6005,
      "idle": 6006,
      "fieldset": 6007,
      "generous": 6008,
      "purple": 6009,
      "template": 6010,
      "strife": 6011,
      "finger": 6012,
      "depth": 6013,
      "experiments": 6014,
      "clamation": 6015,
      "1192881": 6016,
      "fred": 6017,
      "thie": 6018,
      "dost": 6019,
      "worst": 6020,
      "friar": 6021,
      "created": 6022,
      "extrem": 6023,
      "pointing": 6024,
      "dogs": 6025,
      "completely": 6026,
      "fragment": 6027,
      "cottage": 6028,
      "transparent": 6029,
      "aus": 6030,
      "ij": 6031,
      "vous": 6032,
      "wright": 6033,
      "tham": 6034,
      "reck": 6035,
      "aper": 6036,
      "pryn": 6037,
      "anybody": 6038,
      "chosen": 6039,
      "tempor": 6040,
      "descended": 6041,
      "striking": 6042,
      "loading": 6043,
      "popish": 6044,
      "isabel": 6045,
      "demo": 6046,
      "pn": 6047,
      "tat": 6048,
      "xv": 6049,
      "xiv": 6050,
      "constru": 6051,
      "noticed": 6052,
      "ilities": 6053,
      "marmad": 6054,
      "crimin": 6055,
      "mercury": 6056,
      "brilli": 6057,
      "crossed": 6058,
      "kerchief": 6059,
      "growing": 6060,
      "corrected": 6061,
      "montagu": 6062,
      "revolution": 6063,
      "vengeance": 6064,
      "gathering": 6065,
      "ambition": 6066,
      "acles": 6067,
      "pir": 6068,
      "rear": 6069,
      "cei": 6070,
      "lovers": 6071,
      "tery": 6072,
      "retired": 6073,
      "guil": 6074,
      "yester": 6075,
      "quires": 6076,
      "souls": 6077,
      "armies": 6078,
      "production": 6079,
      "originally": 6080,
      "bringing": 6081,
      "thinks": 6082,
      "imagination": 6083,
      "naked": 6084,
      "iny": 6085,
      "chel": 6086,
      "heed": 6087,
      "agon": 6088,
      "1833": 6089,
      "hoped": 6090,
      "litur": 6091,
      "stephen": 6092,
      "357": 6093,
      "younger": 6094,
      "fairfax": 6095,
      "globe": 6096,
      "clerk": 6097,
      "alderman": 6098,
      "inferior": 6099,
      "gideon": 6100,
      "marmaduke": 6101,
      "bm": 6102,
      "bac": 6103,
      "cn": 6104,
      "omit": 6105,
      "bears": 6106,
      "amuse": 6107,
      "convent": 6108,
      "prey": 6109,
      "divinity": 6110,
      "follows": 6111,
      "happi": 6112,
      "falls": 6113,
      "measures": 6114,
      "mystery": 6115,
      "instrument": 6116,
      "imprimatur": 6117,
      "results": 6118,
      "policy": 6119,
      "gies": 6120,
      "kers": 6121,
      "theless": 6122,
      "tore": 6123,
      "beams": 6124,
      "ades": 6125,
      "rod": 6126,
      "ami": 6127,
      "lyn": 6128,
      "shake": 6129,
      "feed": 6130,
      "fejev": 6131,
      "ici": 6132,
      "1816": 6133,
      "everybody": 6134,
      "penn": 6135,
      "caesar": 6136,
      "horror": 6137,
      "fearful": 6138,
      "weeping": 6139,
      "blush": 6140,
      "fejevary": 6141,
      "included": 6142,
      "zard": 6143,
      "rec": 6144,
      "remed": 6145,
      "aspect": 6146,
      "chess": 6147,
      "coin": 6148,
      "hermit": 6149,
      "shield": 6150,
      "aped": 6151,
      "lack": 6152,
      "gel": 6153,
      "wot": 6154,
      "666": 6155,
      "penet": 6156,
      "treated": 6157,
      "ension": 6158,
      "bower": 6159,
      "fingers": 6160,
      "rh": 6161,
      "stin": 6162,
      "rig": 6163,
      "histo": 6164,
      "abled": 6165,
      "hearth": 6166,
      "slumber": 6167,
      "pretended": 6168,
      "population": 6169,
      "^,": 6170,
      "bone": 6171,
      "cun": 6172,
      "lance": 6173,
      "tie": 6174,
      "revenge": 6175,
      "plates": 6176,
      "volumes": 6177,
      "solomon": 6178,
      "gazed": 6179,
      "nah": 6180,
      "baxter": 6181,
      "protect": 6182,
      "arranged": 6183,
      "reformation": 6184,
      "aling": 6185,
      "hey": 6186,
      "exhau": 6187,
      "1818": 6188,
      "pressing": 6189,
      "669": 6190,
      "headed": 6191,
      "355": 6192,
      "bloom": 6193,
      "huge": 6194,
      "strike": 6195,
      "fluid": 6196,
      "consequently": 6197,
      "profession": 6198,
      "priests": 6199,
      "jamin": 6200,
      "313": 6201,
      "405": 6202,
      "ebooks": 6203,
      "wont": 6204,
      "rele": 6205,
      "beheld": 6206,
      "adle": 6207,
      "lich": 6208,
      "amaz": 6209,
      "fiery": 6210,
      "precious": 6211,
      "behaviour": 6212,
      "110": 6213,
      "loving": 6214,
      "eties": 6215,
      "job": 6216,
      "raising": 6217,
      "407": 6218,
      "suppl": 6219,
      "tempt": 6220,
      "departed": 6221,
      "jur": 6222,
      "237": 6223,
      "christmas": 6224,
      "bund": 6225,
      "site": 6226,
      "tort": 6227,
      "wants": 6228,
      "aty": 6229,
      "1667": 6230,
      "261": 6231,
      "compare": 6232,
      "intent": 6233,
      "played": 6234,
      "111": 6235,
      "608": 6236,
      "scribed": 6237,
      "feeble": 6238,
      "cotg": 6239,
      "application": 6240,
      "research": 6241,
      "cture": 6242,
      "trav": 6243,
      "1822": 6244,
      "vio": 6245,
      "parting": 6246,
      "239": 6247,
      "hark": 6248,
      "flew": 6249,
      "communication": 6250,
      "rapidly": 6251,
      "4c": 6252,
      "5x14": 6253,
      "mould": 6254,
      "oi": 6255,
      "maria": 6256,
      "rooms": 6257,
      "superst": 6258,
      "professor": 6259,
      "issued": 6260,
      "splendid": 6261,
      "dictionary": 6262,
      "delicate": 6263,
      "^-": 6264,
      "tid": 6265,
      "vine": 6266,
      "edited": 6267,
      "atmo": 6268,
      "weap": 6269,
      "mead": 6270,
      "angle": 6271,
      "487": 6272,
      "profound": 6273,
      "bridal": 6274,
      "lively": 6275,
      "decay": 6276,
      "operation": 6277,
      "acknowled": 6278,
      "dia": 6279,
      "dared": 6280,
      "ially": 6281,
      "vm": 6282,
      "ese": 6283,
      "alpine": 6284,
      "peters": 6285,
      "shaking": 6286,
      "sawyer": 6287,
      "italian": 6288,
      "drive": 6289,
      "hitherto": 6290,
      "solitary": 6291,
      "multitude": 6292,
      "immense": 6293,
      "awe": 6294,
      "cb": 6295,
      "renow": 6296,
      "staff": 6297,
      "ghast": 6298,
      "absur": 6299,
      "horiz": 6300,
      "realm": 6301,
      "neighbourhood": 6302,
      "365": 6303,
      "couch": 6304,
      "glim": 6305,
      "hou": 6306,
      "info": 6307,
      "champ": 6308,
      "1810": 6309,
      "293": 6310,
      "crest": 6311,
      "478": 6312,
      "masters": 6313,
      "humour": 6314,
      "constantly": 6315,
      "bours": 6316,
      "ibe": 6317,
      "kni": 6318,
      "lent": 6319,
      "1828": 6320,
      "afternoon": 6321,
      "leyden": 6322,
      "cleared": 6323,
      "893": 6324,
      "patron": 6325,
      "hastily": 6326,
      "poets": 6327,
      "quietly": 6328,
      "distribution": 6329,
      "notwithstanding": 6330,
      "benjamin": 6331,
      "dauntless": 6332,
      "isra": 6333,
      "charity": 6334,
      "thrust": 6335,
      "peny": 6336,
      "division": 6337,
      "happen": 6338,
      "mixt": 6339,
      "summon": 6340,
      "related": 6341,
      "ignorant": 6342,
      "avoid": 6343,
      "fon": 6344,
      "gift": 6345,
      "tour": 6346,
      "vals": 6347,
      "atures": 6348,
      "dean": 6349,
      "antient": 6350,
      "umn": 6351,
      "opacity": 6352,
      "1777": 6353,
      "barr": 6354,
      "barbar": 6355,
      "attach": 6356,
      "extremely": 6357,
      "leaning": 6358,
      "absurd": 6359,
      "_ge": 6360,
      "h1": 6361,
      "informed": 6362,
      "itate": 6363,
      "empted": 6364,
      "discour": 6365,
      "parted": 6366,
      "actually": 6367,
      "274": 6368,
      "generall": 6369,
      "royston": 6370,
      "larger": 6371,
      "wilder": 6372,
      "watching": 6373,
      "sufficiently": 6374,
      "collins": 6375,
      "america": 6376,
      "commissioners": 6377,
      "sympathy": 6378,
      "cel": 6379,
      "agony": 6380,
      "appre": 6381,
      "melo": 6382,
      "monk": 6383,
      "209": 6384,
      "restri": 6385,
      "lux": 6386,
      "radio": 6387,
      "victim": 6388,
      "conclusion": 6389,
      "enlarged": 6390,
      "223": 6391,
      "altered": 6392,
      "begg": 6393,
      "colled": 6394,
      "abstra": 6395,
      "modif": 6396,
      "hole": 6397,
      "greek": 6398,
      "bler": 6399,
      "lights": 6400,
      "compound": 6401,
      "portions": 6402,
      "thorough": 6403,
      "finally": 6404,
      "slept": 6405,
      "softly": 6406,
      "hurry": 6407,
      "combined": 6408,
      "delightful": 6409,
      "teeth": 6410,
      "furnished": 6411,
      "consciousness": 6412,
      "killed": 6413,
      "surrounded": 6414,
      "interrupted": 6415,
      "liberties": 6416,
      "remembrance": 6417,
      "ette": 6418,
      "085": 6419,
      "ration": 6420,
      "review": 6421,
      "sees": 6422,
      "beard": 6423,
      "weal": 6424,
      "blame": 6425,
      "parad": 6426,
      "866": 6427,
      "shoulders": 6428,
      "059": 6429,
      "489": 6430,
      "choose": 6431,
      "supplied": 6432,
      "commanded": 6433,
      "briefly": 6434,
      "excuse": 6435,
      "branches": 6436,
      "dawn": 6437,
      "vegetable": 6438,
      "adopted": 6439,
      "discipl": 6440,
      "7px": 6441,
      "sate": 6442,
      "sober": 6443,
      "poses": 6444,
      "fling": 6445,
      "6777": 6446,
      "338": 6447,
      "7748": 6448,
      "=\"//": 6449,
      "brothers": 6450,
      "hurst": 6451,
      "6779661zm0": 6452,
      "cret": 6453,
      "sfc": 6454,
      "tn": 6455,
      "uits": 6456,
      "wers": 6457,
      "nobles": 6458,
      "deeds": 6459,
      "terr": 6460,
      "astic": 6461,
      "actual": 6462,
      "remind": 6463,
      "compared": 6464,
      "oxon": 6465,
      "reasonable": 6466,
      "copying": 6467,
      "bruce": 6468,
      "protector": 6469,
      "article": 6470,
      "carrying": 6471,
      "approaching": 6472,
      "hag": 6473,
      "limit": 6474,
      "exposed": 6475,
      "102": 6476,
      "whenas": 6477,
      "555": 6478,
      "witch": 6479,
      "delighted": 6480,
      "troubled": 6481,
      "reproach": 6482,
      "revel": 6483,
      "ati": 6484,
      "omy": 6485,
      "adon": 6486,
      "moss": 6487,
      "veil": 6488,
      "veyed": 6489,
      "1685": 6490,
      "glou": 6491,
      "blin": 6492,
      "epistle": 6493,
      "genu": 6494,
      "charm": 6495,
      "charter": 6496,
      "desert": 6497,
      "shadows": 6498,
      "revi": 6499,
      "emer": 6500,
      "upstairs": 6501,
      "flour": 6502,
      "233": 6503,
      "crag": 6504,
      "honorable": 6505,
      "elevation": 6506,
      "respecting": 6507,
      "streams": 6508,
      "protected": 6509,
      "distributing": 6510,
      "deemed": 6511,
      "bust": 6512,
      "rs": 6513,
      "rud": 6514,
      "til": 6515,
      "vac": 6516,
      "dearest": 6517,
      "spear": 6518,
      "burden": 6519,
      "memor": 6520,
      "writers": 6521,
      "facts": 6522,
      "smooth": 6523,
      "exhibition": 6524,
      "sanct": 6525,
      "dashwood": 6526,
      "convinced": 6527,
      "_a": 6528,
      "pha": 6529,
      "cache": 6530,
      "lewis": 6531,
      "ulated": 6532,
      "folly": 6533,
      "sau": 6534,
      "197": 6535,
      "251": 6536,
      "smiles": 6537,
      "commend": 6538,
      "waited": 6539,
      "shows": 6540,
      "wishes": 6541,
      "aughty": 6542,
      "baptis": 6543,
      "cant": 6544,
      "rin": 6545,
      "theory": 6546,
      "ascertain": 6547,
      "stained": 6548,
      "owing": 6549,
      "ults": 6550,
      "scattered": 6551,
      "merit": 6552,
      "visited": 6553,
      "sensible": 6554,
      "instances": 6555,
      "slave": 6556,
      "suffering": 6557,
      "protestants": 6558,
      "wearing": 6559,
      "suggested": 6560,
      "colonists": 6561,
      "appointment": 6562,
      "bend": 6563,
      "gum": 6564,
      "tol": 6565,
      "adorn": 6566,
      "conform": 6567,
      "whither": 6568,
      "1832": 6569,
      "failed": 6570,
      "1795": 6571,
      "scrup": 6572,
      "mail": 6573,
      "whenever": 6574,
      "moreover": 6575,
      "printing": 6576,
      "wardle": 6577,
      "readily": 6578,
      "wars": 6579,
      "apply": 6580,
      "refused": 6581,
      "honor": 6582,
      "sung": 6583,
      "doubtless": 6584,
      "trot": 6585,
      "saved": 6586,
      "mov": 6587,
      "actions": 6588,
      "hir": 6589,
      "lxx": 6590,
      "conquest": 6591,
      "earlier": 6592,
      "flee": 6593,
      "strongly": 6594,
      "dutch": 6595,
      "prisoners": 6596,
      "prepare": 6597,
      "preceding": 6598,
      "compassion": 6599,
      "trimmed": 6600,
      "699": 6601,
      "machinery": 6602,
      "foul": 6603,
      "feud": 6604,
      "quad": 6605,
      "perceive": 6606,
      "1680": 6607,
      "accepted": 6608,
      "plent": 6609,
      "plans": 6610,
      "disgu": 6611,
      "disposition": 6612,
      "throng": 6613,
      "attempted": 6614,
      "accident": 6615,
      "descend": 6616,
      "habits": 6617,
      "eloqu": 6618,
      "217": 6619,
      "ao": 6620,
      "fome": 6621,
      "ases": 6622,
      "opposition": 6623,
      "hunting": 6624,
      "concluded": 6625,
      "issue": 6626,
      "engraved": 6627,
      "mous": 6628,
      "ues": 6629,
      "receiving": 6630,
      "itie": 6631,
      "wept": 6632,
      "usal": 6633,
      "retreat": 6634,
      "comply": 6635,
      "humbly": 6636,
      "inclined": 6637,
      "sorts": 6638,
      "bills": 6639,
      "reflection": 6640,
      "vulgar": 6641,
      "previously": 6642,
      "writer": 6643,
      "moments": 6644,
      "energy": 6645,
      "_15": 6646,
      "gown": 6647,
      "iences": 6648,
      "iture": 6649,
      "ems": 6650,
      "gene": 6651,
      "ashes": 6652,
      "catch": 6653,
      "milk": 6654,
      "struggle": 6655,
      "shelter": 6656,
      "cotton": 6657,
      "chorus": 6658,
      "econ": 6659,
      "nen": 6660,
      "ske": 6661,
      "aloud": 6662,
      "keats": 6663,
      "affli": 6664,
      "greet": 6665,
      "scape": 6666,
      "considering": 6667,
      "swear": 6668,
      "fragments": 6669,
      "earthquake": 6670,
      "accounts": 6671,
      "advers": 6672,
      "*^": 6673,
      "328": 6674,
      "cular": 6675,
      "lun": 6676,
      "vass": 6677,
      "zer": 6678,
      "altar": 6679,
      "chased": 6680,
      "vermeer": 6681,
      "flung": 6682,
      "0000": 6683,
      "craft": 6684,
      "barons": 6685,
      "southern": 6686,
      "pleasing": 6687,
      "fathers": 6688,
      "cheerful": 6689,
      "fetch": 6690,
      "gloomy": 6691,
      "v3": 6692,
      "arse": 6693,
      "deter": 6694,
      "unted": 6695,
      "245": 6696,
      "deny": 6697,
      "passions": 6698,
      "collar": 6699,
      "confession": 6700,
      "mysterious": 6701,
      "breeze": 6702,
      "680": 6703,
      "mock": 6704,
      "1829": 6705,
      "signal": 6706,
      "curse": 6707,
      "hamed": 6708,
      "incident": 6709,
      "message": 6710,
      "roused": 6711,
      "lofty": 6712,
      "prynne": 6713,
      "equi": 6714,
      "ole": 6715,
      "enchant": 6716,
      "plat": 6717,
      "cris": 6718,
      "breach": 6719,
      "rushed": 6720,
      "doub": 6721,
      "kindly": 6722,
      "facing": 6723,
      "remote": 6724,
      "dealer": 6725,
      "commerce": 6726,
      "205": 6727,
      "329": 6728,
      "379": 6729,
      "batt": 6730,
      "knt": 6731,
      "sf": 6732,
      "ghter": 6733,
      "termed": 6734,
      "1826": 6735,
      "1821": 6736,
      "1809": 6737,
      "buy": 6738,
      "ruins": 6739,
      "wax": 6740,
      "swept": 6741,
      "concerned": 6742,
      "burned": 6743,
      "troubles": 6744,
      "commentary": 6745,
      "heights": 6746,
      "rab": 6747,
      "wart": 6748,
      "xii": 6749,
      "ashamed": 6750,
      "chill": 6751,
      "select": 6752,
      "debt": 6753,
      "ager": 6754,
      "marble": 6755,
      "classes": 6756,
      "455": 6757,
      "beds": 6758,
      "followers": 6759,
      "social": 6760,
      "deadly": 6761,
      "fury": 6762,
      "occupy": 6763,
      "objections": 6764,
      "shillings": 6765,
      "gloucester": 6766,
      "080": 6767,
      "awhile": 6768,
      "ana": 6769,
      "arum": 6770,
      "feared": 6771,
      "estates": 6772,
      "sae": 6773,
      "1830": 6774,
      "awful": 6775,
      "wanting": 6776,
      "chaplain": 6777,
      "occasionally": 6778,
      "impul": 6779,
      "distinguish": 6780,
      "analyt": 6781,
      "confirmed": 6782,
      "045": 6783,
      "4cm": 6784,
      "dame": 6785,
      "pment": 6786,
      "ull": 6787,
      "residence": 6788,
      "1668": 6789,
      "185": 6790,
      "dozen": 6791,
      "scale": 6792,
      "136": 6793,
      "dropped": 6794,
      "transa": 6795,
      "specim": 6796,
      "fellows": 6797,
      "parlour": 6798,
      "genuine": 6799,
      "considerations": 6800,
      "500": 6801,
      "iot": 6802,
      "pall": 6803,
      "paren": 6804,
      "tread": 6805,
      "uries": 6806,
      "thum": 6807,
      "recover": 6808,
      "ads": 6809,
      "lil": 6810,
      "rolled": 6811,
      "imon": 6812,
      "meat": 6813,
      "peril": 6814,
      "1814": 6815,
      "whatsoever": 6816,
      "holden": 6817,
      "somer": 6818,
      "identity": 6819,
      "bonnet": 6820,
      "daughters": 6821,
      "nurse": 6822,
      "tech": 6823,
      "borrow": 6824,
      "366": 6825,
      "hind": 6826,
      "nut": 6827,
      "remarked": 6828,
      "stag": 6829,
      "162": 6830,
      "gras": 6831,
      "whereunto": 6832,
      "pied": 6833,
      "opener": 6834,
      "restless": 6835,
      "careless": 6836,
      "scriptures": 6837,
      "doubtful": 6838,
      "sprung": 6839,
      "approached": 6840,
      "weakness": 6841,
      "respon": 6842,
      "alike": 6843,
      "wolf": 6844,
      "solitude": 6845,
      "colledge": 6846,
      "annexed": 6847,
      "fla": 6848,
      "nard": 6849,
      "anchor": 6850,
      "nevile": 6851,
      "grain": 6852,
      "171": 6853,
      "normal": 6854,
      "supported": 6855,
      "mourn": 6856,
      "physician": 6857,
      "located": 6858,
      "knife": 6859,
      "878": 6860,
      "8x14": 6861,
      "_blank": 6862,
      "dum": 6863,
      "frown": 6864,
      "ux": 6865,
      "insu": 6866,
      "nold": 6867,
      "consul": 6868,
      "109": 6869,
      "subsequ": 6870,
      "blance": 6871,
      "tyrant": 6872,
      "hire": 6873,
      "simon": 6874,
      "judges": 6875,
      "identical": 6876,
      "practical": 6877,
      "7294": 6878,
      "pompe": 6879,
      "publick": 6880,
      "jennings": 6881,
      "obscure": 6882,
      "canterbury": 6883,
      "6x14": 6884,
      "gill": 6885,
      "map": 6886,
      "sway": 6887,
      "repose": 6888,
      "toggle": 6889,
      "ading": 6890,
      "norefer": 6891,
      "noopener": 6892,
      "urer": 6893,
      "ounce": 6894,
      "indian": 6895,
      "voices": 6896,
      "selfish": 6897,
      "25423": 6898,
      "262": 6899,
      "2692": 6900,
      "3024": 6901,
      "drops": 6902,
      "waist": 6903,
      "43271": 6904,
      "0343271": 6905,
      "romans": 6906,
      "mediaty": 6907,
      "73c0": 6908,
      "94487": 6909,
      "stories": 6910,
      "fortunes": 6911,
      "materials": 6912,
      "0253024": 6913,
      "02594487": 6914,
      "critical": 6915,
      "curiosity": 6916,
      "1891862": 6917,
      "1891861": 6918,
      "0262692": 6919,
      "53414": 6920,
      "blithe": 6921,
      "6715729": 6922,
      "0246777": 6923,
      "noreferrer": 6924,
      "2542373c0": 6925,
      "mediatype": 6926,
      "pilgrim": 6927,
      "cs": 6928,
      "assure": 6929,
      "weed": 6930,
      "meal": 6931,
      "exped": 6932,
      "proto": 6933,
      "180": 6934,
      "268": 6935,
      "nevertheless": 6936,
      "instinct": 6937,
      "bands": 6938,
      "pendant": 6939,
      "crying": 6940,
      "trusted": 6941,
      "kissed": 6942,
      "teenth": 6943,
      "resistance": 6944,
      "throat": 6945,
      "tent": 6946,
      "itable": 6947,
      "admin": 6948,
      "forbid": 6949,
      "iffs": 6950,
      "131": 6951,
      "repair": 6952,
      "alogy": 6953,
      "demanded": 6954,
      "foolish": 6955,
      "astonishment": 6956,
      "stretched": 6957,
      "214": 6958,
      "apost": 6959,
      "gale": 6960,
      "thea": 6961,
      "conject": 6962,
      "monies": 6963,
      "woke": 6964,
      "papists": 6965,
      "distributed": 6966,
      "punishment": 6967,
      "assumed": 6968,
      "citizen": 6969,
      "ignorance": 6970,
      "accomplished": 6971,
      "permanent": 6972,
      "eenth": 6973,
      "plunder": 6974,
      "glanced": 6975,
      "forehead": 6976,
      "sonde": 6977,
      "lesson": 6978,
      "242": 6979,
      "justly": 6980,
      "drove": 6981,
      "syn": 6982,
      "eastern": 6983,
      "mistake": 6984,
      "remove": 6985,
      "movement": 6986,
      "valuable": 6987,
      "305": 6988,
      "5cm": 6989,
      "eyed": 6990,
      "fund": 6991,
      "xion": 6992,
      "isles": 6993,
      "1815": 6994,
      "privi": 6995,
      "blew": 6996,
      "pulled": 6997,
      "tales": 6998,
      "frontis": 6999,
      "absolutely": 7000,
      "161": 7001,
      "-”": 7002,
      "mish": 7003,
      "uer": 7004,
      "’.": 7005,
      "ctive": 7006,
      "covent": 7007,
      "induced": 7008,
      "dialogue": 7009,
      "190": 7010,
      "awak": 7011,
      "awake": 7012,
      "solution": 7013,
      "hush": 7014,
      "florio": 7015,
      "mistaken": 7016,
      "stanza": 7017,
      "cheapside": 7018,
      "episcop": 7019,
      "guilty": 7020,
      "yesterday": 7021,
      "428": 7022,
      "pace": 7023,
      "leis": 7024,
      "feather": 7025,
      "monks": 7026,
      "spell": 7027,
      "appel": 7028,
      "354": 7029,
      "highness": 7030,
      "confined": 7031,
      "magic": 7032,
      "remaining": 7033,
      "hanging": 7034,
      "infected": 7035,
      "bough": 7036,
      "ei": 7037,
      "fh": 7038,
      "rout": 7039,
      "asion": 7040,
      "imprison": 7041,
      "consum": 7042,
      "resour": 7043,
      "brus": 7044,
      "plea": 7045,
      "courts": 7046,
      "^^^": 7047,
      "translate": 7048,
      "defend": 7049,
      "anxiety": 7050,
      "advantages": 7051,
      "reports": 7052,
      "reflections": 7053,
      "simply": 7054,
      "propriet": 7055,
      "bred": 7056,
      "iant": 7057,
      "vale": 7058,
      "pover": 7059,
      "club": 7060,
      "gos": 7061,
      "disappeared": 7062,
      "warner": 7063,
      "steam": 7064,
      "commended": 7065,
      "writings": 7066,
      "talmud": 7067,
      "float": 7068,
      "suspic": 7069,
      "chimney": 7070,
      "414": 7071,
      "owe": 7072,
      "snod": 7073,
      "anni": 7074,
      "urged": 7075,
      "absor": 7076,
      "model": 7077,
      "fection": 7078,
      "handkerchief": 7079,
      "stoop": 7080,
      "treach": 7081,
      "regions": 7082,
      "222": 7083,
      "morton": 7084,
      "traits": 7085,
      "bones": 7086,
      "graceful": 7087,
      "contrast": 7088,
      "dragon": 7089,
      "367": 7090,
      "743": 7091,
      "lom": 7092,
      "yne": 7093,
      "attain": 7094,
      "beach": 7095,
      "iring": 7096,
      "conceive": 7097,
      "strained": 7098,
      "drum": 7099,
      "worked": 7100,
      "halfe": 7101,
      "sincere": 7102,
      "needs": 7103,
      "closely": 7104,
      "virgin": 7105,
      "wedding": 7106,
      "seventh": 7107,
      "deserted": 7108,
      "volunteers": 7109,
      "conviction": 7110,
      "minstrelsy": 7111,
      "creation": 7112,
      "cra": 7113,
      "nas": 7114,
      "inside": 7115,
      "ero": 7116,
      "albeit": 7117,
      "rier": 7118,
      "locks": 7119,
      "colo": 7120,
      "ckle": 7121,
      "medic": 7122,
      "strat": 7123,
      "298": 7124,
      "parliaments": 7125,
      "igation": 7126,
      "additions": 7127,
      "admiral": 7128,
      "compliance": 7129,
      "screen": 7130,
      "customs": 7131,
      "clarence": 7132,
      "snodgrass": 7133,
      "267": 7134,
      "_25": 7135,
      "mg": 7136,
      "poured": 7137,
      "enor": 7138,
      "1675": 7139,
      "spy": 7140,
      "395": 7141,
      "358": 7142,
      "farm": 7143,
      "blog": 7144,
      "engagement": 7145,
      "shortly": 7146,
      "lecture": 7147,
      "tranqu": 7148,
      "existed": 7149,
      "davy": 7150,
      "schools": 7151,
      "moderate": 7152,
      "temperature": 7153,
      "amidst": 7154,
      "asserted": 7155,
      "comparative": 7156,
      "wu": 7157,
      "215": 7158,
      "783": 7159,
      "bapt": 7160,
      "sof": 7161,
      "secre": 7162,
      "sullen": 7163,
      "neys": 7164,
      "performan": 7165,
      "1682": 7166,
      "bra": 7167,
      "woo": 7168,
      "licity": 7169,
      "offices": 7170,
      "frey": 7171,
      "mutual": 7172,
      "concealed": 7173,
      "atmosphere": 7174,
      "1800": 7175,
      "jury": 7176,
      "wages": 7177,
      "assa": 7178,
      "liche": 7179,
      "uncertain": 7180,
      "1670": 7181,
      "canst": 7182,
      "pull": 7183,
      "missed": 7184,
      "frid": 7185,
      "anean": 7186,
      "rug": 7187,
      "gerard": 7188,
      "domain": 7189,
      "shock": 7190,
      "painter": 7191,
      "ridge": 7192,
      "expedition": 7193,
      "departure": 7194,
      "peasants": 7195,
      "kat": 7196,
      "rang": 7197,
      "inations": 7198,
      "infinite": 7199,
      "reed": 7200,
      "chi": 7201,
      "fron": 7202,
      "resent": 7203,
      "mono": 7204,
      "vith": 7205,
      "earliest": 7206,
      "133": 7207,
      "cries": 7208,
      "guilt": 7209,
      "carpet": 7210,
      "projects": 7211,
      "pains": 7212,
      "testimony": 7213,
      "maintained": 7214,
      "companies": 7215,
      "operations": 7216,
      "rolls": 7217,
      "exerc": 7218,
      "vindicated": 7219,
      "gratitude": 7220,
      "assurance": 7221,
      "periodicals": 7222,
      "/\"": 7223,
      "300": 7224,
      "dancing": 7225,
      "trun": 7226,
      "1813": 7227,
      "medit": 7228,
      "boots": 7229,
      "149": 7230,
      "duchess": 7231,
      "iously": 7232,
      "skin": 7233,
      "midrash": 7234,
      "bald": 7235,
      "successful": 7236,
      "contented": 7237,
      "gleam": 7238,
      "disturbed": 7239,
      "uriah": 7240,
      "merchants": 7241,
      "hue": 7242,
      "ov": 7243,
      "rand": 7244,
      "rou": 7245,
      "yd": 7246,
      "ofed": 7247,
      "alwyn": 7248,
      "seas": 7249,
      "conceived": 7250,
      "prus": 7251,
      "1812": 7252,
      "grasp": 7253,
      "faire": 7254,
      "scots": 7255,
      "itions": 7256,
      "crack": 7257,
      "eleg": 7258,
      "displayed": 7259,
      "necessarily": 7260,
      "protection": 7261,
      "distribute": 7262,
      "scholar": 7263,
      "remonstrance": 7264,
      "magnificent": 7265,
      "ka": 7266,
      "“‘": 7267,
      "conspir": 7268,
      "1676": 7269,
      "170": 7270,
      "willough": 7271,
      "file": 7272,
      "angli": 7273,
      "calvert": 7274,
      "satur": 7275,
      "interests": 7276,
      "fortunately": 7277,
      "rebellion": 7278,
      "esteem": 7279,
      "brussels": 7280,
      "4x14": 7281,
      "xide": 7282,
      "enabled": 7283,
      "polis": 7284,
      "foes": 7285,
      "plu": 7286,
      "joh": 7287,
      "eves": 7288,
      "breaking": 7289,
      "meta": 7290,
      "islands": 7291,
      "steady": 7292,
      "cultiv": 7293,
      "internet": 7294,
      "thread": 7295,
      "on_": 7296,
      "stamp": 7297,
      "bye": 7298,
      "1673": 7299,
      "maker": 7300,
      "ivy": 7301,
      "whereby": 7302,
      "thyself": 7303,
      "creatures": 7304,
      "473": 7305,
      "purit": 7306,
      "painful": 7307,
      "interested": 7308,
      "antiquity": 7309,
      "tumult": 7310,
      "volunteer": 7311,
      "foresaid": 7312,
      "willoughby": 7313,
      "585": 7314,
      "622": 7315,
      "bv": 7316,
      "uen": 7317,
      "recei": 7318,
      "ender": 7319,
      "mansion": 7320,
      "295": 7321,
      "existing": 7322,
      "establishment": 7323,
      "belonged": 7324,
      "magistrate": 7325,
      "compelled": 7326,
      "biblio": 7327,
      "mixture": 7328,
      "province": 7329,
      "_n": 7330,
      "cence": 7331,
      "gabri": 7332,
      "lav": 7333,
      "l18": 7334,
      "mute": 7335,
      "uo": 7336,
      "inch": 7337,
      "retained": 7338,
      "alli": 7339,
      "idol": 7340,
      "fra": 7341,
      "clas": 7342,
      "vigor": 7343,
      "landscape": 7344,
      "2550": 7345,
      "household": 7346,
      "justify": 7347,
      "venture": 7348,
      "horri": 7349,
      "testament": 7350,
      "yng": 7351,
      "combination": 7352,
      "connection": 7353,
      "brilliant": 7354,
      "8x13": 7355,
      "bn": 7356,
      "lorn": 7357,
      "depri": 7358,
      "confirm": 7359,
      "perform": 7360,
      "proving": 7361,
      "wilson": 7362,
      "paying": 7363,
      "function": 7364,
      "neighbours": 7365,
      "slightly": 7366,
      "giant": 7367,
      "loyal": 7368,
      "magistrates": 7369,
      "hackney": 7370,
      "919": 7371,
      "_20": 7372,
      "ely": 7373,
[...]
