{
  "indul": 7737,
  "squam": 16282,
  "Metals": 25415,
  "insane": 29452,
  "Hamlet": 21822,
  "Ast": 3857,
  "dim": 2539,
  "##isin": 29047,
  "inspected": 28867,
  "pipe": 7582,
  "burst": 5762,
  "Mered": 20419,
  "##ilda": 16962,
  "Nottingham": 16314,
  "Rhet": 26995,
  "Necess": 27674,
  "font": 11701,
  "Dunn": 20340,
  "apprentices": 18076,
  "1580": 14903,
  "##imed": 17621,
  "##ouche": 14874,
  "plumb": 23247,
  "Argent": 19273,
  "sculptured": 21546,
  "gib": 18104,
  "Cister": 24020,
  "apost": 13025,
  "panels": 24959,
  "1665": 13857,
  "appe": 1037,
  "##ocr": 11861,
  "Par": 1208,
  "petty": 21725,
  "##VIII": 14048,
  "publishing": 23809,
  "##cod": 23613,
  "earned": 24684,
  "joke": 22799,
  "OG": 27715,
  "SEC": 11496,
  "PEACE": 23725,
  "tt": 4827,
  "Experiment": 7640,
  "1837": 5896,
  "Carthy": 25597,
  "##ui": 2231,
  "cracked": 27194,
  "tions": 3553,
  "##arde": 21984,
  "##qua": 26149,
  "Godd": 28391,
  "professional": 13114,
  "principe": 25650,
  "1630": 21158,
  "deduce": 21604,
  "Clonmacnoise": 27893,
  "quos": 22402,
  "east": 2935,
  "Hath": 25005,
  "ordained": 17135,
  "deline": 12543,
  "1526": 25956,
  "Circ": 7070,
  "compassion": 13776,
  "Male": 25312,
  "##venant": 15676,
  "patentibus": 28246,
  "##abus": 24739,
  "##ettes": 16615,
  "excre": 26582,
  "quarter": 4214,
  "##atu": 6890,
  "sanctuary": 22516,
  "visits": 13103,
  "##sels": 11504,
  "orbis": 29209,
  "preventing": 14504,
  "contra": 6551,
  "tron": 20905,
  "Hard": 6793,
  "##OD": 5349,
  "003": 23468,
  "##entric": 14537,
  "Omer": 29327,
  "alludes": 25985,
  "##unch": 14331,
  "Unless": 23498,
  "octo": 19695,
  "emphatically": 21903,
  "conceived": 8488,
  "acquitted": 28005,
  "stupendous": 29724,
  "Fred": 5771,
  "explain": 6001,
  "dccccxxx": 18860,
  "they": 821,
  "recognition": 17993,
  "Hes": 20734,
  "acquainted": 5224,
  "##chequer": 9523,
  "perspic": 27137,
  "##avour": 2157,
  "Pyrenees": 26803,
  "precipitate": 8622,
  "##ania": 18189,
  "walks": 13331,
  "airy": 29991,
  "sick": 5471,
  "##utation": 4673,
  "1879": 25070,
  "umbil": 24822,
  "Wig": 21983,
  "bones": 4546,
  "revenues": 21650,
  "hanen": 29892,
  "Algues": 24648,
  "physiologie": 29304,
  "tenu": 12271,
  "comfortably": 25268,
  "Biography": 24504,
  "buttons": 26177,
  "swords": 17717,
  "Mrs": 1544,
  "##73": 13803,
  "uneven": 27140,
  "Mead": 21177,
  "Magnus": 20751,
  "persuade": 15600,
  "dys": 26063,
  "passages": 8684,
  "exceeded": 15214,
  "1642": 11779,
  "nitric": 8737,
  "SABINE": 20776,
  "##oure": 15467,
  "Virginis": 25896,
  "Phenomena": 20603,
  "177": 2392,
  "475": 19074,
  "charge": 3872,
  "legit": 11569,
  "wh": 662,
  "##ival": 3951,
  "Peterborough": 27060,
  "fewer": 19038,
  "##omet": 1408,
  "##lace": 4062,
  "grate": 8560,
  "transmitted": 9613,
  "phenomenes": 24750,
  "stigm": 10020,
  "integrals": 29603,
  "tinct": 12710,
  "hurried": 7873,
  "##cif": 18527,
  "arising": 7007,
  "electricity": 4397,
  "diaphragm": 21220,
  "city": 3074,
  "Whan": 24704,
  "Edinburgh": 3866,
  "decline": 15556,
  "hazard": 16407,
  "in\u00e6": 20635,
  "tical": 19970,
  "fiend": 16419,
  "happ": 1814,
  "persecution": 21798,
  "award": 11292,
  "crept": 19445,
  "Matilda": 19936,
  "alb": 7795,
  "longus": 20988,
  "amazement": 20157,
  "solved": 18237,
  "53": 2095,
  "Sco": 24618,
  "##GL": 26999,
  "tender": 4666,
  "calyce": 11742,
  "##lais": 17111,
  "Monks": 25885,
  "Tafeln": 28410,
  "exclusion": 23534,
  "Alice": 14557,
  "Ferdinand": 21980,
  "derang": 24917,
  "Lith": 17551,
  "Archdeacon": 12454,
  "insult": 12211,
  "Ely": 12353,
  "##oid": 8147,
  "iir": 21250,
  "##hamed": 12309,
  "1905": 20851,
  "##atever": 3567,
  "Rec": 4706,
  "Willd": 25753,
  "Elizabeth": 3727,
  "secunda": 29238,
  "banker": 19370,
  "avort": 27537,
  "Mediterranean": 15273,
  "Nichols": 23565,
  "Drummond": 23538,
  "##attle": 3904,
  "combinations": 11426,
  "Design": 23883,
  "illumin": 10636,
  "Sanctorum": 25386,
  "##elve": 18851,
  "##men": 1646,
  "##iiy": 13783,
  "Em": 2529,
  "##crip": 14263,
  "nm": 18759,
  "##chett": 22565,
  "sympathies": 26889,
  "##retion": 12233,
  "571": 26422,
  "knave": 27258,
  "##gerald": 21697,
  "subjoined": 18251,
  "determinations": 22921,
  "characteristics": 21451,
  "derniere": 17346,
  "Jeffreys": 27888,
  "1686": 17328,
  "ss": 7922,
  "Hob": 9323,
  "Asiatic": 18452,
  "extend": 4340,
  "teles": 5646,
  "F": 81,
  "works": 2753,
  "inquired": 6875,
  "##burne": 18624,
  "delicious": 15935,
  "##bre": 2892,
  "measuring": 10557,
  "Exem": 24232,
  "fas": 20921,
  "ellipticis": 26218,
  "##dam": 6331,
  "Comment": 7502,
  "##frey": 15013,
  "varn": 18332,
  "##rab": 5085,
  "clan": 22807,
  "nis": 23151,
  "sepulchral": 21058,
  "Greeks": 13926,
  "COL": 8372,
  "Mother": 12463,
  "jour": 3628,
  "theolog": 29046,
  "##ief": 1958,
  "minerals": 12992,
  "##fert": 14978,
  "don": 1954,
  "##uding": 3912,
  "chil": 28377,
  "hill": 4895,
  "infam": 14423,
  "around": 4171,
  "##rew": 1747,
  "retrogr": 29037,
  "Peel": 18411,
  "##set": 10863,
  "279": 13349,
  "##INS": 11791,
  "party": 3627,
  "Florence": 6057,
  "hunger": 19467,
  "##omia": 29338,
  "##ubbock": 18099,
  "XXI": 17890,
  "easterly": 19786,
  "facilitate": 24154,
  "dispos": 7919,
  "rous": 25400,
  "percept": 28857,
  "unb": 20063,
  "carbonate": 8290,
  "Kirby": 24962,
  "Sud": 16505,
  "Dol": 16587,
  "##ACE": 7528,
  "smell": 8407,
  "ALMACK": 8262,
  "Ee": 12414,
  "repelled": 23501,
  "##eme": 5408,
  "hideous": 13794,
  "supplying": 17090,
  "cess": 7958,
  "magnets": 12137,
  "operations": 6649,
  "cor": 1132,
  "##bee": 17579,
  "Gloucester": 10904,
  "55": 2005,
  "Ps": 8661,
  "Eo": 16263,
  "bewild": 14038,
  "mals": 29972,
  "1816": 7690,
  "apice": 6066,
  "##escence": 15186,
  "Hyde": 12098,
  "soil": 6050,
  "Flower": 22699,
  "intervals": 8234,
  "eit": 27802,
  "##als": 1114,
  "reserved": 12483,
  "flashing": 25866,
  "##ILE": 24262,
  "Pride": 26531,
  "##leness": 16239,
  "BRITISH": 21830,
  "Lancashire": 19784,
  "Brother": 12864,
  "obtusa": 22545,
  "##eda": 25251,
  "purchasing": 22891,
  "Legislature": 28988,
  "incap": 11704,
  "vocab": 23137,
  "catalogue": 9998,
  "##sec": 4266,
  "improve": 4331,
  "131": 6674,
  "au": 1903,
  "##amber": 3078,
  "mena": 29926,
  "##olen": 14806,
  "PAR": 6255,
  "1773": 13098,
  "ours": 12484,
  "circulation": 7234,
  "establish": 3900,
  "homogene": 28433,
  "Those": 6533,
  "leaned": 27833,
  "damsel": 21971,
  "Mob": 26564,
  "1619": 17558,
  "Cland": 25004,
  "Edge": 28567,
  "##oes": 5260,
  "##udder": 12458,
  "terrific": 20709,
  "Alm": 14885,
  "Broun": 26663,
  "##ath": 1033,
  "Sj": 27716,
  "si": 2766,
  "III": 2326,
  "camb": 27330,
  "keeps": 14396,
  "##EC": 3899,
  "1659": 18241,
  "deaths": 16521,
  "211": 10754,
  "burial": 12212,
  "que": 1264,
  "Wot": 26405,
  "Gibr": 23025,
  "determ": 2026,
  "Norton": 24928,
  "Mae": 27474,
  "contradiction": 24216,
  "perce": 3631,
  "impor": 29748,
  "obtains": 26464,
  "Trades": 28824,
  "racine": 16980,
  "Pars": 15604,
  "nov": 9722,
  "jury": 9775,
  "##atrice": 24316,
  "petitions": 21326,
  "perhaps": 2240,
  "##heard": 18187,
  "creep": 27114,
  "\u067e\u06c1": 29973,
  "CONTENTS": 14815,
  "tem": 1457,
  "DAV": 13396,
  "potest": 21075,
  "trunk": 10215,
  "##inoc": 19452,
  "##iorum": 5432,
  "##roft": 17081,
  "accomp": 6063,
  "##ickle": 11843,
  "aper": 13545,
  "Randolph": 21678,
  "freed": 17137,
  "move": 3508,
  "scarcity": 22662,
  "Pap": 5792,
  "Plain": 17873,
  "##\u0646": 478,
  "##\u0153": 480,
  "##uld": 9581,
  "stead": 9049,
  "##\u017fs": 23309,
  "##XXX": 10842,
  "GI": 26228,
  "Jamaica": 13852,
  "surveying": 22467,
  "larger": 4002,
  "raise": 6910,
  "affect": 2394,
  "dispositions": 25076,
  "##holm": 16778,
  "##rometer": 9178,
  "Corb": 24433,
  "peb": 18977,
  "Shee": 21600,
  "##OW": 4508,
  "inaccurate": 28261,
  "Slieve": 26140,
  "Tes": 26061,
  "basi": 4847,
  "dered": 18803,
  "Fox": 10072,
  "##quisite": 10908,
  "heights": 11165,
  "interdum": 23590,
  "##uese": 15800,
  "tantot": 15103,
  "rhombo": 14005,
  "complaint": 12610,
  "1851": 12896,
  "Inches": 12497,
  "paragraphs": 23894,
  "bac": 23903,
  "Bel": 3775,
  "Anatomy": 10087,
  "##ORT": 10162,
  "senate": 22898,
  "##ulaire": 7643,
  "mission": 5959,
  "intell": 3598,
  "annum": 9482,
  "##KT": 26730,
  "Leng": 18113,
  "Grav": 18589,
  "61": 2775,
  "Roscommon": 25235,
  "Wake": 20605,
  "##able": 842,
  "##pat": 9045,
  "energet": 22544,
  "##lacing": 23400,
  "LX": 16384,
  "cb": 15831,
  "Queen": 2605,
  "owners": 14912,
  "fire": 2524,
  "groups": 12362,
  "PLANT": 28536,
  "REC": 20770,
  "##craft": 28123,
  "abund": 5705,
  "ay": 5182,
  "698": 27353,
  "western": 6448,
  "Tas": 13727,
  "##rations": 23113,
  "residing": 16484,
  "hyperb": 17440,
  "toilet": 17325,
  "echoes": 29953,
  "xvi": 7950,
  "nobody": 9226,
  "coi": 22888,
  "dispersion": 21567,
  "##cience": 2970,
  "exclaiming": 26986,
  "Volume": 7732,
  "Amph": 25372,
  "Turner": 10026,
  "redeem": 23007,
  "spongy": 26944,
  "Impr": 25444,
  "##annels": 18176,
  "Nicol": 19824,
  "Constantin": 13352,
  "Who": 4961,
  "86223": 13916,
  "bour": 7728,
  "Fleming": 19434,
  "##rows": 11404,
  "Northern": 11728,
  "Deux": 26198,
  "Del": 4901,
  "Hale": 28413,
  "Portug": 6553,
  "##ji": 7564,
  "Secretaries": 14691,
  "regulations": 13436,
  "##ped": 4369,
  "attache": 22811,
  "Lil": 21007,
  "critics": 27312,
  "shrill": 26241,
  "frames": 25479,
  "undec": 24633,
  "##rast": 25317,
  "h": 115,
  "diluted": 16428,
  "bled": 23681,
  "##ENCES": 28198,
  "metals": 5920,
  "214": 11519,
  "tc": 15341,
  "##\u00ae": 454,
  "Hared": 29674,
  "Painting": 24891,
  "dur": 6235,
  "Thomas": 1824,
  "##iently": 12803,
  "##uv": 4005,
  "prepar": 2889,
  "##bal": 22717,
  "cemetery": 21381,
  "groan": 24635,
  "Circle": 16739,
  "lar": 1282,
  "dirt": 20783,
  "patter": 7974,
  "questioned": 17701,
  "fifteenth": 15450,
  "lands": 3503,
  "comput": 29218,
  "alternately": 14720,
  "whose": 1786,
  "##ADAY": 21754,
  "ech": 7584,
  "549": 29013,
  "Squire": 20839,
  "acre": 17803,
  "things": 2305,
  "John": 1198,
  "offici": 17729,
  "chuck": 20903,
  "##ermost": 13579,
  "reach": 5806,
  "toll": 26025,
  "Soveraign": 20521,
  "Tasmania": 21950,
  "Philo": 28916,
  "balanced": 25269,
  "1750": 10408,
  "##pherd": 14462,
  "Grim": 21874,
  "332": 12842,
  "##no": 2909,
  "vulg": 25384,
  "Plans": 22980,
  "oc": 7408,
  "CE": 11203,
  "Survey": 5694,
  "Davy": 6075,
  "rent": 4898,
  "epistola": 25179,
  "jaw": 9004,
  "##OWER": 29231,
  "CATALOGUE": 14278,
  "MEMOIR": 17614,
  "##SS": 3877,
  "##Ht": 22248,
  "513": 25884,
  "GA": 21382,
  "##gging": 23282,
  "ushered": 29668,
  "cicat": 24931,
  "ADVERTISEMENTS": 21547,
  "deliverance": 27110,
  "##asers": 23743,
  "dirty": 13216,
  "male": 6242,
  "Galba": 15473,
  "zero": 15731,
  "naissance": 19014,
  "roe": 28564,
  "Station": 11298,
  "Compendium": 27790,
  "##lage": 16625,
  "resentment": 21801,
  "subgl": 25476,
  "retained": 8327,
  "pri": 1863,
  "chimney": 12130,
  "bags": 22642,
  "batt": 14940,
  "approxim": 8641,
  "##emps": 24838,
  "##ouring": 18388,
  "inheritance": 22368,
  "der": 2117,
  "\u00df": 165,
  "1560": 20279,
  "##oresby": 19866,
  "practices": 22050,
  "Stephens": 15828,
  "Re": 948,
  "fim": 16996,
  "ett": 28953,
  "Wind": 5466,
  "profession": 6453,
  "lad": 3053,
  "levied": 25959,
  "Delam": 29830,
  "##ETE": 13710,
  "His": 1840,
  "##um": 691,
  "object": 1707,
  "489": 20534,
  "Lancaster": 17926,
  "1614": 20127,
  "atmosphere": 4805,
  "small": 1289,
  "panel": 19017,
  "centres": 14079,
  "pins": 19562,
  "Bills": 15491,
  "KING": 15327,
  "tended": 11300,
  "inven": 16915,
  "grasp": 12827,
  "suffered": 5748,
  "##LISH": 18119,
  "##iect": 15470,
  "secular": 20084,
  "signal": 11726,
  "##inkle": 16461,
  "thereto": 16516,
  "tossed": 23789,
  "\u00a320": 29333,
  "##bern": 19616,
  "<|indeed|>": 15,
  "indif": 7647,
  "4\u00b0": 1966,
  "##der": 1204,
  "lantern": 19109,
  "tack": 25217,
  "6": 65,
  "Poll": 10524,
  "short": 1979,
  "Articles": 9569,
  "##cias": 28285,
  "Rights": 19391,
  "wounds": 15916,
  "arteries": 10350,
  "##ckets": 12019,
  "pleasant": 6115,
  "traffic": 18713,
  "interesting": 3178,
  "fa": 1865,
  "is": 682,
  "extinguished": 17382,
  "Glen": 7063,
  "1558": 21052,
  "tobacco": 14210,
  "item": 16893,
  "1612": 15557,
  "Lister": 21615,
  "came": 1741,
  "Octo": 4355,
  "th": 647,
  "retrouve": 27261,
  "Established": 22441,
  "RES": 10751,
  "Raw": 12274,
  "Rich": 2188,
  "##reci": 25367,
  "trache": 15462,
  "facilement": 22741,
  "##\u03b2": 595,
  "Abbot": 12400,
  "Tangier": 17194,
  "cord": 4830,
  "predom": 17055,
  "go": 1176,
  "##ivity": 7578,
  "##etto": 29738,
  "Harold": 12324,
  "Did": 5535,
  "##NN": 23770,
  "##iforn": 23114,
  "dru": 21194,
  "recall": 16696,
  "partie": 5092,
  "intol": 17871,
  "slips": 24846,
  "Tor": 6034,
  "226": 11484,
  "bably": 23904,
  "expedition": 9149,
  "Arthur": 4928,
  "Bede": 15369,
  "Architecture": 15923,
  "Dever": 16627,
  "Fifty": 28637,
  "<|amongst|>": 33,
  "1602": 15934,
  "syl": 20727,
  "##XX": 4675,
  "proc": 3480,
  "##ranean": 10728,
  "solemnly": 15427,
  "seeking": 13806,
  "viewing": 17596,
  "Gw": 27371,
  "domain": 11032,
  "##sters": 11193,
  "regent": 23116,
  "dug": 11465,
  "harm": 6722,
  "##erick": 4439,
  "deduction": 28099,
  "##canique": 24543,
  "Fabric": 28934,
  "Gort": 26362,
  "Peerage": 25731,
  "L2": 25006,
  "Egl": 27369,
  "Sciences": 6178,
  "##ILY": 18647,
  "block": 10370,
  "Edinb": 10929,
  "drying": 21330,
  "##aisse": 6559,
  "Tac": 17912,
  "Acts": 12132,
  "ons": 22862,
  "missionaries": 21378,
  "nests": 28746,
  "wisdom": 9617,
  "##estry": 21524,
  "Ruf": 23206,
  "scoundrel": 28029,
  "flies": 17057,
  "##uns": 5608,
  "circum": 1869,
  "Volcano": 28478,
  "gas": 3151,
  "goodness": 10192,
  "fu": 6250,
  "abhor": 17113,
  "5S": 26522,
  "agriculture": 12840,
  "dice": 21130,
  "\u03c2": 214,
  "##\u06cc\u0631": 12635,
  "##uber": 15071,
  "##ot": 659,
  "products": 11141,
  "hardy": 26705,
  "Egerton": 17807,
  "immediately": 2703,
  "Point": 13047,
  "AZ": 28942,
  "lump": 28852,
  "sombre": 27272,
  "Marqu": 22458,
  "Foss": 14534,
  "turret": 28009,
  "Ups": 16069,
  "drama": 19479,
  "forme": 4263,
  "plerum": 17014,
  "Toul": 27758,
  "monument": 6787,
  "##igence": 4544,
  "##mad": 21715,
  "kindred": 18587,
  "##giance": 21212,
  "ramifications": 24813,
  "vase": 21440,
  "##pic": 3790,
  "ascribes": 28896,
  "involunt": 17150,
  "##iiig": 12986,
  "\u2083": 335,
  "Elinor": 18311,
  "##ghan": 27676,
  "direc": 19518,
  "##seus": 25220,
  "Dysart": 28546,
  "1752": 13880,
  "##UL": 3879,
  "cotyledon": 21406,
  "contracts": 26376,
  "repeatedly": 15290,
  "commands": 14656,
  "absolument": 27839,
  "oily": 21658,
  "river": 3386,
  "##RAND": 16424,
  "precedente": 25673,
  "lasting": 19140,
  "##IONS": 20834,
  "auteurs": 17172,
  "ally": 17216,
  "riot": 18651,
  "##os": 721,
  "CO": 2140,
  "Quo": 25374,
  "Mineral": 18394,
  "##ulously": 26077,
  "rapproche": 15504,
  "nomin": 24951,
  "Dru": 16825,
  "account": 1503,
  "SUR": 13557,
  "Under": 6752,
  "##ore": 744,
  "142": 8509,
  "guarantee": 26521,
  "ligament": 26480,
  "decimal": 29311,
  "Cassini": 18323,
  "overlo": 12694,
  "prints": 20503,
  "heroes": 20530,
  "##alus": 21067,
  "prin": 1510,
  "query": 25254,
  "##ibr": 2345,
  "hope": 2395,
  "poles": 6671,
  "##VAL": 27858,
  "comm": 985,
  "Coll": 2114,
  "Ferman": 23863,
  "Gresham": 18346,
  "##ana": 4636,
  "Afterwards": 27587,
  "insol": 9651,
  "48": 1920,
  "Stanhope": 19351,
  "severally": 25131,
  "##ioD": 25911,
  "laborious": 17138,
  "1759": 13281,
  "viens": 24435,
  "75": 2808,
  "Sett": 18204,
  "fy": 12798,
  "inner": 7191,
  "ridiculous": 15627,
  "multiply": 24715,
  "array": 15956,
  "##how": 14729,
  "producing": 7453,
  "wherewith": 23807,
  "##ili": 3522,
  "indis": 18407,
  "Providence": 14416,
  "motives": 11373,
  "Miih": 27045,
  "Malt": 18722,
  "core": 20979,
  "ving": 16983,
  "smiles": 15383,
  "##VE": 10821,
  "BI": 19131,
  "DEL": 18347,
  "Image": 28147,
  "##ptic": 10580,
  "tarn": 17363,
  "deb": 5494,
  "##ault": 12270,
  "Ltd": 15431,
  "versed": 21265,
  "has": 896,
  "##ographie": 15712,
  "##ung": 2043,
  "ascri": 22036,
  "influ": 2463,
  "countenance": 3654,
  "jamais": 15304,
  "327": 14212,
  "transport": 9371,
  "##bro": 6096,
  "demol": 19294,
  "Law": 3238,
  "cooled": 18517,
  "impos": 22939,
  "dash": 26953,
  "PORT": 28226,
  "##ada": 6240,
  "##ingley": 22072,
  "Euclid": 29135,
  "corro": 14078,
  "##mark": 8676,
  "Stop": 24074,
  "mud": 11122,
  "bookseller": 22173,
  "##lley": 14085,
  "##ways": 1776,
  "signature": 19408,
  "##ulf": 10145,
  "1575": 16899,
  "inter": 1022,
  "nick": 19169,
  "sie": 9410,
  "brings": 11299,
  "payment": 8514,
  "##ulo": 5904,
  "friend": 1548,
  "##laid": 23059,
  "mons": 17943,
  "our": 1044,
  "##cester": 7011,
  "waiting": 7871,
  "Lug": 6940,
  "despite": 20073,
  "##hip": 3122,
  "Even": 5668,
  "emig": 25508,
  "lore": 18117,
  "sive": 5402,
  "imb": 9576,
  "unknown": 5673,
  "terrest": 9659,
  "373": 14902,
  "##chn": 8363,
  "\u03c0": 212,
  "##RIC": 16768,
  "Loft": 15249,
  "thereby": 7402,
  "1572": 13602,
  "semble": 13379,
  "Franc": 7009,
  "aiid": 19620,
  "pater": 19953,
  "Gas": 11709,
  "\u00a34": 14991,
  "div": 1766,
  "1574": 17627,
  "CLASS": 23783,
  "quarters": 7960,
  "mucil": 22325,
  "##ogn": 3716,
  "convenience": 14505,
  "artery": 11885,
  "##erous": 2656,
  "##itus": 7566,
  "anybody": 12443,
  "La": 1588,
  "funds": 11850,
  "##bes": 3284,
  "compre": 5273,
  "ooQ": 26791,
  "##ologia": 9608,
  "minute": 3332,
  "rame": 10209,
  "doomed": 22833,
  "systems": 12412,
  "blanch": 29808,
  "##writ": 20882,
  "Eastern": 13749,
  "reverence": 17737,
  "period": 2118,
  "\u0637\u0631": 26020,
  "Johann": 5671,
  "corpus": 6238,
  "ould": 25934,
  "Fellows": 6077,
  "001": 21262,
  "##lio": 11282,
  "conven": 4477,
  "\u201e": 314,
  "detailed": 8716,
  "quint": 29442,
  "Scyth": 27791,
  "##HET": 27444,
  "##uities": 14775,
  "Barcel": 23063,
  "benevolent": 18533,
  "expressive": 17176,
  "Normandy": 23069,
  "fined": 25012,
  "gentle": 1816,
  "copied": 11623,
  "##oq": 18276,
  "Jum": 27610,
  "Music": 14323,
  "tip": 9900,
  "leads": 10355,
  "Eman": 20375,
  "555": 27309,
  "ensue": 27062,
  "simpl": 10697,
  "##civ": 20659,
  "Also": 8078,
  "Rules": 17480,
  "apron": 29746,
  "##\u0661": 561,
  "Pyren": 20493,
  "expressed": 4734,
  "accounts": 6014,
  "Far": 5322,
  "##iop": 14930,
  "furnace": 17629,
  "disting": 13494,
  "##asta": 26300,
  "117": 6831,
  "Tacitus": 29722,
  "FIG": 22616,
  "commence": 5521,
  "Foker": 25924,
  "58": 2144,
  "arbres": 20177,
  "Cromwell": 9255,
  "Flint": 23128,
  "Chamberlain": 22738,
  "Tt": 15549,
  "justified": 14969,
  "attacked": 12955,
  "tib": 12700,
  "distincte": 25520,
  "##inefs": 27568,
  "##atively": 20168,
  "##adem": 2789,
  "obed": 9225,
  "Killarney": 18140,
  "Soci": 6047,
  "##app": 2406,
  "##will": 14528,
  "coroll": 7870,
  "Nord": 20397,
  "Balt": 14760,
  "admirer": 29368,
  "Example": 26172,
  "muri": 4975,
  "pore": 23242,
  "Country": 10121,
  "Poet": 7356,
  "Meredith": 22745,
  "##icell": 9954,
  "##nc": 17297,
  "##oncule": 22295,
  "##cipe": 28655,
  "hadde": 23876,
  "secretary": 11679,
  "applique": 22475,
  "Grange": 16822,
  "omission": 28488,
  "1755": 12591,
  "thirds": 19573,
  "##gypt": 5026,
  "distracted": 25507,
  "tween": 10226,
  "##utton": 11181,
  "aliis": 13568,
  "lordships": 26214,
  "faites": 15378,
  "risk": 11352,
  "breathless": 26888,
  "poisoned": 27066,
  "solids": 19036,
  "dreadfully": 26935,
  "Hygiene": 27057,
  "Finally": 23169,
  "violently": 12758,
  "contiguous": 15652,
  "Interest": 24845,
  "##erman": 6485,
  "##cil": 1915,
  "anatomists": 29305,
  "costerm": 21569,
  "censure": 23334,
  "removal": 9066,
  "##umers": 28187,
  "multo": 21609,
  "precision": 12520,
  "##standing": 5750,
  "ey": 1384,
  "##ases": 1740,
  "BER": 19561,
  "Equatorial": 8485,
  "sphere": 6989,
  "##\u03c6": 526,
  "Leip": 16075,
  "##ighed": 7577,
  "gard": 12575,
  "brow": 10675,
  "##brevi": 18664,
  "marl": 26831,
  "Veget": 13058,
  "contour": 27006,
  "##idon": 26111,
  "burgh": 18032,
  "Augustini": 28922,
  "horse": 3735,
  "omb": 23988,
  "beer": 12964,
  "##49": 22803,
  "reprinted": 19506,
  "fren": 20420,
  "Eff": 9764,
  "Hind": 11418,
  "needles": 10716,
  "js": 27122,
  "hind": 7183,
  "visited": 5684,
  "qualities": 8426,
  "XVII": 12027,
  "Ign": 20718,
  "##URES": 12997,
  "##\u03b6": 617,
  "forts": 11437,
  "##cese": 11199,
  "Property": 26984,
  "knocked": 14214,
  "Dio": 10473,
  "verge": 24142,
  "\u03bd": 209,
  "Import": 22732,
  "convinced": 7222,
  "\u03a9": 196,
  "cultivation": 13042,
  "Fell": 5551,
  "Topographical": 25646,
  "chronicle": 28539,
  "XXXIV": 29831,
  "theories": 16533,
  "errors": 7323,
  "343": 13192,
  "hh": 27520,
  "##mo": 2145,
  "594": 28663,
  "1559": 22820,
  "along": 2832,
  "##idium": 14855,
  "types": 15979,
  "Reason": 21693,
  "##oughton": 16027,
  "longitudes": 23180,
  "lining": 23304,
  "footman": 15874,
  "results": 2624,
  "minima": 26154,
  "##ivan": 18868,
  "aber": 13510,
  "bundle": 22005,
  "exhaustion": 25074,
  "Princes": 16701,
  "complied": 26032,
  "##ming": 5251,
  "##iic": 18973,
  "Pu": 21883,
  "##entem": 27565,
  "Waterloo": 18359,
  "bread": 4361,
  "##ic\u00e6": 26571,
  "##positions": 19706,
  "chev": 28617,
  "##etate": 17467,
  "receiving": 7825,
  "##issions": 18085,
  "Physical": 17101,
  "Poetry": 13747,
  "PLE": 26808,
  "Proper": 14588,
  "Treat": 5358,
  "Geneve": 22608,
  "Year": 7839,
  "801": 28396,
  "##hile": 20460,
  "Tomlinson": 21311,
  "ion": 12283,
  "Hur": 19807,
  "Peer": 19292,
  "vows": 27660,
  "ation": 20760,
  "u": 128,
  "393": 15949,
  "ert": 28718,
  "##6e": 23519,
  "Publications": 18805,
  "cave": 9661,
  "Pine": 24311,
  "##amment": 14585,
  "paying": 9374,
  "cooper": 28470,
  "##vius": 20399,
  "Bob": 13006,
  "##ety": 1087,
  "##limited": 27597,
  "##ment": 840,
  "eleve": 17978,
  "embod": 24007,
  "stability": 28606,
  "##inda": 21371,
  "stands": 5759,
  "dyn": 17053,
  "BOY": 21882,
  "##robe": 19565,
  "duly": 9216,
  "293": 12255,
  "Kingdom": 8986,
  "trac": 29353,
  "nex": 29801,
  "Buff": 14896,
  "##nm": 12313,
  "##ushing": 7724,
  "Bea": 9883,
  "##\u2070": 578,
  "wonder": 3799,
  "\u03b8": 204,
  "treatment": 7712,
  "ooo": 20116,
  "propos": 6020,
  "Boxes": 27225,
  "Plays": 29992,
  "##down": 25544,
  "proposed": 3529,
  "coin": 8263,
  "says": 2263,
  "Heath": 9995,
  "##fton": 12904,
  "416": 18979,
  "409": 16337,
  "##het": 5094,
  "##ided": 1831,
  "mort": 3920,
  "Dud": 11417,
  "##mant": 25088,
  "difference": 2845,
  "attent": 8530,
  "##if": 730,
  "cous": 7112,
  "Fahr": 14461,
  "marking": 24238,
  "##KE": 8248,
  "chapels": 29612,
  "military": 7324,
  "##issime": 8937,
  "##hens": 4292,
  "fasten": 27689,
  "Jus": 26993,
  "xn": 17846,
  "insinu": 23219,
  "entertain": 7874,
  "sity": 23584,
  "##oun": 1412,
  "breathe": 15215,
  "transf": 22696,
  "ine": 3762,
  "##ensive": 4007,
  "CHAPTER": 4577,
  "\u2044": 322,
  "Ait": 28651,
  "Fruit": 26331,
  "tim": 4879,
  "flowed": 16258,
  "acutis": 11211,
  "Sla": 8587,
  "tution": 28750,
  "8616": 17543,
  "##\u017fe": 13466,
  "hie": 15842,
  "Ta": 6545,
  "Arago": 19577,
  "##icli": 10310,
  "mack": 26338,
  "fled": 10369,
  "##CC": 3663,
  "##icam": 13920,
  "baff": 23516,
  "Surely": 17685,
  "Herbert": 10940,
  "devoid": 26647,
  "colouring": 12221,
  "##imon": 12712,
  "irregularity": 24045,
  "smelt": 27574,
  "533": 22260,
  "Admiral": 10977,
  "##fol": 16162,
  "rig": 6457,
  "Tax": 12489,
  "bronze": 9231,
  "department": 11514,
  "interrupted": 6141,
  "job": 20525,
  "Catalogues": 17548,
  "\u215b": 349,
  "nim": 16292,
  "possessions": 13625,
  "reprodu": 12135,
  "195": 7568,
  "downstairs": 29925,
  "362": 15816,
  "terminating": 20489,
  "##LD": 9430,
  "##arc": 11538,
  "swallow": 21580,
  "beat": 6547,
  "diem": 21748,
  "promont": 25262,
  "splendour": 15651,
  "coU": 25289,
  "453": 23253,
  "Pod": 24557,
  "materials": 6082,
  "foundation": 6789,
  "alternate": 14934,
  "##vee": 24461,
  "nate": 24312,
  "##aked": 6030,
  "accompanying": 13611,
  "Bry": 10420,
  "juice": 12539,
  "preparations": 12342,
  "G": 82,
  "enthusi": 16053,
  "##riv": 9633,
  "proved": 3742,
  "tokens": 26518,
  "##ub": 881,
  "obscurity": 15919,
  "identify": 22486,
  "Vegetable": 24188,
  "##s": 398,
  "Figures": 20710,
  "marvellous": 21337,
  "Dionys": 17722,
  "tell": 1888,
  "behaved": 21355,
  "##zelius": 17658,
  "piled": 27762,
  "inversely": 25420,
  "Emily": 7377,
  "##cium": 12916,
  "Translation": 16032,
  "##rister": 12290,
  "inasmuch": 12149,
  "<|georgian|>": 26,
  "verite": 29524,
  "Kunth": 25241,
  "Gi": 9516,
  "##WS": 16579,
  "Agar": 25635,
  "enlarge": 22580,
  "Ship": 11007,
  "manager": 21173,
  "gh": 7444,
  "Thir": 14004,
  "##aphys": 18343,
  "voice": 2989,
  "cleared": 11981,
  "pler": 29690,
  "Lew": 7105,
  "philanthrop": 23917,
  "fees": 13386,
  "diverse": 25669,
  "brother": 2546,
  "##aunt": 5472,
  "towne": 27784,
  "shortest": 25598,
  "tod": 23033,
  "haa": 28234,
  "1556": 25069,
  "justices": 27678,
  "Ma": 1485,
  "joined": 6285,
  "fanc": 29259,
  "##ected": 2533,
  "699": 28060,
  "collections": 12012,
  "inclination": 7657,
  "##ansa": 21620,
  "guished": 24840,
  "Matth": 19201,
  "850": 24241,
  "Toronto": 25957,
  "singul": 25295,
  "Republic": 29426,
  "milieu": 13529,
  "xl": 23209,
  "Econ": 14853,
  "Int": 4106,
  "##any": 1718,
  "Pell": 22520,
  "Treatment": 28490,
  "feuilles": 4343,
  "\u2018": 309,
  "Prote": 21890,
  "James": 1894,
  "geology": 23882,
  "blessings": 20996,
  "decidedly": 14643,
  "alight": 26959,
  "##ession": 3415,
  "##smith": 10820,
  "tooth": 11353,
  "breathed": 16929,
  "##ensa": 20822,
  "sure": 2618,
  "formation": 4206,
  "##apers": 2633,
  "##istr": 16388,
  "Dublin": 2189,
  "Advoc": 22601,
  "attachment": 10898,
  "product": 6801,
  "staid": 13011,
  "coqu": 26776,
  "gee": 24421,
  "wid": 4446,
  "Dun": 3569,
  "##bits": 23308,
  "imposing": 23617,
  "chapter": 8216,
  "mais": 3517,
  "Pin": 16832,
  "struc": 24240,
  "##aca": 14618,
  "advantageous": 16702,
  "M": 88,
  "endeav": 10095,
  "##\u062f": 451,
  "##arf": 9783,
  "Neill": 13725,
  "give": 1608,
  "##azar": 25517,
  "supporting": 15671,
  "manifested": 15185,
  "##du": 1005,
  "opposed": 9723,
  "Stra": 12442,
  "doubted": 13069,
  "\u00f7": 168,
  "damage": 15906,
  "##ocarp": 21598,
  "inex": 11048,
  "##ighty": 17572,
  "##aned": 14616,
  "writers": 6486,
  "Chick": 19747,
  "Dep": 4970,
  "##ulog": 21443,
  "mentioned": 2566,
  "texture": 11289,
  "whidi": 16514,
  "POET": 21364,
  "depuis": 8694,
  "ceiling": 17068,
  "Boyne": 27232,
  "##esford": 25836,
  "mace": 26608,
  "rebellion": 12267,
  "Hamburg": 21428,
  "symmetry": 25310,
  "tres": 3371,
  "Chym": 18281,
  "##just": 11932,
  "convert": 13458,
  "70": 2595,
  "12s": 9893,
  "##cy": 1429,
  "dessous": 17270,
  "Charlem": 28200,
  "##uned": 28856,
  "anthes": 24400,
  "490": 19216,
  "\u0661": 267,
  "specul": 7341,
  "Medal": 13280,
  "1844": 6482,
  "##iunt": 27763,
  "experi": 10141,
  "diligently": 25656,
  "##yan": 28421,
  "Benjamin": 9111,
  "manifest": 6984,
  "wild": 4019,
  "moulded": 28399,
  "grants": 13474,
  "##onde": 6280,
  "stopped": 5528,
  "Stre": 29693,
  "spirited": 19055,
  "##AGUE": 26002,
  "fourths": 29706,
  "voltaic": 8477,
  "Thei": 26869,
  "Tid": 20702,
  "ALE": 21707,
  "engines": 17043,
  "urn": 18138,
  "impregnation": 29380,
  "substitution": 25169,
  "iff": 25778,
  "Answer": 10843,
  "forcibly": 17742,
  "Ig": 24057,
  "Worcefter": 28670,
  "##aan": 11618,
  "Rav": 18271,
  "PH": 2905,
  "##aria": 4131,
  "Theod": 9411,
  "\u2079": 331,
  "aussi": 5636,
  "nant": 29145,
  "##min": 3180,
  "##ara": 3486,
  "Ht": 19450,
  "forenoon": 26455,
  "deduces": 26556,
  "stem": 8892,
  "Crum": 21632,
  "oxy": 4134,
  "hearts": 8283,
  "##fthe": 29109,
  "tribus": 21324,
  "##iier": 20024,
  "cursed": 21737,
  "##ieures": 12457,
  "nobles": 16591,
  "coeff": 10763,
  "tp": 14954,
  "517": 25297,
  "land": 1537,
  "Cen": 27756,
  "##ael": 4154,
  "Lac": 17390,
  "withdrawing": 26176,
  "ters": 14046,
  "skill": 7805,
  "##ronom": 3812,
  "cartilage": 22025,
  "costume": 20731,
  "disturbances": 29539,
  "obliter": 17990,
  "Joannis": 25455,
  "abdomen": 10223,
  "LIM": 26544,
  "noir": 24286,
  "repair": 6027,
  "volcanic": 14519,
  "Cap": 5332,
  "Directors": 17458,
  "Walpole": 16699,
  "semper": 16597,
  "Scotland": 3412,
  "oF": 19473,
  "Je": 2746,
  "Stoke": 29018,
  "##thren": 9458,
  "Central": 18718,
  "disclaim": 22353,
  "exposition": 18065,
  "Gael": 23480,
  "sullen": 20140,
  "shares": 24839,
  "deven": 22756,
  "89": 3751,
  "properties": 5354,
  "Malcol": 22360,
  "ANTI": 4279,
  "ind": 1013,
  "congl": 21069,
  "thin": 3203,
  "l2": 29794,
  "192": 7130,
  "commem": 17431,
  "jambs": 28785,
  "##ido": 9440,
  "finde": 27954,
  "fairest": 29590,
  "Hung": 14206,
  "##let": 2621,
  "##vered": 2470,
  "##iferis": 23959,
  "##jour": 18350,
  "Taylor": 8436,
  "##\u00f0": 622,
  "##achment": 19290,
  "\u06f6": 300,
  "render": 2722,
  "Napoleon": 18012,
  "Chem": 5279,
  "Draw": 16442,
  "contained": 3505,
  "##lae": 28426,
  "##igation": 7539,
  "31st": 16369,
  "##5": 408,
  "parfaitement": 19209,
  "neglect": 8925,
  "##mp": 14776,
  "describ": 26275,
  "##calf": 20687,
  "epoque": 14567,
  "berries": 25038,
  "020": 28205,
  "elucid": 17341,
  "PAUL": 28937,
  "Syl": 17309,
  "dens": 9747,
  "Sedley": 23197,
  "##oj": 26144,
  "318": 13764,
  "pres": 981,
  "##UE": 6390,
  "##unta": 29455,
  "rotation": 9777,
  "##retch": 8143,
  "Thur": 15849,
  "##ischer": 25198,
  "enf": 28379,
  "Mild": 8498,
  "ALL": 14128,
  "distribute": 18499,
  "##ersion": 9148,
  "paru": 23315,
  "Brun": 10708,
  "496": 21480,
  "curiosities": 27966,
  "##ici": 2257,
  "##inine": 25546,
  "##ibn": 18280,
  "Mode": 27611,
  "height": 2902,
  "orator": 26918,
  "##atte": 28083,
  "##oco": 27379,
  "\u06cc": 290,
  "abort": 20062,
  "##LY": 9474,
  "Don": 3059,
  "##ize": 2483,
  "hisp": 28810,
  "Hotel": 17564,
  "iT": 21412,
  "Such": 4326,
  "Barlow": 12203,
  "gilt": 5123,
  "Tin": 14712,
  "##se": 663,
  "pref": 5802,
  "idiot": 29702,
  "Signor": 17859,
  "lot": 9038,
  "dist": 1011,
  "##ouncil": 2530,
  "veins": 6990,
  "##land": 957,
  "incidence": 12187,
  "##inement": 13158,
  "1727": 15705,
  "##ten": 1790,
  "path": 5789,
  "sometime": 25771,
  "wall": 2437,
  "extremities": 9118,
  "rappro": 11727,
  "Seymour": 26648,
  "##itationes": 28062,
  "despatch": 24541,
  "uniting": 19457,
  "numbers": 4438,
  "mai": 11732,
  "pay": 2611,
  "fused": 13517,
  "uttered": 9614,
  "Humphrey": 22847,
  "philosophy": 8601,
  "##wards": 1304,
  "assemb": 5592,
  "Quad": 13624,
  "Clare": 5305,
  "Deus": 27259,
  "agent": 8856,
  "##aly": 3135,
  "##ches": 1130,
  "churches": 7103,
  "Gord": 12439,
  "\u03c4": 216,
  "Noah": 26417,
  "cert": 7713,
  "##arried": 26024,
  "comprend": 25146,
  "malicious": 29598,
  "sword": 6879,
  "Sax": 3733,
  "wand": 14963,
  "##lagh": 17187,
  "VjOOQIC": 24689,
  "livre": 27545,
  "custom": 5313,
  "coating": 24562,
  "variously": 24177,
  "regret": 6347,
  "176": 2627,
  "##\u06f9": 587,
  "repl": 16706,
  "puberulis": 29610,
  "Improve": 14427,
  "\u06a9\u06d2": 6132,
  "pulver": 22237,
  "stock": 5616,
  "##HEN": 18391,
  "Peduncul": 25722,
  "LIE": 19602,
  "Jer": 6129,
  "smaller": 4942,
  "##rir": 21200,
  "admiring": 26708,
  "Chambers": 21612,
  "journals": 21456,
  "compan": 4226,
  "meadow": 24968,
  "prick": 26731,
  "##ANNES": 25684,
  "scilicet": 20615,
  "CHURCH": 19444,
  "##ommes": 28578,
  "reflexions": 23388,
  "XXVII": 23017,
  "##flu": 14401,
  "assumption": 20027,
  "shone": 13055,
  "causing": 16402,
  "Oi": 15661,
  "inflamed": 20868,
  "projecting": 13942,
  "lever": 18221,
  "Ame": 25499,
  "1616": 22212,
  "exhibited": 5493,
  "priest": 10158,
  "Gir": 10508,
  "harmony": 15818,
  "balance": 8959,
  "assuring": 28658,
  "##OLOGY": 14821,
  "fog": 14040,
  "chill": 23553,
  "optic": 19825,
  "sheath": 28761,
  "##bling": 14892,
  "transversely": 25271,
  "working": 6682,
  "savage": 11250,
  "FIR": 15117,
  "gan": 16494,
  "##OG": 3852,
  "##\u0627\u062f": 14260,
  "##borough": 6635,
  "struck": 4219,
  "rest": 1569,
  "##cies": 2166,
  "contraire": 13582,
  "iil": 23579,
  "vap": 5696,
  "incont": 28568,
  "early": 2776,
  "Franco": 9453,
  "succour": 28618,
  "Cavan": 19850,
  "sua": 14893,
  "paragraph": 8700,
  "##erver": 26815,
  "sequ": 9626,
  "##ucus": 12952,
  "Lettre": 20471,
  "##iola": 16112,
  "Shirley": 18202,
  "LIBRARY": 24927,
  "1788": 9838,
  "implored": 29478,
  "##lain": 9846,
  "Italian": 6412,
  "loud": 7094,
  "merithalle": 27240,
  "tarsi": 19417,
  "moins": 5434,
  "##iie": 11145,
  "sb": 20353,
  "Show": 26534,
  "destiny": 19293,
  "taxed": 27407,
  "vom": 12872,
  "mill": 3746,
  "confer": 11110,
  "aldermen": 16783,
  "use": 1606,
  "wrongs": 21115,
  "tries": 28570,
  "##uming": 8039,
  "Worship": 23150,
  "##ught": 2442,
  "##bled": 5867,
  "Benn": 12140,
  "##ked": 5448,
  "fishery": 19319,
  "dos": 17276,
  "Tag": 29084,
  "lava": 14824,
  "impertinent": 27322,
  "1801": 8218,
  "fleet": 13100,
  "##ilated": 16183,
  "warrant": 8425,
  "##atorial": 6979,
  "savant": 25717,
  "Vis": 8763,
  "556": 25949,
  "##ruction": 3039,
  "##enda": 22810,
  "variis": 21477,
  "botanistes": 20517,
  "sung": 12985,
  "pointing": 10981,
  "seconds": 7854,
  "Desc": 21564,
  "##oses": 4150,
  "Bard": 24783,
  "##imel": 14995,
  "XXVIII": 25306,
  "supped": 26700,
  "My": 2150,
  "Writings": 17587,
  "Cependant": 25953,
  "Luke": 15129,
  "Wilde": 25727,
  "Patric": 24466,
  "eman": 13878,
  "reflex": 8333,
  "Cob": 18489,
  "##oys": 11786,
  "##rance": 14134,
  "##uation": 10127,
  "unit": 18554,
  "##lii": 9531,
  "Judges": 19186,
  "goth": 28994,
  "Delph": 25891,
  "corres": 25129,
  "Ter": 5465,
  "##liii": 20763,
  "##eling": 12559,
  "folk": 13843,
  "##PH": 7949,
  "bc": 18059,
  "inauguralis": 29666,
  "scarcely": 3535,
  "Consider": 9751,
  "##ynam": 28772,
  "necks": 29343,
  "DI": 13455,
  "fing": 5254,
  "212": 9801,
  "sible": 17502,
  "\u2070": 325,
  "##igan": 10968,
  "abrid": 16549,
  "Antoine": 22661,
  "contempl": 7269,
  "##lean": 26147,
  "Erskine": 25772,
  "Commentarii": 29420,
  "Saxons": 18858,
  "##atas": 19611,
  "##under": 4678,
  "solu": 26622,
  "hearth": 16115,
  "races": 15928,
  "liave": 18111,
  "##lian": 21663,
  "##argin": 19832,
  "##inna": 29820,
  "Cn": 15961,
  "sustain": 16545,
  "Sym": 18873,
  "conti": 21640,
  "childish": 24841,
  "carrier": 25707,
  "##ais": 1379,
  "built": 3964,
  "informant": 27960,
  "donation": 24597,
  "shocking": 24151,
  "##\u00de": 574,
  "advantage": 4091,
  "accurately": 10069,
  "amounts": 16127,
  "Norfolk": 8244,
  "convex": 7046,
  "##ufdem": 19651,
  "Rutland": 23269,
  "AT": 5573,
  "burned": 11473,
  "sum": 1871,
  "shall": 1211,
  "sailed": 16923,
  "Acad": 12455,
  "##OTH": 15969,
  "Deed": 28344,
  "locality": 12888,
  "rock": 4068,
  "Thomond": 17850,
  "ker": 18687,
  "whoever": 22100,
  "Berm": 22677,
  "Butter": 27573,
  "density": 8042,
  "##ermann": 28091,
  "Conv": 24002,
  "propagated": 19675,
  "Epistle": 25176,
  "invol": 6678,
  "abstracted": 24011,
  "Birm": 4941,
  "conftans": 22065,
  "shrub": 16949,
  "Crew": 27119,
  "cup": 5552,
  "Elect": 6239,
  "pursue": 10626,
  "nuts": 22031,
  "cats": 28272,
  "mes": 5849,
  "##OUR": 8832,
  "##hab": 3644,
  "Principia": 29418,
  "gladly": 20174,
  "Privy": 11228,
  "##mine": 15709,
  "198": 9312,
  "##icules": 16729,
  "##rav": 23245,
  "STE": 14200,
  "Mend": 14743,
  "Vinc": 11162,
  "assistance": 5747,
  "sunset": 21510,
  "explosion": 14228,
  "Ui": 13010,
  "Patron": 16322,
  "##ERS": 4116,
  "distur": 5099,
  "turf": 17752,
  "Bab": 8409,
  "travels": 16719,
  "whatever": 3932,
  "deny": 10749,
  "Banks": 9920,
  "taken": 1532,
  "63": 2682,
  "continuous": 11944,
  "astronomers": 21649,
  "symmet": 14681,
  "burden": 15640,
  "DAY": 26361,
  "Spit": 29355,
  "choosing": 28207,
  "##pta": 10907,
  "intitled": 26055,
  "Count": 2340,
  "puzz": 16148,
  "vascular": 16994,
  "seventh": 10792,
  "compend": 19908,
  "benefit": 7093,
  "Candolle": 19528,
  "album": 28443,
  "sp": 892,
  "Ralph": 8366,
  "1562": 21093,
  "alkal": 9238,
  "##ifts": 11641,
  "destitute": 15748,
  "repast": 24031,
  "botan": 6542,
  "##oui": 21660,
  "unn": 27342,
  "paras": 16961,
  "bargain": 16866,
  "visiting": 13448,
  "legislature": 24824,
  "transversale": 23664,
  "endless": 23347,
  "remedies": 20456,
  "##fty": 7658,
  "##\u0627\u06c1": 12161,
  "sions": 13345,
  "Slaves": 25724,
  "Catalog": 10777,
  "##itas": 10634,
  "\u0627\u067e\u0646\u06d2": 25686,
  "Monaster": 14117,
  "spade": 28467,
  "##ianus": 12398,
  "remembered": 7659,
  "bituminous": 27100,
  "shrink": 25919,
  "Grad": 29996,
  "##ASE": 19633,
  "235": 11372,
  "rapidity": 13135,
  "baby": 18199,
  "cautious": 20716,
  "##isent": 23374,
  "dre": 13516,
  "hues": 29330,
  "host": 6150,
  "license": 13531,
  "de": 680,
  "Passage": 20541,
  "candle": 7990,
  "335": 12895,
  "solit": 14344,
  "deeds": 12101,
  "##terre": 20255,
  "i8": 18015,
  "ruffian": 23727,
  "het": 20879,
  "MAGNETISM": 23448,
  "membranous": 22842,
  "glanduloso": 28633,
  "habitation": 19128,
  "##irn": 26075,
  "unil": 25938,
  "Chron": 5276,
  "i3": 19809,
  "laisse": 24490,
  "moral": 6477,
  "elim": 24205,
  "infinitely": 12783,
  "navig": 14935,
  "1831": 5267,
  "640": 22234,
  "mostly": 12945,
  "kill": 10510,
  "eloigne": 28680,
  "destroy": 4064,
  "Civ": 6995,
  "Academic": 17736,
  "Pharmac": 26225,
  "interposed": 12658,
  "385": 15440,
  "##antur": 9054,
  "ilie": 27898,
  "jug": 11486,
  "Stars": 11187,
  "1571": 23324,
  "Brewster": 10112,
  "\u00d7": 163,
  "##arden": 3381,
  "##iliar": 18603,
  "savages": 26282,
  "Han": 8486,
  "honey": 16799,
  "Ej": 22372,
  "##icc": 8766,
  "meteor": 9907,
  "##BLE": 27213,
  "stare": 25435,
  "Lut": 21550,
  "Prodrom": 28893,
  "throat": 10711,
  "Parsons": 25573,
  "Everard": 11279,
  "endeavoured": 7066,
  "obsolete": 16865,
  "necessity": 5469,
  "speeches": 19349,
  "Wednesday": 9810,
  "crowd": 6205,
  "##amations": 27665,
  "##acli": 29803,
  "sheriff": 19919,
  "Passy": 11953,
  "singularly": 19129,
  "Jol": 24893,
  "pope": 15834,
  "aston": 6102,
  "Cerv": 24309,
  "hemisphere": 16054,
  "dex": 13399,
  "manufactured": 19574,
  "sensible": 5598,
  "hackney": 19398,
  "Sph\u0153ria": 26898,
  "cet": 7461,
  "heart": 1706,
  "suggest": 8840,
  "tavern": 13941,
  "bra": 2712,
  "repug": 26737,
  "lines": 3102,
  "##imens": 15075,
  "It": 917,
  "##yrus": 17980,
  "CHEM": 23509,
  "barbar": 13993,
  "instant": 4034,
  "Our": 5029,
  "##villa": 29853,
  "append": 5893,
  "##\u0142": 569,
  "perpet": 6410,
  "Gd": 11602,
  "##wing": 2568,
  "sugg": 3683,
  "Blimber": 24569,
  "##oyd": 12523,
  "Toots": 13868,
  "Appeal": 29490,
  "bounds": 15161,
  "##cet": 12711,
  "26": 1442,
  "Whether": 7940,
  "college": 12868,
  "inferne": 25757,
  "equality": 16226,
  "Tul": 23830,
  "Phillips": 14119,
  "morality": 22258,
  "Hence": 5128,
  "##NEY": 22362,
  "asc": 2912,
  "866": 28201,
  "flash": 17831,
  "conserv": 14997,
  "comply": 14372,
  "newspaper": 15008,
  "Pompe": 18324,
  "sellers": 12028,
  "Brink": 21765,
  "##idas": 20925,
  "##ters": 2514,
  "Certainly": 15502,
  "##lea": 15483,
  "Mexico": 14125,
  "exclamation": 29169,
  "740": 28150,
  "drinking": 10631,
  "##esse": 9763,
  "soci": 8115,
  "crystalline": 9310,
  "inflex": 17944,
  "Ard": 8493,
  "slower": 26273,
  "BOT": 17077,
  "voy": 4989,
  "punctured": 11189,
  "##FFER": 27028,
  "gale": 17005,
  "Uss": 29431,
  "\u2082": 334,
  "tin": 4126,
  "export": 14334,
  "oblong": 4241,
  "borne": 8343,
  "308": 13968,
  "##ther": 793,
  "Baronet": 18737,
  "puff": 24994,
  "Atmosp": 20464,
  "cuc": 29392,
  "##oux": 25319,
  "sag": 12347,
  "Salmon": 22056,
  "Duties": 24604,
  "Day": 7245,
  "Sur": 2538,
  "systeme": 14414,
  "ll": 2473,
  "Win": 8373,
  "Man": 2161,
  "##li": 852,
  "foreign": 4202,
  "Blue": 13835,
  "smith": 23462,
  "fighting": 15984,
  "##ache": 6943,
  "heels": 20591,
  "##la": 735,
  "Saxon": 6480,
  "Artific": 27454,
  "ag": 913,
  "##unk": 5256,
  "backwards": 14922,
  "pill": 5587,
  "##enant": 7759,
  "acquaintance": 6644,
  "sensation": 9285,
  "multiplied": 12430,
  "##RI": 3095,
  "laterales": 22540,
  "feeling": 4389,
  "##esis": 29394,
  "1753": 13514,
  "rate": 4216,
  "##iem": 17828,
  "tapering": 29548,
  "towns": 7707,
  "ecailles": 25081,
  "Dist": 5846,
  "sickly": 25301,
  "subordinate": 23108,
  "bordering": 29371,
  "capac": 28720,
  "anticipated": 15754,
  "Nob": 8264,
  "notis": 13459,
  "phil": 3399,
  "Aus": 26487,
  "duce": 21506,
  "mouvement": 14227,
  "bat": 9220,
  "tolerable": 17092,
  "donc": 9660,
  "rumin": 28554,
  "images": 10097,
  "Maje": 20123,
  "angle": 3438,
  "##ertim": 26079,
  "Epoch": 16113,
  "Countess": 7165,
  "Ogam": 25580,
  "##anthrop": 20676,
  "acquir": 14665,
  "Ell": 4504,
  "lakes": 13917,
  "<|dost|>": 12,
  "Dix": 18946,
  "subd": 10071,
  "Spain": 5321,
  "##ttt": 26472,
  "Gregor": 12753,
  "Lloyd": 14499,
  "##age": 954,
  "##lot": 23550,
  "Lys": 23693,
  "cox": 28911,
  "prime": 11865,
  "naturalist": 25997,
  "Chim": 14169,
  "DUBLIN": 17568,
  "Domini": 13872,
  "anywhere": 16037,
  "already": 2217,
  "inconvenience": 13059,
  "ame": 26577,
  "demonstrate": 21095,
  "##68": 18404,
  "peculiarly": 12059,
  "congregation": 17638,
  "appearances": 9259,
  "Inner": 28380,
  "judic": 9603,
  "##alle": 2796,
  "Num": 9968,
  "##noon": 5461,
  "##grave": 12139,
  "Hills": 21166,
  "##omon": 11688,
  "##aston": 9621,
  "pect": 16043,
  "##ushes": 15334,
  "managed": 13357,
  "calculate": 19963,
  "Pl": 1678,
  "Bow": 6246,
  "##iline": 19729,
  "Herschel": 8045,
  "Compt": 25791,
  "Cleop": 18755,
  "##rief": 3793,
  "LT": 27515,
  "distressed": 19195,
  "##iiis": 24906,
  "##L": 418,
  "experiment": 2706,
  "circ": 1251,
  "ads": 19774,
  "imme": 14844,
  "Truth": 17647,
  "reducing": 16594,
  "240": 9486,
  "Chesterfield": 28216,
  "Fa": 5121,
  "swore": 20387,
  "chemistry": 15097,
  "heavier": 18337,
  "conduit": 28056,
  "##inum": 4558,
  "instituted": 13393,
  "Tide": 21193,
  "Leonis": 27575,
  "Bann": 19266,
  "messu": 21402,
  "spiral": 9221,
  "##ondale": 8056,
  "song": 6898,
  "shilling": 13230,
  "concerned": 7468,
  "trial": 5395,
  "Amazon": 29614,
  "022": 28991,
  "basal": 21513,
  "misch": 23951,
  "##sc": 28692,
  "##urdy": 28978,
  "See": 1333,
  "Rebe": 14638,
  "Tavern": 18053,
  "APP": 11083,
  "##\u03c3": 539,
  "Papal": 29711,
  "suff": 1634,
  "stated": 3429,
  "##osi": 9637,
  "##thening": 29884,
  "regularity": 17630,
  "Bt": 12820,
  "fuit": 18247,
  "Quel": 25514,
  "similar": 2376,
  "##ular": 1061,
  "custody": 12846,
  "jur": 15266,
  "##mum": 18690,
  "##hips": 16150,
  "\u00b2": 151,
  "elementary": 15115,
  "##im": 672,
  "soient": 25255,
  "tlic": 9776,
  "tenure": 28094,
  "##dale": 9504,
  "intit": 14493,
  "kidney": 24508,
  "Chand": 24287,
  "morn": 13912,
  "Inf": 6891,
  "courte": 16296,
  "##iones": 12652,
  "Palat": 20072,
  "foliol": 12068,
  "respect": 1579,
  "novel": 8758,
  "##owing": 2944,
  "poil": 22228,
  "##aternity": 20854,
  "000": 2484,
  "bench": 18272,
  "##ologic": 21918,
  "IM": 8811,
  "##UF": 26235,
  "via": 16914,
  "Deveril": 17530,
  "Niger": 21469,
  "finer": 17791,
  "ADD": 21242,
  "election": 7413,
  "##12": 11164,
  "Constance": 18981,
  "Din": 22371,
  "##othec": 14324,
  "placent": 10575,
  "additions": 10464,
  "mask": 17958,
  "##tf": 9878,
  "gallantry": 26175,
  "BE": 6710,
  "GER": 25578,
  "Reverse": 28047,
  "Was": 5046,
  "##illa": 5004,
  "acid": 1794,
  "##istes": 10858,
  "1567": 23224,
  "creased": 28973,
  "1761": 11143,
  "##18": 16446,
  "alluded": 8255,
  "##ands": 13536,
  "Fol": 2903,
  "tablet": 23529,
  "##irect": 17188,
  "##ertain": 1274,
  "Tent": 25358,
  "Cath": 5479,
  "##fli": 16201,
  "involving": 24409,
  "put": 1630,
  "4000": 28730,
  "wonderful": 8975,
  "declaring": 17435,
  "SAB": 18773,
  "withdrawn": 14501,
  "dessus": 12990,
  "philosophical": 12436,
  "##indle": 28815,
  "ratione": 12691,
  "lon": 10798,
  "##u": 397,
  "ville": 20160,
  "continent": 11601,
  "emb": 2782,
  "raised": 3803,
  "Giovanni": 21082,
  "##oured": 8934,
  "baths": 21244,
  "Magnesia": 25142,
  "Febru": 4513,
  "##ident": 1653,
  "flag": 12834,
  "Guard": 20596,
  "##kl": 15254,
  "Wis": 20948,
  "juven": 26259,
  "1824": 5215,
  "variation": 6048,
  "flashed": 17644,
  "dared": 10869,
  "##alogical": 17526,
  "##istern": 18903,
  "##ak": 764,
  "duke": 8358,
  "boot": 24360,
  "##pius": 21416,
  "##han": 9415,
  "tiges": 15326,
  "Dres": 28077,
  "##Oi": 22562,
  "##isters": 15398,
  "##encies": 13701,
  "token": 17155,
  "Orig": 3112,
  "weeks": 5702,
  "Mitchell": 21879,
  "Lyn": 12838,
  "##ist": 734,
  "##ifol": 8098,
  "##ota": 13865,
  "evils": 12951,
  "grandfather": 15184,
  "diamet": 6751,
  "##oyle": 18817,
  "Carb": 29582,
  "Dar": 8941,
  "du": 1112,
  "Milan": 16371,
  "##pan": 3108,
  "##eston": 11260,
  "Address": 8365,
  "##SACTIONS": 3396,
  "droit": 25809,
  "Rocks": 27555,
  "bid": 9969,
  "Derwent": 21923,
  "Neverthe": 13824,
  "corporation": 17653,
  "guilty": 8199,
  "rely": 20846,
  "landlord": 10903,
  "\u0628": 235,
  "##wald": 21012,
  "3rd": 9354,
  "jaune": 18227,
  "pearl": 20732,
  "reckless": 28439,
  "##ifc": 20099,
  "##enet": 20738,
  "dispersive": 24779,
  "finishing": 29875,
  "indisc": 21252,
  "abyss": 28087,
  "\u0399": 189,
  "sheet": 9855,
  "Allan": 23881,
  "##38": 19423,
  "Austr": 10363,
  "few": 1538,
  "rebus": 18339,
  "Bub": 29672,
  "mother": 2419,
  "fav": 4536,
  "##ames": 1373,
  "laure": 23433,
  "\u2122": 340,
  "thread": 6996,
  "\u0628\u0627": 19956,
  "rl": 25015,
  "timber": 8304,
  "spect": 4151,
  "Mult": 19877,
  "##pe": 714,
  "rece": 1438,
  "Dans": 6999,
  "mere": 2559,
  "verba": 27094,
  "discharged": 9868,
  "##idal": 9619,
  "predict": 22490,
  "Pra": 9297,
  "besie": 25636,
  "1694": 18378,
  "ers": 16487,
  "baryta": 23540,
  "463": 21724,
  "enjoyed": 9829,
  "aoe": 26294,
  "##aL": 21472,
  "strat": 18285,
  "##jan": 25695,
  "##enoon": 25283,
  "emend": 18471,
  "carelessly": 27115,
  "Inquisition": 18640,
  "essential": 7432,
  "##ERSON": 22484,
  "##idora": 11431,
  "##AMA": 26629,
  "VE": 15178,
  "solum": 25132,
  "##TING": 8831,
  "authentic": 17937,
  "##olph": 7885,
  "expend": 11937,
  "mittee": 23739,
  "drunken": 20576,
  "quietly": 12870,
  "\u2157": 345,
  "equation": 5508,
  "Earls": 18161,
  "Gran": 6850,
  "##OI": 20188,
  "##ION": 7515,
  "Caft": 23382,
  "CI": 14840,
  "fidel": 16277,
  "Ges": 12281,
  "mortem": 29827,
  "Lav": 16687,
  "##GENCE": 26145,
  "ESE": 28031,
  "Distances": 24244,
  "gover": 16270,
  "Reprint": 15806,
  "Chaucer": 23929,
  "Reform": 12863,
  "Muse": 4125,
  "archae": 15175,
  "assemblage": 22436,
  "Fle": 6737,
  "Produ": 17085,
  "##sa": 10526,
  "basins": 28148,
  "accession": 17553,
  "Young": 6648,
  "##icula": 11929,
  "pieds": 23171,
  "weighs": 25682,
  "invalid": 22766,
  "taches": 27615,
  "disgust": 16012,
  "##rary": 5790,
  "Lis": 7142,
  "Meeting": 5720,
  "putting": 6637,
  "espe": 2116,
  "triumph": 6745,
  "Botanic": 29379,
  "##\u2666": 573,
  "65": 2772,
  "monach": 21916,
  "Leveson": 21520,
  "rul": 8427,
  "Yarmouth": 23695,
  "lowing": 17087,
  "FIRST": 15951,
  "conveying": 19670,
  "Francisc": 10315,
  "vacant": 14669,
  "##OIS": 24166,
  "##woman": 15510,
  "beds": 7283,
  "anecd": 17076,
  "plete": 17525,
  "cold": 2794,
  "suivre": 28676,
  "277": 12996,
  "##ounding": 6868,
  "##estone": 7495,
  "810": 28727,
  "Parts": 7514,
  "col": 1338,
  "##ayed": 19346,
  "pul": 5226,
  "ware": 13190,
  "barytes": 24017,
  "shorter": 11723,
  "##apa": 25224,
  "which": 703,
  "Aldermen": 14194,
  "cities": 11269,
  "DOM": 29039,
  "Ens": 18122,
  "frown": 21072,
  "Anatom": 10802,
  "knocking": 25075,
  "Bran": 17420,
  "prolong": 10499,
  "Charges": 24081,
  "obliquely": 18740,
  "defined": 10804,
  "##olus": 20232,
  "EDWARD": 21120,
  "##entia": 7941,
  "##issimus": 19387,
  "lend": 14483,
  "##ba": 3823,
  "impressions": 10351,
  "somewhat": 3360,
  "casement": 26280,
  "grasped": 27949,
  "privately": 15126,
  "##ophagus": 21479,
  "developpement": 10099,
  "rs": 11258,
  "comforts": 23472,
  "##onents": 23486,
  "Records": 11063,
  "ready": 3707,
  "MDCCCXX": 17546,
  "ascertain": 4596,
  "##TIVE": 23251,
  "tandis": 11318,
  "daugh": 2714,
  "##\ua76d": 618,
  "deme": 15027,
  "Cost": 11441,
  "felicity": 26512,
  "fon": 9169,
  "196": 10306,
  "produc": 27300,
  "infernal": 23851,
  "abond": 22806,
  "confirms": 23105,
  "Epistles": 25106,
  "1645": 20126,
  "sulphurous": 26710,
  "omit": 18637,
  "Sil": 4908,
  "##che": 903,
  "stamp": 11432,
  "teret": 26465,
  "torment": 19388,
  "litter": 18344,
  "conclusion": 5463,
  "Fluids": 28313,
  "##\u060f": 582,
  "Gould": 23668,
  "Pott": 26762,
  "duodec": 24396,
  "pronounced": 10921,
  "4d": 15807,
  "cartilages": 27072,
  "plun": 10635,
  "09": 4978,
  "approaches": 17247,
  "Lus": 24786,
  "Caes": 9963,
  "##cun": 23700,
  "fortun": 8468,
  "##uin": 9104,
  "Arund": 4571,
  "ORIG": 22498,
  "beach": 18898,
  "returned": 2597,
  "embraces": 27034,
  "blast": 20449,
  "PREFACE": 24218,
  "WS": 22751,
  "animaux": 16225,
  "chromium": 29425,
  "Dover": 11463,
  "extravagant": 20700,
  "##oea": 25101,
  "ot": 3504,
  "Keeper": 16830,
  "Nem": 26446,
  "##endi": 26034,
  "##ioners": 16332,
  "debate": 20087,
  "delegate": 28165,
  "##IUS": 6128,
  "dawn": 14294,
  "ZL": 28551,
  "pedon": 28532,
  "analysed": 21729,
  "Santa": 26942,
  "since": 1856,
  "56": 2099,
  "ive": 24422,
  "Encycloped": 26440,
  "Rosamond": 28017,
  "sense": 3875,
  "strikingly": 28538,
  "theorem": 13215,
  "##uk": 13171,
  "address": 4128,
  "##\u0645\u0627": 22973,
  "est": 1095,
  "decid": 18146,
  "##AST": 10264,
  "calamity": 20455,
  "morrow": 5611,
  "counted": 17804,
  "gravities": 29060,
  "##ioribus": 6769,
  "resigned": 16478,
  "itt": 22884,
  "##reng": 3616,
  "Nev": 23772,
  "notices": 10809,
  "##itar": 24108,
  "##inia": 12604,
  "Whom": 27995,
  "flint": 9700,
  "Mit": 11661,
  "quent": 26194,
  "rabbit": 19112,
  "porphyry": 25460,
  "\u03a7": 195,
  "##inage": 14412,
  "pendulums": 27157,
  "Marcus": 19839,
  "##ilium": 14222,
  "##ioli": 27184,
  "reading": 4932,
  "reptile": 27038,
  "year": 1404,
  "similarity": 20848,
  "Capell": 24494,
  "varied": 8869,
  "extremely": 4888,
  "##ascar": 21571,
  "Knight": 5028,
  "Institutions": 26098,
  "handle": 11724,
  "disappearance": 21162,
  "Cloyne": 25097,
  "615": 28348,
  "1738": 16324,
  "striae": 24085,
  "Sund": 6216,
  "tary": 19581,
  "##OME": 12013,
  "ped": 3577,
  "Memoires": 10691,
  "digging": 19939,
  "Friar": 23781,
  "dispatch": 27354,
  "007": 29758,
  "Island": 4873,
  "connect": 7513,
  "Brief": 21583,
  "capacity": 9257,
  "emperors": 29921,
  "Rare": 25738,
  "NO": 7045,
  "possessing": 12789,
  "Apparent": 27886,
  "belie": 1884,
  "Tabula": 21404,
  "gir": 3042,
  "Reply": 18628,
  "whether": 2091,
  "##patrick": 16013,
  "##ances": 1322,
  "Sanitary": 12670,
  "Commercial": 23634,
  "sale": 4721,
  "##withstanding": 6449,
  "silent": 7136,
  "reck": 7207,
  "##igible": 11406,
  "##ACH": 10491,
  "natives": 9347,
  "##ional": 16640,
  "Conrad": 29633,
  "mist": 3198,
  "COUNTY": 17894,
  "##PORT": 20355,
  "devo": 20725,
  "excess": 5220,
  "Ber": 2929,
  "knife": 8189,
  "thev": 23839,
  "bubbles": 19190,
  "##ERAL": 12460,
  "Lomb": 16714,
  "largest": 7912,
  "Tub": 14693,
  "##ONG": 16151,
  "Bin": 29318,
  "remar": 7016,
  "Rise": 23177,
  "##bn": 9678,
  "##lec": 27528,
  "commun": 7971,
  "dition": 18273,
  "fab": 9262,
  "rans": 24656,
  "1655": 18457,
  "##undy": 21530,
  "husbands": 26427,
  "Bronze": 15002,
  "Away": 28685,
  "rabbits": 26136,
  "Honorary": 14429,
  "##ino": 3408,
  "elles": 4507,
  "iy": 12088,
  "leader": 16211,
  "##anche": 12095,
  "Bradley": 17477,
  "459": 22602,
  "jack": 18961,
  "Practical": 15401,
  "deposited": 8267,
  "##ince": 1319,
  "crom": 15275,
  "ecli": 6786,
  "membranes": 13084,
  "108": 6252,
  "recording": 27996,
  "Knox": 17550,
  "\u0664": 270,
  "##\u067e": 472,
  "sint": 23056,
  "seems": 2389,
  "rotundatis": 22188,
  "MUS": 16199,
  "\u0397": 187,
  "bolt": 21869,
  "Button": 28821,
  "473": 22148,
  "##geant": 23058,
  "discern": 10505,
  "\u0131": 171,
  "##UES": 22196,
  "conjunct": 28885,
  "##ning": 1145,
  "ago": 3645,
  "Ff": 26102,
  "##V": 462,
  "Und": 20755,
  "remarkably": 10774,
  "Trade": 9951,
  "##\u06a9\u06cc": 14842,
  "marine": 12627,
  "##ffic": 15346,
  "Venetia": 10172,
  "tors": 15760,
  "important": 2953,
  "concerns": 15408,
  "compte": 25784,
  "Jameson": 20045,
  "earthqu": 11170,
  "mee": 20660,
  "##amond": 24589,
  "1772": 11897,
  "##ade": 921,
  "##itative": 29687,
  "dragon": 28889,
  "Haredale": 29845,
  "resin": 11515,
  "##pir": 3483,
  "sparing": 21203,
  "Forst": 23039,
  "Sack": 15252,
  "revenge": 12165,
  "##eple": 16999,
  "##raction": 2890,
  "trunc": 12008,
  "1633": 21377,
  "##kets": 20704,
  "consequ": 2228,
  "##ently": 1222,
  "XXXI": 23045,
  "Lors": 22647,
  "fle": 3496,
  "tile": 14674,
  "sobs": 28760,
  "Newport": 21353,
  "##ef": 7221,
  "offrent": 18004,
  "quondam": 25437,
  "adopted": 4954,
  "Secret": 3428,
  "##ounced": 5588,
  "Meat": 23348,
  "Ml": 16547,
  "verte": 7369,
  "##ounted": 15168,
  "ramis": 13248,
  "2nd": 7756,
  "Manfred": 22288,
  "refuse": 9555,
  "##14": 12374,
  "verd": 9779,
  "Sover": 16243,
  "beh": 2273,
  "1524": 23414,
  "102": 6427,
  "CU": 20779,
  "##\u25bc": 527,
  "responsible": 17826,
  "##uus": 18567,
  "Problem": 24230,
  "42": 1932,
  "Str": 5943,
  "raison": 19220,
  "##thus": 6418,
  "rational": 13909,
  "olefiant": 23200,
  "mentions": 9352,
  "ed": 1374,
  "Leigh": 16207,
  "incident": 7229,
  "defeated": 20371,
  "cover": 4810,
  "honesty": 23880,
  "foss": 7293,
  "rags": 23106,
  "amongst": 4711,
  "fragments": 7243,
  "penalty": 21968,
  "digest": 19893,
  "esp": 9928,
  "mighty": 6743,
  "Darcy": 21975,
  "candid": 10136,
  "Knowledge": 19163,
  "ships": 5892,
  "effects": 3515,
  "CA": 10319,
  "Westropp": 18008,
  "442": 21623,
  "temptation": 18255,
  "\u0142": 172,
  "<|chapter|>": 40,
  "Enquiry": 22049,
  "racines": 12836,
  "prism": 6479,
  "##ontal": 20314,
  "palaces": 27400,
  "devi": 13790,
  "##jus": 3032,
  "Where": 4284,
  "##aund": 29106,
  "##iep": 8850,
  "1828": 4838,
  "Tenn": 20920,
  "1704": 19541,
  "1822": 5233,
  "##hest": 4152,
  "snatched": 26675,
  "considers": 8967,
  "Compare": 25174,
  "Chinese": 9545,
  "##aneously": 9601,
  "\u06c1\u0648": 8712,
  "##OUS": 5457,
  "##lew": 19812,
  "imputed": 24869,
  "ire": 15135,
  "1683": 16859,
  "VOLUME": 21921,
  "drive": 10455,
  "su": 712,
  "##urance": 7812,
  "##rie": 2244,
  "awak": 13255,
  "less": 1550,
  "##enzo": 24217,
  "##65": 16266,
  "720": 23977,
  "iL": 12421,
  "petite": 13569,
  "Stevens": 15704,
  "whicli": 15092,
  "astronomy": 14544,
  "robber": 21606,
  "lecta": 26261,
  "FOUND": 25925,
  "377": 15639,
  "##crit": 20209,
  "Og": 19852,
  "appropri": 8258,
  "ming": 7133,
  "China": 7746,
  "feather": 10341,
  "enc": 2636,
  "residuum": 22926,
  "New": 1632,
  "asleep": 11775,
  "##ics": 2509,
  "##ple": 1381,
  "complement": 22076,
  "backward": 18887,
  "612": 28920,
  "Nancy": 28078,
  "enthusiasm": 14308,
  "resolute": 18885,
  "erit": 19230,
  "your": 1048,
  "bec": 1169,
  "Gle": 17128,
  "fulfil": 14880,
  "##book": 23211,
  "sublimate": 22216,
  "interrupting": 29310,
  "nobility": 15305,
  "vain": 5361,
  "Sol": 3843,
  "##raged": 22380,
  "whole": 1461,
  "\ua759": 379,
  "Cand": 7948,
  "Pop": 8314,
  "adhered": 20565,
  "invaluable": 25182,
  "termine": 20361,
  "Presents": 28723,
  "Fossil": 20975,
  "##fort": 2393,
  "resisted": 21527,
  "bere": 24222,
  "230": 9871,
  "##alion": 25091,
  "judged": 12388,
  "500": 6544,
  "experiences": 13340,
  "events": 6171,
  "sublime": 17476,
  "DECAISNE": 29185,
  "fuel": 18026,
  "Jocelyn": 17075,
  "raises": 29591,
  "recommending": 18592,
  "pred": 8607,
  "ZA": 29498,
  "illuminating": 26555,
  "employment": 7920,
  "##chers": 12923,
  "inspire": 24079,
  "peep": 20067,
  "##oyne": 16564,
  "king": 2163,
  "##wl": 24660,
  "resins": 29982,
  "irrit": 9025,
  "oftener": 27922,
  "Sex": 26377,
  "precise": 5606,
  "Reprinted": 21334,
  "Leipzig": 21221,
  "Wrotham": 29657,
  "showing": 5782,
  "remarqu": 13470,
  "Sn": 8117,
  "convulsions": 23196,
  "Cl": 1313,
  "##quel": 7403,
  "adjo": 7727,
  "dimin": 3794,
  "desire": 4489,
  "loose": 7226,
  "foundations": 15123,
  "##zation": 28557,
  "confirmation": 11941,
  "Japanese": 29133,
  "withered": 25242,
  "##diction": 16164,
  "##iter": 1803,
  "##illis": 22591,
  "1610": 15019,
  "cares": 17901,
  "Londonderry": 9634,
  "dictionary": 27890,
  "overwhelmed": 23897,
  "GAL": 28323,
  "CX": 21982,
  "unsatisf": 25527,
  "Orle": 22103,
  "Wo": 10699,
  "tout": 4074,
  "gar": 5405,
  "obliged": 5044,
  "ungrateful": 27976,
  "JOURN": 12298,
  "Haye": 26679,
  "Syriac": 22890,
  "implement": 29155,
  "point": 1301,
  "deli": 3489,
  "guests": 13164,
  "Madeira": 24415,
  "Cambr": 20575,
  "Prussia": 19863,
  "obliterated": 23020,
  "LADY": 22742,
  "vent": 3513,
  "C\u00e6": 27290,
  "commenced": 6812,
  "Dif": 6078,
  "##edy": 5143,
  "Mall": 12839,
  "accessible": 17029,
  "depose": 27304,
  "atmospheric": 11658,
  "lorsqu": 16490,
  "##bec": 24804,
  "429": 18334,
  "##iere": 3770,
  "volat": 11433,
  "behaviour": 11741,
  "brim": 20382,
  "##ank": 2041,
  "##ELLI": 18088,
  "##bedded": 15574,
  "integris": 28636,
  "##anger": 11134,
  "44": 1692,
  "dents": 18794,
  "recipro": 29481,
  "epid": 11411,
  "Oblong": 21071,
  "Cons": 4533,
  "Christian": 3007,
  "carbon": 3638,
  "situate": 22153,
  "$": 47,
  "sil": 1858,
  "\u2077": 329,
  "antiquaries": 27193,
  "ticularly": 28451,
  "bold": 6079,
  "ade": 8924,
  "##iasm": 13564,
  "XLV": 28358,
  "withd": 6352,
  "FA": 11972,
  "symp": 6548,
  "##\u0645": 475,
  "millim": 22264,
  "Madras": 14070,
  "Musidora": 11848,
  "##enance": 3280,
  "lenses": 15631,
  "##\u03ba": 556,
  "##uee": 19156,
  "8yo": 15986,
  "apprehended": 19224,
  "robbed": 18110,
  "narr": 5689,
  "abounds": 24429,
  "##abouts": 21746,
  "fraud": 19279,
  "extinct": 15947,
  "1826": 5172,
  "##berg": 2588,
  "##ush": 3551,
  "Stokes": 14682,
  "##28": 16984,
  "Lincoln": 7357,
  "solution": 3131,
  "format": 20847,
  "spars": 16707,
  "reality": 9304,
  "##atham": 14147,
  "\u06f5": 299,
  "ga": 7688,
  "##owder": 5242,
  "praying": 21848,
  "##yson": 23183,
  "Sonn": 26143,
  "1746": 16629,
  "##respond": 2650,
  "beaute": 18654,
  "SW": 9051,
  "Newtown": 22920,
  "Fu": 22748,
  "augmentation": 27031,
  "Against": 25491,
  "sped": 18373,
  "Henrietta": 17498,
  "Magdalen": 26180,
  "deserve": 11140,
  "remained": 3679,
  "##8": 443,
  "the": 624,
  "blush": 15543,
  "\u0665": 271,
  "McC": 26637,
  "pit": 6328,
  "##OT": 3443,
  "##ique": 1851,
  "\u06af": 285,
  "oppor": 28965,
  "recovering": 17028,
  "Leyden": 17588,
  "evid": 4270,
  "467": 22129,
  "Hamilton": 10002,
  "##cli": 7288,
  "##oul": 4792,
  "rural": 20953,
  "*": 53,
  "nucle": 7439,
  "Inspect": 12538,
  "utterly": 10436,
  "Continent": 10486,
  "##gent": 7538,
  "elevated": 9296,
  "Antrim": 13048,
  "management": 10712,
  "abbey": 10707,
  "colonies": 14771,
  "mixt": 5389,
  "ez": 20022,
  "|": 135,
  "adver": 20761,
  "##ained": 1156,
  "##qr": 29978,
  "fermentation": 22740,
  "gen": 2232,
  "##acht": 12826,
  "511": 28249,
  "COD": 29932,
  "##ood": 875,
  "aorta": 22521,
  "Inscriptions": 19410,
  "##onshire": 11038,
  "609": 28529,
  "##ingo": 28755,
  "##ig": 677,
  "Amongst": 19558,
  "fen": 17032,
  "Richardson": 15736,
  "Ske": 16265,
  "inherited": 29605,
  "##uti": 12058,
  "Excess": 24173,
  "##ACK": 5944,
  "cros": 23424,
  "##ancy": 3870,
  "collector": 24990,
  "##fford": 25324,
  "esse": 13540,
  "cavite": 17650,
  "carefully": 5447,
  "floris": 26848,
  "Incl": 14919,
  "S": 94,
  "Bom": 27511,
  "EP": 26330,
  "Iron": 7788,
  "Monaghan": 27776,
  "##quir": 1559,
  "punctate": 15641,
  "Kingston": 25849,
  "tedious": 17547,
  "##rol": 20800,
  "##ure": 783,
  "ley": 13426,
  "##osoph": 2797,
  "##erv": 834,
  "grim": 18800,
  "rung": 29331,
  "castell": 28061,
  "\u0631\u0627": 23456,
  "CHRIS": 27508,
  "454": 21750,
  "Dire": 5058,
  "willing": 8342,
  "fine": 1939,
  "##etic": 5065,
  "architectural": 23508,
  "Aristotle": 21149,
  "PROF": 20278,
  "Italiano": 28832,
  "received": 2207,
  "Ph": 1364,
  "##pi": 5159,
  "immediatement": 26586,
  "##ragh": 20060,
  "##ij": 4672,
  "Recherches": 13382,
  "weie": 26029,
  "PHYS": 21452,
  "passage": 3501,
  "luxury": 18155,
  "overlooked": 19605,
  "Pere": 15569,
  "antid": 24634,
  "##coming": 19202,
  "S2": 23670,
  "\u00a32": 10119,
  "##antium": 22624,
  "pau": 10782,
  "disclosed": 27927,
  "Morgan": 13424,
  "##loo": 16468,
  "##ussia": 11740,
  "several": 1561,
  "Wentworth": 23860,
  "##UT": 5473,
  "##vill": 19097,
  "pursuit": 12040,
  "tailor": 22666,
  "SIR": 14418,
  "satin": 24500,
  "234": 11354,
  "##acre": 14421,
  "eminence": 14489,
  "##issant": 13018,
  "Rupert": 24012,
  "##F": 446,
  "stolen": 17930,
  "total": 5506,
  "appur": 23094,
  "travail": 17126,
  "widow": 8206,
  "suppos": 17887,
  "feathers": 16156,
  "nitrogen": 12782,
  "Anniversary": 19219,
  "tropical": 22061,
  "##ologica": 22125,
  "Sty": 21017,
  "##chants": 7450,
  "##osures": 27175,
  "interests": 8192,
  "communis": 29655,
  "southern": 7311,
  "gradually": 4789,
  "##TICS": 18652,
  "484": 20827,
  "inflicted": 17373,
  "##istance": 2933,
  "Maii": 28476,
  "##leton": 7900,
  "null": 10059,
  "##och": 3630,
  "accum": 8397,
  "##tion": 20331,
  "crude": 23497,
  "scour": 26738,
  "transmitting": 28646,
  "downwards": 12302,
  "Rectory": 12671,
  "entier": 28239,
  "Lanc": 9669,
  "##ass": 860,
  "Nickleby": 14285,
  "1745": 14755,
  "Fernand": 21676,
  "##oni": 4899,
  "##igma": 15942,
  "##ioi": 19175,
  "nob": 9882,
  "Morb": 23323,
  "Ore": 25393,
  "##erd": 13067,
  "##atoria": 21482,
  "lii": 13220,
  "Sweden": 12438,
  "Reginal": 15978,
  "\u06a9\u06c1": 12349,
  "Polit": 8455,
  "pract": 2574,
  "olim": 17968,
  "Stanley": 11750,
  "sorts": 7572,
  "recollection": 11762,
  "Heavens": 20915,
  "Mer": 4121,
  "521": 28481,
  "consi": 15460,
  "counten": 20483,
  "\u2019": 310,
  "translations": 28008,
  "Fishes": 28459,
  "admission": 11201,
  "aod": 18565,
  "##ING": 2985,
  "impose": 25166,
  "anim": 1791,
  "Edward": 2584,
  "Game": 29322,
  "Dial": 11369,
  "##chester": 5486,
  "occupe": 21295,
  "##uable": 4309,
  "idem": 23163,
  "##ux": 1336,
  "##alog": 2125,
  "##low": 4553,
  "illustrating": 20467,
  "ose": 27985,
  "opportunities": 15000,
  "heel": 23875,
  "##ieux": 9881,
  "Jack": 9131,
  "matter": 1726,
  "selves": 12118,
  "Main": 21742,
  "Gaudich": 28366,
  "pr\u00e6": 11345,
  "383": 14769,
  "NOTES": 19715,
  "songs": 15737,
  "vast": 4759,
  "garb": 21185,
  "inhabitant": 26429,
  "shepherd": 25625,
  "Schools": 15263,
  "ens": 4542,
  "Bonn": 15628,
  "Johnston": 22202,
  "##CHE": 8177,
  "signific": 11209,
  "som": 2368,
  "JUN": 27327,
  "Melbourne": 29650,
  "liquide": 20298,
  "accepted": 8742,
  "##iane": 18145,
  "brid": 14540,
  "##rue": 23397,
  "placees": 26246,
  "tbe": 4833,
  "mathematiques": 27503,
  "prevented": 7609,
  "texts": 28407,
  "##fwer": 13035,
  "nave": 10500,
  "etabl": 16717,
  "vix": 8441,
  "expense": 6268,
  "Caf": 24705,
  "##carp": 28696,
  "beads": 18749,
  "19": 1160,
  "chronometers": 23822,
  "charges": 9508,
  "##cclesiast": 6706,
  "Ey": 11324,
  "548": 25996,
  "siliceous": 28736,
  "coats": 13635,
  "votes": 21041,
  "brood": 26879,
  "turbid": 24683,
  "refresh": 14849,
  "tlieir": 19124,
  "darted": 22109,
  "rerum": 17392,
  "entered": 3367,
  "Hebra": 29272,
  "sir": 2556,
  "descendant": 23597,
  "holder": 19665,
  "called": 1515,
  "8\u00b0": 1597,
  "sanction": 14384,
  "##our": 720,
  "neb": 9271,
  "estimation": 13167,
  "Epift": 16227,
  "light": 1398,
  "riv": 8870,
  "times": 1975,
  "inval": 12866,
  "reconciled": 23241,
  "Ul": 5577,
  "requ": 2479,
  "Germ": 3646,
  "exactly": 4139,
  "mistake": 8287,
  "thanked": 17485,
  "aspect": 7033,
  "presente": 10297,
  "SE": 5954,
  "affections": 11862,
  "Unfortunately": 25689,
  "include": 13765,
  "##orter": 7161,
  "longues": 24526,
  "Dale": 25539,
  "cage": 25187,
  "harbour": 12335,
  "vith": 20252,
  "Female": 25825,
  "Google": 3643,
  "Pink": 18684,
  "topic": 17584,
  "Tuam": 28784,
  "Blanche": 18531,
  "68": 2870,
  "##stru": 15139,
  "irregular": 5565,
  "##iih": 12050,
  "admiration": 8747,
  "##itre": 29737,
  "affinities": 26519,
  "Archibald": 21509,
  "must": 1118,
  "obligations": 20712,
  "##ENTAL": 16926,
  "extremes": 23101,
  "1700": 13647,
  "jum": 23987,
  "amounted": 12126,
  "preserv": 3344,
  "BL": 8853,
  "latitudes": 13242,
  "iodide": 21218,
  "simple": 3301,
  "XIX": 12974,
  "oldest": 15710,
  "substitute": 17070,
  "510": 20933,
  "LORD": 20917,
  "brownish": 24301,
  "essence": 25602,
  "Intern": 25702,
  "##olphus": 16327,
  "wanted": 6134,
  "Drogheda": 21314,
  "##olet": 29285,
  "ladyship": 5964,
  "Ald": 4425,
  "premi": 8402,
  "##arb": 19612,
  "##wed": 5100,
  "CAN": 21833,
  "accent": 22040,
  "##lop": 26187,
  "prote": 19086,
  "heaps": 19992,
  "inquiries": 8577,
  "valde": 20013,
  "Hyper": 22510,
  "##Jt": 26451,
  "##iced": 4061,
  "##etted": 21023,
  "jail": 23303,
  "develop": 3738,
  "acceler": 12243,
  "##aire": 3484,
  "However": 7088,
  "clerks": 18824,
  "Col": 1552,
  "##ogenes": 24522,
  "parad": 15311,
  "1717": 16214,
  "proverb": 22655,
  "sines": 17779,
  "SCENE": 29536,
  "Republ": 19204,
  "Rent": 24194,
  "wondered": 16052,
  "##rams": 23938,
  "recher": 10589,
  "nity": 29196,
  "Chi": 29916,
  "Georgius": 23232,
  "fere": 10234,
  "##aton": 8202,
  "simil": 22598,
  "##ipar": 22808,
  "Rapp": 16909,
  "subscription": 17048,
  "unnoticed": 27289,
  "Cumberland": 14797,
  "extingu": 26380,
  "##kaan": 23689,
  "educ": 5158,
  "##umb": 3030,
  "\u0398": 188,
  "##lough": 20981,
  "district": 5337,
  "##cheon": 22564,
  "proves": 11198,
  "April": 2819,
  "Observation": 17148,
  "sway": 23749,
  "Joyce": 17895,
  "ingredients": 14560,
  "force": 2280,
  "Brand": 17750,
  "lum": 8991,
  "utrin": 12245,
  "learning": 7236,
  "Hercules": 21816,
  "Disp": 10181,
  "1744": 16229,
  "##rath": 28752,
  "\u0633\u0648": 21170,
  "curled": 28865,
  "Hippoc": 27036,
  "politeness": 23890,
  "envelope": 26550,
  "journal": 10704,
  "postp": 24773,
  "brev": 4348,
  "<|verily|>": 14,
  "320": 11485,
  "rob": 7058,
  "cutting": 8212,
  "##actere": 14008,
  "spot": 4067,
  "5o": 25968,
  "semin": 26045,
  "##kd": 29854,
  "comet": 9412,
  "##ws": 4652,
  "Pyr": 25086,
  "revenue": 10472,
  "Pee": 21410,
  "penetration": 28355,
  "Ola": 25973,
  "##entiary": 28634,
  "squ": 2652,
  "3a": 23732,
  "angel": 12731,
  "speculation": 20345,
  "antiquities": 11573,
  "annual": 5852,
  "Summ": 19091,
  "personages": 25948,
  "\u03b9": 205,
  "militia": 28350,
  "##ging": 3327,
  "##er": 625,
  "England": 1764,
  "cross": 2829,
  "##oll": 867,
  "Percy": 11918,
  "##ANCE": 17963,
  "##un": 773,
  "good": 1205,
  "Tf": 20918,
  "Cents": 28900,
  "ala": 16765,
  "##fall": 17594,
  "Mif": 27426,
  "##hoe": 13990,
  "292": 13317,
  "1540": 26430,
  "##wort": 25664,
  "parallel": 4211,
  "embark": 14698,
  "trans": 1400,
  "priory": 27147,
  "fer": 3319,
  "Amstel": 20440,
  "This": 1129,
  "Brom": 14871,
  "Laura": 10466,
  "curios": 6608,
  "axill": 10600,
  "succes": 25916,
  "terminalibus": 25818,
  "diss": 3013,
  "explication": 25100,
  "lam": 8142,
  "##gest": 6791,
  "##oly": 3022,
  "moveable": 16540,
  "Sper": 29497,
  "harmon": 17438,
  "brightest": 21849,
  "belle": 20501,
  "Cay": 20873,
  "herte": 26657,
  "JOSEPH": 26684,
  "electric": 3068,
  "shortly": 8780,
  "CONS": 21972,
  "lean": 8857,
  "##y": 402,
  "Chis": 27179,
  "##ase": 1054,
  "ornamented": 15152,
  "serene": 19443,
  "coachman": 17720,
  "sixpence": 21562,
  "##THER": 18609,
  "##oge": 10992,
  "##athy": 20506,
  "fix": 5140,
  "Nathaniel": 19166,
  "mole": 10700,
  "Glend": 21741,
  "searching": 18035,
  "Vall": 16911,
  "Brodie": 25859,
  "pea": 22630,
  "shops": 12168,
  "Gri": 10643,
  "partibus": 29629,
  "vations": 14064,
  "##indre": 18002,
  "shed": 10256,
  "follows": 4110,
  "##ulace": 29341,
  "##iell": 13787,
  "unchanged": 22306,
  "earthquakes": 24016,
  "##ploy": 2060,
  "aus": 12574,
  "##uii": 21064,
  "subscribe": 29294,
  "Repos": 28381,
  "rhom": 11229,
  "qu\u00e6": 13492,
  "##ero": 4555,
  "Colman": 25195,
  "Zoology": 20246,
  "dealers": 24712,
  "partes": 18222,
  "Bil": 27794,
  "##tt": 2971,
  "passengers": 19735,
  "##ially": 4622,
  "rite": 29089,
  "hoc": 10461,
  "##hte": 11097,
  "pir": 17310,
  "db": 23986,
  "Aubrey": 29313,
  "##nent": 8231,
  "##beck": 19179,
  "wears": 27298,
  "muriatic": 7567,
  "Cross": 6438,
  "##bl": 4732,
  "judicious": 18401,
  "256": 12010,
  "him": 810,
  "1539": 29414,
  "wood": 2478,
  "##son": 2103,
  "##anea": 12201,
  "lov": 29219,
  "cone": 13400,
  "over": 1141,
  "##ousers": 24701,
  "league": 20637,
  "hidden": 15294,
  "##enz": 10062,
  "jud": 2608,
  "\u06c1\u0645": 29146,
  "##ests": 3927,
  "Mist": 22771,
  "Vel": 16385,
  "##stant": 20821,
  "historique": 20937,
  "Ren": 11287,
  "corporis": 20869,
  "intercourse": 12623,
  "Abp": 12807,
  "Flowers": 24296,
  "Alph": 23436,
  "ced": 15179,
  "##cifix": 21706,
  "governor": 11700,
  "statements": 12392,
  "\u0627\u06cc\u0627": 27169,
  "Apoll": 12857,
  "fiir": 21327,
  "##ned": 5178,
  "Talk": 29848,
  "##aik": 14457,
  "##iculus": 23850,
  "poverty": 11482,
  "Sl": 4339,
  "##OB": 9655,
  "original": 2859,
  "chronic": 23856,
  "nurs": 11648,
  "##rox": 27530,
  "gin": 15012,
  "hire": 10518,
  "intermedia": 22026,
  "eleven": 8604,
  "##lance": 8165,
  "fat": 3967,
  "score": 13923,
  "Proposition": 28237,
  "waking": 24730,
  "1843": 6688,
  "physician": 9609,
  "Matter": 13301,
  "shillings": 9419,
  "##ological": 3152,
  "\u0153": 174,
  "Jupiter": 9358,
  "scorn": 10534,
  "Italy": 6437,
  "advertisement": 26796,
  "##\u06f1": 571,
  "sprang": 14611,
  "Trad": 15851,
  "pensive": 28995,
  "##aun": 18659,
  "corrid": 28565,
  "enjoying": 21268,
  "##ona": 5403,
  "bodies": 2930,
  "Till": 11711,
  "\u25e6": 368,
  "Hudson": 17304,
  "initial": 22707,
  "excavation": 20675,
  "unless": 4325,
  "paved": 24860,
  "##ini": 2313,
  "cataract": 28794,
  "cliff": 17369,
  "requiring": 15389,
  "Spanish": 7098,
  "##coa": 28710,
  "12\u00ae": 15889,
  "assist": 4520,
  "fought": 12507,
  "latent": 25266,
  "##istoire": 19815,
  "##cees": 29571,
  "Palatine": 28842,
  "##ran": 941,
  "##iors": 27721,
  "##aged": 3304,
  "meditation": 28873,
  "##FE": 9699,
  "##lis": 13885,
  "tu": 4195,
  "manuscripts": 12424,
  "##ns": 3079,
  "figned": 24933,
  "bers": 19471,
  "Hazy": 20271,
  "Stock": 7480,
  "Bruce": 23132,
  "##wa": 13656,
  "mainly": 16481,
  "##lemn": 24903,
  "##ermen": 9146,
  "##quelle": 10810,
  "##not": 1628,
  "degener": 21872,
  "guinea": 20175,
  "Francois": 14757,
  "Appar": 13113,
  "avail": 6775,
  "Cornwall": 10914,
  "frequently": 3748,
  "92": 4181,
  "Hyd": 8495,
  "full": 1719,
  "##fax": 15845,
  "Jury": 15869,
  "efficient": 16925,
  "##agonal": 17361,
  "rr": 9320,
  "inflamm": 9927,
  "blackened": 27014,
  "ceremony": 10913,
  "victory": 13283,
  "Fixed": 25868,
  "reminded": 19062,
  "607": 27497,
  "##andro": 29513,
  "fable": 28850,
  "##unity": 3531,
  "##EMENTS": 19184,
  "Contributions": 19435,
  "Edwards": 16875,
  "cote": 8338,
  "##\u0643": 606,
  "familiarity": 28930,
  "Equator": 29646,
  "##iderable": 16244,
  "Somerset": 11068,
  "Opt": 12914,
  "##ARI": 22102,
  "Adare": 26664,
  "surviving": 24305,
  "foremost": 22073,
  "barren": 17542,
  "SOL": 24252,
  "Turkey": 18954,
  "mare": 18600,
  "Conf": 7119,
  "Eb": 23112,
  "Marc": 28864,
  "011": 26929,
  "##INC": 24112,
  "contriv": 13760,
  "boiled": 10851,
  "Arran": 28049,
  "gradual": 11907,
  "alarmed": 11398,
  "##anged": 7228,
  "544": 26159,
  "pod": 29679,
  "remarquer": 23445,
  "\ua776": 384,
  "##iou": 16474,
  "Tait": 23831,
  "positive": 5548,
  "transformation": 23747,
  "##\u06be": 468,
  "1835": 5423,
  "##mber": 2838,
  "##ophylle": 26481,
  "travers": 10211,
  "##cible": 9489,
  "ice": 5678,
  "mood": 13583,
  "##\u00b1": 479,
  "flame": 6978,
  "increment": 29358,
  "limite": 25634,
  "corros": 19198,
  "##ppy": 22935,
  "feet": 1437,
  "CH": 2491,
  "Gott": 12033,
  "numero": 26247,
  "groves": 29530,
  "county": 3725,
  "Tol": 12197,
  "enveloped": 19979,
  "happier": 20068,
  "1674": 16426,
  "Ione": 24351,
  "Patrick": 5137,
  "monstr": 13326,
  "Ben": 4148,
  "##bow": 11123,
  "##opes": 3458,
  "##aldus": 18926,
  "goose": 22405,
  "##red": 1155,
  "undergoing": 28385,
  "HENRY": 18986,
  "##ination": 1680,
  "Province": 19693,
  "##nde": 8696,
  "overw": 15438,
  "1903": 21400,
  "idea": 3379,
  "volume": 3341,
  "who": 839,
  "examined": 4077,
  "prominent": 11393,
  "follow": 1248,
  "Works": 5331,
  "##wal": 25875,
  "##ricultural": 14756,
  "confl": 13026,
  "\u062a\u06be\u06d2": 29680,
  "Cd": 25969,
  "263": 13032,
  "lightly": 15870,
  "eos": 26064,
  "declining": 22482,
  "GIL": 28324,
  "\u00b1": 150,
  "482": 19754,
  "entity": 29405,
  "indemn": 26921,
  "opp": 1699,
  "houfe": 20020,
  "##iD": 17311,
  "searched": 23107,
  "##icians": 7816,
  "sunrise": 28574,
  "1737": 16880,
  "##sted": 18602,
  "Gh": 9212,
  "##leep": 10540,
  "Gar": 6289,
  "search": 6162,
  "Ent": 8686,
  "diffic": 2289,
  "lower": 3021,
  "param": 17340,
  "Regent": 11355,
  "tall": 6700,
  "##adilly": 20059,
  "lution": 27760,
  "ia": 4905,
  "ovarium": 21310,
  "##dle": 19135,
  "Polly": 28510,
  "Occ": 11102,
  "humour": 7140,
  "dishonour": 27887,
  "##entees": 29467,
  "##idy": 18279,
  "colonel": 19448,
  "##ool": 2004,
  "1623": 20366,
  "libellus": 28716,
  "res": 887,
  "pose": 10309,
  "1858": 27541,
  "Term": 11872,
  "judges": 12937,
  "fluxion": 25389,
  "##iof": 28709,
  "minimum": 13077,
  "travell": 4728,
  "Though": 6423,
  "Nine": 17423,
  "##ide": 930,
  "Angli": 28725,
  "elasticity": 14569,
  "mundi": 23142,
  "arran": 2828,
  "nep": 8589,
  "baronet": 10930,
  "##uit": 2810,
  "Bon": 6070,
  "Dig": 2579,
  "liar": 22938,
  "banished": 24924,
  "peroxide": 23434,
  "gest": 10320,
  "grat": 4447,
  "sh": 749,
  "atte": 15054,
  "males": 14368,
  "ift": 28706,
  "parfait": 15004,
  "BIB": 16289,
  "##haps": 2024,
  "external": 5935,
  "##ente": 3986,
  "fall": 2175,
  "Feb": 2831,
  "rushed": 11241,
  "eorum": 14075,
  "presented": 3475,
  "Hardy": 11082,
  "nonnull": 24416,
  "strongest": 13104,
  "fub": 15050,
  "var": 1296,
  "S7": 27849,
  "##cations": 29334,
  "Biot": 24087,
  "At": 1376,
  "upon": 918,
  "Giant": 27979,
  "227": 10989,
  "princi": 15201,
  "##ppo": 16389,
  "Pa": 2139,
  "eyed": 19649,
  "compens": 12606,
  "METEOR": 18743,
  "fourteen": 11099,
  "gente": 19879,
  "toto": 26454,
  "Ville": 21036,
  "cos": 3689,
  "chem": 3521,
  "robbers": 26130,
  "naissent": 23287,
  "Authors": 17972,
  "revolve": 22514,
  "quse": 22382,
  "Danvers": 10348,
  "CATALOG": 11735,
  "##azioni": 15046,
  "believed": 5824,
  "Robin": 13330,
  "Britt": 18780,
  "190": 3991,
  "shipping": 27667,
  "Erasmus": 23078,
  "byCjOOQlC": 27932,
  "Penn": 11757,
  "cavities": 12065,
  "airs": 20791,
  "215": 10298,
  "##deacon": 11148,
  "proportionate": 25806,
  "<|unk|>": 3,
  "328": 13773,
  "derniers": 24851,
  "intending": 28114,
  "Widow": 25654,
  "inm": 14508,
  "##OUT": 29529,
  "equipment": 25239,
  "##aber": 17800,
  "rat": 11213,
  "Herodotus": 28840,
  "delicately": 27693,
  "875": 27190,
  "understood": 5397,
  "##gence": 10511,
  "forbidden": 23541,
  "conversed": 26001,
  "Ludov": 15960,
  "rebell": 9824,
  "COMM": 14377,
  "ordinance": 28441,
  "MAR": 5751,
  "##\u03c9": 514,
  "divergence": 24049,
  "##vi": 3115,
  "##uscript": 4782,
  "flourish": 25305,
  "David": 4700,
  "Wallis": 18090,
  "340": 12234,
  "Ca": 1431,
  "eggs": 9521,
  "Quart": 7999,
  "Cru": 8634,
  "##cled": 24524,
  "##culi": 12241,
  "##izens": 17280,
  "abundant": 11116,
  "##ivable": 25161,
  "18\u00b0": 23156,
  "segments": 13385,
  "JV": 14761,
  "Li": 7370,
  "sensitive": 16793,
  "##fully": 2496,
  "haz": 10969,
  "compliments": 19890,
  "reaching": 11810,
  "MATHEMATICS": 26226,
  "dess": 6867,
  "Madge": 26425,
  "##rach": 20312,
  "sult": 17845,
  "##UP": 25937,
  "reservoir": 19044,
  "##gh": 1388,
  "Pro": 1227,
  "relieved": 11255,
  "1747": 15033,
  "pole": 5642,
  "Carter": 12153,
  "##gia": 13802,
  "trimmed": 26056,
  "Giov": 16888,
  "Leibn": 22835,
  "##zzi": 20807,
  "fifty": 5686,
  "lowering": 26927,
  "That": 1753,
  "1848": 10452,
  "##anmo": 27723,
  "##ixt": 3851,
  "spinal": 7477,
  "imperf": 21376,
  "##onic": 19831,
  "Smithfield": 22578,
  "Linc": 7086,
  "Doug": 10070,
  "arrows": 24091,
  "##NA": 25588,
  "Ua": 25977,
  "toast": 23801,
  "reven": 5833,
  "Triumph": 28927,
  "scient": 17690,
  "advent": 6768,
  "Ansel": 16873,
  "erecting": 25564,
  "##antly": 2893,
  "##ember": 2410,
  "Guards": 18456,
  "Dixon": 27204,
  "accumulation": 18742,
  "ac": 1029,
  "sky": 8049,
  "constern": 21642,
  "rious": 21470,
  "inwards": 22563,
  "orig": 1778,
  "stra": 3364,
  "Exhib": 14835,
  "##ilight": 19974,
  "Antonio": 9717,
  "electroly": 19042,
  "tempe": 27090,
  "12\u00b0": 5164,
  "Swedish": 24440,
  "dict": 6959,
  "Sene": 14006,
  "abd": 8920,
  "talking": 7304,
  "t": 127,
  "papa": 15865,
  "##yn": 2308,
  "##olved": 2786,
  "##anne": 14731,
  "Becket": 27998,
  "326": 13772,
  "linked": 26798,
  "reflected": 7264,
  "##quilong": 27280,
  "hyd": 3378,
  "Inc": 9301,
  "pee": 18205,
  "level": 4321,
  "Baden": 29309,
  "aux": 3613,
  "Joce": 16109,
  "aunt": 5912,
  "cylindric": 22701,
  "quatuor": 14216,
  "preside": 26529,
  "both": 1428,
  "\u062e\u0648": 23837,
  "To": 1341,
  "Eliz": 3130,
  "wen": 25980,
  "Hamm": 28173,
  "##rund": 4362,
  "##iai": 18235,
  "516": 23528,
  "theatrical": 28906,
  "##ifi": 9064,
  "bum": 23369,
  "DU": 10308,
  "##eton": 13142,
  "thine": 10822,
  "##jours": 9093,
  "perpendicularly": 21119,
  "GR": 8971,
  "Mah": 10748,
  "MISCELLANE": 11013,
  "Burker": 12570,
  "prse": 17131,
  "Lot": 11176,
  "CT": 28899,
  "settlement": 11184,
  "Bro": 4635,
  "##rodu": 2297,
  "##ustible": 20164,
  "Officers": 9409,
  "##aughter": 21818,
  "Russell": 10624,
  "Government": 5183,
  "hydrogene": 20890,
  "awkward": 19985,
  "##urg": 7082,
  "##TE": 6694,
  "##pec": 16987,
  "builders": 26471,
  "creatures": 9889,
  "nervures": 21698,
  "##har": 13965,
  "peat": 12020,
  "amid": 7611,
  "prospects": 16932,
  "##CIL": 29148,
  "inf": 1192,
  "diction": 16938,
  "patron": 6006,
  "##use": 1750,
  "ego": 28228,
  "Pal": 3987,
  "Lang": 9246,
  "##akes": 2553,
  "##uty": 7394,
  "Hod": 11403,
  "forto": 18616,
  "##fortune": 13951,
  "papers": 3791,
  "##rank": 5877,
  "calculation": 9167,
  "frenzy": 28894,
  "brilliant": 7557,
  "moire": 24870,
  "##d": 433,
  "inquiring": 21329,
  "##ized": 1774,
  "##untur": 9024,
  "##ouncing": 16791,
  "##iatic": 15208,
  "\u0635": 248,
  "Gravesend": 28733,
  "##ailles": 23939,
  "retra": 26501,
  "chim": 7062,
  "gravity": 4883,
  "##ishes": 3730,
  "Copperfield": 15132,
  "41": 1911,
  "staying": 17139,
  "als": 22721,
  "actor": 24324,
  "lute": 11571,
  "contrasted": 23531,
  "##vons": 21103,
  "##TRA": 29124,
  "removing": 11219,
  "return": 1572,
  "Sher": 6776,
  "bt": 16085,
  "prodig": 11494,
  "reproach": 12004,
  "dispute": 11033,
  "severe": 6046,
  "graceful": 13653,
  "quick": 3905,
  "perplex": 14555,
  "ordine": 23123,
  "congen": 26412,
  "proclaim": 17088,
  "##ense": 1879,
  "##atomy": 6906,
  "Magnetism": 18611,
  "Prov": 5367,
  "primitive": 8066,
  "eagerness": 24411,
  "Fahren": 13662,
  "eulog": 25398,
  "ONE": 24040,
  "1664": 16308,
  "concise": 24291,
  "fc": 8789,
  "1913": 27635,
  "##stem": 2306,
  "Igu": 28128,
  "325": 12832,
  "classical": 14696,
  "succession": 8106,
  "##63": 17816,
  "attached": 4797,
  "##itis": 6573,
  "altar": 9407,
  "##afed": 21534,
  "##well": 2373,
  "##quiry": 8389,
  "embarrassment": 23898,
  "##gy": 2501,
  "prostr": 18798,
  "swell": 7867,
  "Ordin": 20867,
  "##esty": 2926,
  "Bangor": 21031,
  "LI": 4748,
  "Schle": 23223,
  "attends": 26930,
  "chap": 4795,
  "##wy": 16548,
  "##55": 17641,
  "wish": 3044,
  "Proport": 22532,
  "sit": 1949,
  "##amenta": 16858,
  "surrounded": 6971,
  "Dro": 29673,
  "273": 12806,
  "feveral": 15706,
  "PA": 9565,
  "obtusis": 13451,
  "pared": 22041,
  "##il": 692,
  "tenements": 19143,
  "355": 14052,
  "retired": 7271,
  "##felt": 27524,
  "Level": 29352,
  "Pip": 17760,
  "##37": 24388,
  "##ographer": 20894,
  "yellow": 4138,
  "Canal": 17230,
  "Sydney": 13086,
  "aU": 12612,
  "Sne": 27799,
  "Instrum": 15113,
  "Measures": 19874,
  "consent": 7371,
  "Grace": 6592,
  "Derby": 15793,
  "dela": 19728,
  "commanding": 16758,
  "Newry": 27348,
  "##ateau": 20478,
  "Anfwer": 23317,
  "##jl": 18132,
  "Priest": 16776,
  "Hicks": 10259,
  "##yng": 15762,
  "microscope": 8243,
  "trading": 20218,
  "##ville": 4147,
  "Catalogue": 4807,
  "reports": 8932,
  "Wednes": 9289,
  "##ila": 10343,
  "pn": 12521,
  "Continuation": 25863,
  "transform": 15385,
  "Scal": 26581,
  "##ines": 1419,
  "champion": 26855,
  "Illustration": 12266,
  "##orther": 4755,
  "degrad": 26038,
  "Tu": 7614,
  "20": 1142,
  "333": 11521,
  "proving": 12702,
  "##inals": 24198,
  "##ulating": 9326,
  "aii": 18912,
  "set": 1458,
  "##roma": 28700,
  "##unting": 7937,
  "magn": 1605,
  "partic": 1456,
  "refrang": 16840,
  "##utes": 2292,
  "Witt": 25426,
  "inevit": 26674,
  "inferred": 12227,
  "cordial": 15062,
  "Emm": 23354,
  "computation": 17015,
  "##onderry": 9298,
  "##nda": 20210,
  "testaceous": 13271,
  "366": 14566,
  "ane": 11969,
  "g": 114,
  "##MANN": 27109,
  "arrang": 4363,
  "flee": 22359,
  "deliver": 8073,
  "sorte": 10894,
  "ISmo": 26253,
  "##bur": 2309,
  "##ibra": 17039,
  "thy": 3001,
  "shr": 6680,
  "##lies": 7157,
  "speculations": 18418,
  "wheat": 12704,
  "intercepted": 20628,
  "goods": 6113,
  "##fj": 28514,
  "Lr": 29325,
  "pecuniary": 18669,
  "pra": 3593,
  "Ther": 15394,
  "##ule": 1822,
  "Sheep": 24532,
  "##uct": 4618,
  "haps": 23344,
  "##\u2215": 608,
  "tig": 9618,
  "##ogen": 13421,
  "##uras": 21934,
  "tickets": 18971,
  "queer": 23380,
  "Brown": 5844,
  "eB": 10193,
  "spelling": 22531,
  "Steward": 18924,
  "##agh": 3043,
  "resemble": 13634,
  "moyens": 25350,
  "swept": 12879,
  "##ALD": 21350,
  "ouverture": 26011,
  "##urial": 15512,
  "unf": 6045,
  "Doctrine": 21002,
  "air": 1586,
  "included": 7217,
  "Fres": 19420,
  "gentleness": 29832,
  "firmly": 10075,
  "##On": 27662,
  "##ean": 18029,
  "Amerique": 27917,
  "distrib": 3963,
  "Ran": 16181,
  "vener": 8871,
  "1658": 20319,
  "fury": 13809,
  "##ienced": 26248,
  "##iiii": 8274,
  "mamel": 24823,
  "candidate": 26639,
  "##icide": 19454,
  "mint": 26955,
  "et": 809,
  "Stu": 11027,
  "America": 4360,
  "cavalry": 29842,
  "adherence": 28731,
  "tricks": 25750,
  "date": 3519,
  "##pecting": 28764,
  "satell": 9815,
  "Congress": 11173,
  "sits": 20354,
  "Remains": 17703,
  "##yond": 3410,
  "##umpt": 22623,
  "05": 4248,
  "essays": 20711,
  "Joannes": 12727,
  "##oting": 6275,
  "proprietors": 16843,
  "sacred": 7893,
  "##cur": 24314,
  "EXP": 8462,
  "Suit": 17295,
  "os": 4081,
  "##aled": 3935,
  "Genoa": 23130,
  "Beaum": 17518,
  "##RIB": 23385,
  "##\u03b3": 540,
  "whilst": 5108,
  "Legisl": 18054,
  "appar": 2277,
  "answers": 12036,
  "Tog": 26404,
  "Presidents": 19057,
  "dit": 7954,
  "proportional": 10470,
  "ALM": 6829,
  "unw": 8552,
  "lettres": 28363,
  "Barn": 9317,
  "##orf": 17145,
  "gaily": 29237,
  "##IDENT": 28581,
  "principles": 4008,
  "anomalous": 29485,
  "bran": 2769,
  "ku": 17006,
  "quelques": 6174,
  "roll": 5374,
  "gg": 23547,
  "##copic": 25718,
  "Pages": 6168,
  "equalled": 27675,
  "##nr": 8770,
  "Sally": 23368,
  "Angliae": 22765,
  "Exec": 19687,
  "##olla": 14246,
  "mote": 24596,
  "compliment": 11669,
  "guess": 12609,
  "sq": 20721,
  "107": 6432,
  "Tel": 26403,
  "arts": 6878,
  "bud": 27983,
  "autem": 11399,
  "crisis": 20294,
  "##umbled": 25103,
  "True": 9844,
  "delightful": 10621,
  "Contro": 26672,
  "obov": 11816,
  "cumstances": 21895,
  "certains": 23095,
  "##asonable": 20804,
  "traitor": 16876,
  "boundaries": 21727,
  "##ton": 1334,
  "rempl": 17745,
  "##ury": 1321,
  "Societies": 13882,
  "appare": 27812,
  "shells": 8424,
  "2b": 29385,
  "add": 1258,
  "##ages": 1498,
  "BUR": 15107,
  "Canons": 21484,
  "##cry": 21499,
  "View": 6059,
  "pre": 902,
  "building": 4194,
  "ornament": 6081,
  "199": 10191,
  "##roduction": 8502,
  "##arian": 6329,
  "##is": 636,
  "steps": 5470,
  "fashioned": 18966,
  "Grains": 22943,
  "belfry": 29637,
  "Word": 27047,
  "terrible": 6600,
  "resent": 15766,
  "universally": 12491,
  "soe": 28336,
  "vitreous": 23978,
  "##IDES": 24436,
  "tomo": 23872,
  "##utor": 10616,
  "##OOL": 17619,
  "##bid": 5168,
  "earthy": 14026,
  "Ara": 12030,
  "\u00bf": 161,
  "Zo": 8990,
  "Bove": 20814,
  "##chet": 12918,
  "insertion": 13169,
  "discovering": 16050,
  "hole": 6342,
  "associate": 21876,
  "Jewish": 24964,
  "##ied": 1099,
  "crosses": 12026,
  "##assy": 20117,
  "Bav": 22877,
  "ADVERTIS": 18578,
  "##ility": 1982,
  "Cott": 13726,
  "Limb": 29599,
  "defiring": 22761,
  "DEC": 14863,
  "Cooke": 15397,
  "Abbe": 15563,
  "operate": 17267,
  "##itch": 3994,
  "pedest": 20830,
  "guest": 14116,
  "stalls": 27336,
  "Geometry": 27364,
  "remarked": 6719,
  "Mod": 6721,
  "satur": 12034,
  "cla": 5462,
  "hypoc": 21823,
  "Eng": 1195,
  "##OUSE": 12189,
  "conquered": 21948,
  "guides": 27450,
  "selling": 15102,
  "##undem": 17370,
  "Fran": 1970,
  "Francisci": 29412,
  "maker": 12963,
  "##teen": 3740,
  "roaring": 27870,
  "##active": 27671,
  "Kennedy": 25183,
  "sugar": 9053,
  "##ictions": 14825,
  "##abl": 8473,
  "FOREIGN": 28171,
  "Longford": 27692,
  "appropriate": 12462,
  "Means": 17902,
  "##uties": 23214,
  "steed": 22130,
  "substit": 9745,
  "necessarily": 6642,
  "QUE": 21062,
  "indulged": 20893,
  "Servant": 24341,
  "editions": 11113,
  "Bs": 24419,
  "syll": 12589,
  "##istration": 9625,
  "quelque": 7981,
  "Quint": 20562,
  "avoiding": 26124,
  "mast": 15915,
  "##iore": 11649,
  "##itudes": 4443,
  "##arts": 13346,
  "IF": 22796,
  "initi": 25090,
  "ate": 8978,
  "staff": 12364,
  "Smed": 29560,
  "confess": 8387,
  "reper": 28808,
  "Hum": 6781,
  "Solomon": 16080,
  "springing": 19692,
  "haunts": 27416,
  "greatness": 18818,
  "regni": 25510,
  "##ifere": 27807,
  "cele": 3891,
  "##idem": 7545,
  "guided": 19934,
  "##voir": 8652,
  "mini": 16944,
  "fonn": 28276,
  "Popes": 29255,
  "ordinary": 3734,
  "indust": 7519,
  "##ret": 1308,
  "continue": 4937,
  "diurnal": 11074,
  "international": 24610,
  "Penny": 25394,
  "Anatomie": 29836,
  "finger": 8623,
  "Yet": 5398,
  "Spani": 15015,
  "drain": 23121,
  "162": 4039,
  "Winter": 15536,
  "spear": 17576,
  "Kill": 6008,
  "quies": 23552,
  "Pow": 13321,
  "consciousness": 14644,
  "thee": 3597,
  "refrain": 26780,
  "concent": 7421,
  "##H": 410,
  "Comet": 12077,
  "retail": 28194,
  "##fie": 24731,
  "Grave": 24006,
  "spending": 29222,
  "contents": 6060,
  "vrai": 22955,
  "madam": 10016,
  "R": 93,
  "distinctions": 23530,
  "graines": 13056,
  "fundamental": 16543,
  "##sellers": 18291,
  "ESQ": 22466,
  "##ettle": 23220,
  "##alous": 7122,
  "##41": 21011,
  "##aves": 6248,
  "whereas": 6464,
  "##iscop": 6158,
  "shouldn": 27813,
  "villain": 12867,
  "Su": 2402,
  "occa": 16090,
  "Tang": 13139,
  "habita": 27825,
  "sometimes": 2698,
  "Hutton": 22712,
  "ruined": 10167,
  "hm": 27519,
  "xix": 7171,
  "##AC": 1762,
  "repuls": 17555,
  "##ische": 16447,
  "robb": 21914,
  "PART": 16154,
  "Kent": 6572,
  "Ar": 1041,
  "##yne": 11954,
  "Get": 23761,
  "392": 16614,
  "Calc": 11295,
  "Maiden": 27447,
  "rise": 4040,
  "tenderly": 18342,
  "1628": 23102,
  "Ale": 14296,
  "wond": 9092,
  "intens": 19618,
  "vy": 28751,
  "##inm": 26296,
  "sermons": 24013,
  "268": 11114,
  "instruments": 6281,
  "##reff": 27481,
  "VII": 5270,
  "Cause": 15108,
  "Pon": 18535,
  "Watt": 17955,
  "trials": 9584,
  "fevers": 28088,
  "tial": 29501,
  "cheering": 26702,
  "Vernon": 15685,
  "tranquil": 19672,
  "1901": 17839,
  "Electricity": 12207,
  "persons": 2515,
  "mal": 4483,
  "dence": 14645,
  "Person": 14376,
  "problems": 15418,
  "wit": 2710,
  "##aring": 2283,
  "Atl": 12368,
  "##ubl": 1093,
  "desc": 28656,
  "##issimis": 10170,
  "justice": 4887,
  "analysis": 5698,
  "spoon": 21476,
  "pint": 16637,
  "j": 117,
  "stalk": 21761,
  "leaden": 24534,
  "ENGLISH": 20109,
  "2t": 28796,
  "1599": 18107,
  "fluids": 9081,
  "##olo": 8690,
  "##ply": 6667,
  "##ustr": 2213,
  "##using": 6358,
  "pick": 11153,
  "charter": 10015,
  "appurtenances": 26059,
  "exterior": 10724,
  "cheek": 10957,
  "Brain": 28485,
  "Soe": 26660,
  "quia": 22528,
  "##owd": 5016,
  "edit": 11746,
  "remind": 9589,
  "encir": 28827,
  "Cab": 10409,
  "Univers": 4473,
  "disappears": 25382,
  "parcels": 24644,
  "##DAY": 18933,
  "147": 6896,
  "##leen": 17829,
  "Hey": 19793,
  "135": 7400,
  "Meteorological": 14057,
  "exhibition": 17437,
  "##OTHER": 26326,
  "Best": 17165,
  "374": 14706,
  "\u00bc": 158,
  "holding": 6658,
  "Period": 17203,
  "1760": 12499,
  "##emor": 24135,
  "rn": 12730,
  "evinced": 18712,
  "##17": 16475,
  "Churches": 13095,
  "Christendom": 21680,
  "Ave": 17305,
  "iri": 22224,
  "##ower": 1163,
  "Ct": 15379,
  "kn": 990,
  "##dd": 12263,
  "##ador": 8339,
  "Robert": 2571,
  "glow": 14627,
  "obstacles": 21674,
  "racter": 20923,
  "Trees": 21846,
  "grievous": 29424,
  "majesty": 11542,
  "un\u00ac": 23003,
  "##inges": 15333,
  "increments": 28055,
  "Medici": 27582,
  "##oughby": 20883,
  "485": 21966,
  "Ray": 8603,
  "performance": 11388,
  "##iously": 2699,
  "##nals": 7599,
  "academ": 15528,
  "affectionate": 11823,
  "injure": 23719,
  "industry": 8268,
  "##manship": 16971,
  "##pa": 5266,
  "##cu": 6602,
  "tacit": 29136,
  "##lection": 5153,
  "##ateurs": 20148,
  "Nich": 4170,
  "donner": 14640,
  "##alm": 11079,
  "prerogative": 26820,
  "##que": 1059,
  "##anty": 17291,
  "implic": 18815,
  "per": 850,
  "##inqu": 14965,
  "##ched": 2160,
  "Switz": 17854,
  "015": 25448,
  "nursery": 21705,
  "constituted": 12889,
  "intent": 8612,
  "##nee": 8059,
  "Antonius": 26715,
  "confirm": 6026,
  "currency": 25796,
  "##icient": 2759,
  "399": 15081,
  "##IND": 17747,
  "##onse": 11015,
  "Thirty": 22672,
  "dift": 22656,
  "1740": 13588,
  "particles": 4972,
  "lodged": 12601,
  "##anny": 8052,
  "medulla": 22815,
  "critic": 12091,
  "attired": 28292,
  "##rences": 18067,
  "ses": 4146,
  "animated": 14529,
  "business": 2525,
  "proud": 5895,
  "cheaper": 22866,
  "##aed": 13720,
  "cryst": 2907,
  "##olt": 8683,
  "lit": 6468,
  "gunpowder": 22465,
  "assure": 7289,
  "##bu": 16532,
  "science": 4014,
  "forl": 25782,
  "extinction": 23846,
  "006": 28479,
  "proclamation": 20428,
  "##hedral": 5900,
  "##onym": 5644,
  "perist": 28562,
  "iod": 10096,
  "Plant": 8035,
  "Jordan": 25083,
  "Naval": 22949,
  "##yd": 6378,
  "237": 11939,
  "##ience": 2732,
  "Lyons": 21210,
  "nouveau": 12549,
  "##39": 22969,
  "Vt": 24450,
  "maximum": 7899,
  "locul": 21251,
  "##igon": 8464,
  "fore": 2390,
  "peut": 5483,
  "guardians": 26317,
  "cependant": 12183,
  "1775": 11047,
  "Jord": 20272,
  "##cin": 21228,
  "##\u0646\u0627": 16679,
  "needless": 23684,
  "admirable": 10042,
  "##cte": 17642,
  "Jesu": 20809,
  "cavity": 7208,
  "##onso": 20986,
  "exhibit": 8200,
  "violet": 11185,
  "86": 2322,
  "muriate": 9774,
  "##odami": 28758,
  "Travell": 18941,
  "socket": 21784,
  "MM": 7865,
  "faite": 22287,
  "germinal": 25077,
  "iiL": 28571,
  "UL": 22797,
  "muc": 7743,
  "merely": 3936,
  "pellucid": 20155,
  "image": 6234,
  "destro": 13083,
  "Roy": 6922,
  "Rel": 4689,
  "gleam": 22546,
  "TO": 4122,
  "lesser": 16595,
  "fingers": 9147,
  "burn": 4174,
  "partners": 24702,
  "##to": 813,
  "econom": 13168,
  "marry": 7806,
  "pulse": 12898,
  "Steer": 17025,
  "sujet": 14956,
  "##isse": 4723,
  "sue": 19071,
  "emperor": 13119,
  "nature": 1737,
  "##athan": 10111,
  "epic": 29819,
  "Position": 5567,
  "Bron": 11992,
  "prolog": 19308,
  "##LET": 15306,
  "nem": 16913,
  "hastened": 9547,
  "tool": 21151,
  "personally": 21233,
  "celui": 7460,
  "subter": 12579,
  "##amation": 10174,
  "cogn": 13355,
  "potassium": 9781,
  "neverthe": 8639,
  "Pamphlet": 25581,
  "Travers": 28666,
  "vehemence": 29553,
  "##ess": 707,
  "##olate": 22144,
  "girl": 3869,
  "sailing": 20726,
  "larly": 25795,
  "##iation": 6634,
  "TS": 23936,
  "benefactor": 24247,
  "pubescentibus": 27200,
  "Snow": 16276,
  "##istry": 5018,
  "diffusion": 17841,
  "Brasilia": 26438,
  "##bam": 26653,
  "##annah": 20465,
  "##cle": 6264,
  "gu": 1844,
  "strife": 23885,
  "##\u06be\u0627": 8501,
  "Rio": 17928,
  "Steel": 17434,
  "hither": 3802,
  "Magazine": 10039,
  "applies": 17218,
  "keep": 2408,
  "\u0283": 178,
  "Middlesex": 11893,
  "sist": 12942,
  "regards": 9730,
  "##ci": 756,
  "required": 3561,
  "OW": 20441,
  "whenever": 8315,
  "Beg": 17699,
  "vacancy": 24243,
  "##roit": 16476,
  "obey": 8515,
  "passer": 26080,
  "Bert": 9350,
  "estimate": 10504,
  "oper": 2430,
  "Chronicon": 27636,
  "##oca": 26308,
  "##entibus": 8070,
  "Firenze": 22107,
  "descends": 20016,
  "bile": 19878,
  "Franklin": 13904,
  "\u0645\u06a9\u0627\u0646": 29183,
  "punch": 21820,
  "Moss": 21247,
  "isolated": 21807,
  "##utary": 21836,
  "Conference": 18569,
  "##ids": 3634,
  "centro": 22597,
  "restrain": 21449,
  "serp": 25167,
  "preceding": 3933,
  "Forces": 23405,
  "##atn": 29268,
  "NOT": 10416,
  "nil": 21870,
  "1565": 19845,
  "breviora": 28628,
  "##ible": 1233,
  "##ati": 2363,
  "445": 19104,
  "chin": 15320,
  "##atom": 5155,
  "rays": 3888,
  "##ulata": 12308,
  "elevations": 26509,
  "expresses": 16555,
  "intrusion": 28115,
  "##oln": 6865,
  "prejudice": 14500,
  "perf": 1494,
  "1812": 7767,
  "##esting": 10871,
  "Adolphus": 17681,
  "area": 7359,
  "differente": 26623,
  "hanged": 16812,
  "##oman": 1722,
  "Contents": 23953,
  "max": 4747,
  "twelfth": 12980,
  "ple": 1516,
  "roofed": 29948,
  "##P": 415,
  "simult": 12242,
  "Let": 3292,
  "multitudes": 27401,
  "Door": 27681,
  "Charlotte": 15390,
  "enforced": 27116,
  "##atched": 12182,
  "bog": 14527,
  "137": 7407,
  "Werner": 20698,
  "Tim": 7708,
  "caractere": 15312,
  "doubtless": 7818,
  "rou": 7050,
  "using": 7348,
  "##uretted": 22215,
  "intercept": 12598,
  "stip": 8563,
  "Whit": 10949,
  "obvious": 7384,
  "thousand": 3288,
  "Hou": 10018,
  "\u062f": 242,
  "##angu": 2801,
  "##ursions": 17098,
  "Secretary": 3982,
  "I": 84,
  "rendering": 11606,
  "##aires": 4026,
  "guide": 9500,
  "guts": 26906,
  "alors": 11281,
  "latest": 14958,
  "dul": 20782,
  "Tud": 20552,
  "having": 1335,
  "Schw": 25201,
  "Ga": 6037,
  "vin": 18403,
  "Babylon": 23417,
  "fru": 3788,
  "Kild": 9293,
  "dexx": 26772,
  "fashionable": 11870,
  "witii": 29055,
  "yrs": 28420,
  "Grae": 27683,
  "herb": 6942,
  "solid": 4293,
  "prevails": 24245,
  "Svo": 4980,
  "Journey": 16499,
  "Juss": 18312,
  "##ens": 893,
  "##ion": 650,
  "##ams": 4306,
  "drag": 9986,
  "nyt": 25743,
  "expectations": 20296,
  "Hano": 16813,
  "shape": 4850,
  "heartily": 14510,
  "Wakeman": 21581,
  "pia": 29261,
  "##stances": 9694,
  "Ung": 26997,
  "muscles": 4944,
  "Brong": 21258,
  "1865": 26004,
  "enable": 7387,
  "contig": 11818,
  "appendix": 12316,
  "Diana": 18827,
  "chart": 8348,
  "Any": 11341,
  "##ifted": 15887,
  "illness": 11876,
  "figure": 2945,
  "Notis": 15016,
  "##ita": 2781,
  "Fair": 5081,
  "sold": 3158,
  "fusion": 15525,
  "##eded": 10845,
  "##fri": 16691,
  "plante": 6335,
  "Willis": 16697,
  "Bucannon": 28987,
  "Folio": 4113,
  "Joan": 12447,
  "tha": 13519,
  "desper": 8175,
  "affirmed": 23512,
  "##kers": 14549,
  "Marcell": 29751,
  "##iety": 8064,
  "elastic": 7554,
  "##orship": 15190,
  "waist": 11076,
  "##Dg": 29977,
  "Ruth": 25739,
  "pupils": 16033,
  "##I": 411,
  "information": 4197,
  "##actorily": 18200,
  "Conce": 24948,
  "lier": 22629,
  "fum": 22030,
  "Webster": 27892,
  "reduce": 12176,
  "elaborate": 13245,
  "Ud": 26449,
  "vir": 2695,
  "Soft": 28613,
  "Ev": 4979,
  "pieces": 3846,
  "octavo": 25612,
  "RA": 27848,
  "Arts": 8928,
  "abbrevi": 21391,
  "Cree": 18482,
  "Nug": 26402,
  "Bryd": 24306,
  "##rogen": 9005,
  "remarquable": 18704,
  "love": 2028,
  "Copenhagen": 19984,
  "Turk": 14487,
  "##ivid": 2848,
  "Repert": 28139,
  "prepare": 9958,
  "Institution": 6838,
  "Sall": 23829,
  "##ake": 974,
  "reign": 4381,
  "##cens": 15572,
  "seg": 21888,
  "dangers": 16828,
  "justify": 15212,
  "Butler": 9786,
  "ott": 21100,
  "##cence": 15634,
  "##icans": 19681,
  "##asms": 26615,
  "1678": 17767,
  "##iA": 19679,
  "rib": 7983,
  "Britain": 4210,
  "Determ": 27885,
  "Crystall": 24271,
  "##quire": 6215,
  "Town": 4771,
  "##HED": 17449,
  "toL": 16303,
  "Oxon": 9435,
  "calf": 6110,
  "Rever": 15229,
  "##bt": 1577,
  "Digit": 2762,
  "suck": 19614,
  "faits": 13165,
  "Plan": 5501,
  "cal": 1596,
  "boundary": 14354,
  "##rop": 2455,
  "chron": 6177,
  "253": 11621,
  "senseless": 28926,
  "Camb": 14252,
  "##road": 5485,
  "luminous": 9070,
  "Cec": 24310,
  "ig": 6629,
  "##town": 13877,
  "##at": 631,
  "voyages": 16931,
  "PRES": 16286,
  "##bons": 23991,
  "hate": 9835,
  "angust": 10661,
  "queen": 7433,
  "satire": 25807,
  "Path": 26864,
  "Eur": 3159,
  "crops": 19636,
  "Marian": 13240,
  "##iche": 5163,
  "##ciences": 4617,
  "phenomene": 23627,
  "<|endoftext|>": 0,
  "Loch": 10964,
  "guard": 5418,
  "gether": 18336,
  "##monde": 24242,
  "tenants": 13423,
  "Grafton": 27626,
  "pink": 16400,
  "Field": 8377,
  "loses": 19678,
  "##estine": 17976,
  "##oo": 2891,
  "nonn": 15367,
  "##ardens": 6864,
  "\u2193": 353,
  "symptom": 26286,
  "agrees": 14095,
  "ze": 20423,
  "##\u0674": 589,
  "frequency": 27187,
  "##semb": 9270,
  "\u06c1": 288,
  "sight": 3766,
  "declares": 19961,
  "instrumental": 26788,
  "regulated": 15667,
  "proportions": 7542,
  "Sealed": 29695,
  "18mo": 19119,
  "Tick": 25395,
  "##IGHT": 10984,
  "establishments": 22000,
  "preceded": 13694,
  "Prin": 3981,
  "training": 21941,
  "##INT": 27394,
  "##ZZ": 18726,
  "##iting": 4094,
  "cens": 11712,
  "Offic": 6489,
  "imag": 3257,
  "time": 976,
  "1762": 15169,
  "##ico": 3009,
  "##erat": 28330,
  "##eks": 8414,
  "Solar": 14444,
  "Beyond": 27266,
  "##ople": 1619,
  "Museum": 4514,
  "ink": 13291,
  "villa": 12829,
  "interfere": 15448,
  "Kee": 11543,
  "##fin": 8211,
  "sel": 6947,
  "Electric": 27781,
  "rewards": 28041,
  "cava": 27962,
  "Font": 17225,
  "pitch": 7053,
  "Cong": 6385,
  "ser": 1460,
  "sulphuretted": 22187,
  "cotyled": 11375,
  "##laimed": 2860,
  "##ats": 2535,
  "cui": 14179,
  "Mol": 12446,
  "grandeur": 11534,
  "townland": 12678,
  "meantime": 15623,
  "employs": 28917,
  "Renard": 23603,
  "Ker": 6770,
  "1765": 14827,
  "##fh": 23341,
  "Piper": 25611,
  "Documents": 22611,
  "eth": 13612,
  "fracture": 19827,
  "out": 970,
  "capture": 22785,
  "Antiquary": 25141,
  "##ection": 2883,
  "Est": 5282,
  "##fal": 18812,
  "lus": 19269,
  "Relations": 29370,
  "Leinster": 10672,
  "rel": 1292,
  "perfect": 2046,
  "##adium": 14076,
  "span": 20613,
  "suppressed": 19426,
  "Bale": 25537,
  "cotes": 18019,
  "Arn": 12471,
  "1697": 18123,
  "machine": 7649,
  "cette": 3005,
  "homme": 24816,
  "Cock": 11226,
  "week": 3759,
  "Birth": 24056,
  "Victor": 17103,
  "torsion": 22673,
  "##Ued": 28754,
  "centrum": 28197,
  "Ye": 6073,
  "Struct": 11611,
  "mr": 22881,
  "Bresil": 25114,
  "General": 2850,
  "suspicious": 19916,
  "anger": 13004,
  "literature": 7174,
  "begs": 23812,
  "simplicity": 11991,
  "saith": 16643,
  "##bis": 4770,
  "reasonable": 9875,
  "Ade": 13832,
  "##lla": 4327,
  "descended": 8520,
  "chartaceus": 18345,
  "Pay": 9324,
  "crease": 29061,
  "method": 2421,
  "analogues": 25208,
  "tom": 6067,
  "##onis": 6693,
  "proceeded": 4629,
  "miracles": 28157,
  "Morocco": 27188,
  "soft": 3832,
  "Boyle": 11449,
  "beloved": 8894,
  "##CK": 15884,
  "investigate": 16601,
  "misfortune": 14159,
  "reliance": 22777,
  "walt": 28600,
  "contrad": 9996,
  "Admin": 21767,
  "##oves": 17710,
  "Pardon": 19377,
  "branches": 4277,
  "ene": 18899,
  "leading": 5917,
  "invasion": 14932,
  "cwt": 27048,
  "size": 3471,
  "##otte": 10287,
  "quaint": 19360,
  "rendered": 4385,
  "##cler": 19495,
  "webs": 22039,
  "undis": 28002,
  "##cially": 3061,
  "Listen": 27409,
  "##\u2510": 599,
  "zeal": 7317,
  "procured": 7598,
  "avant": 10823,
  "relied": 24734,
  "Englifli": 23071,
  "Tull": 15963,
  "frequ": 2674,
  "##him": 23153,
  "rescue": 21491,
  "Oxide": 28202,
  "Wi": 11442,
  "behind": 3457,
  "arrange": 13925,
  "Stamina": 16685,
  "unfavourable": 21519,
  "grey": 6905,
  "presentent": 16753,
  "transact": 23773,
  "##otus": 17080,
  "##rain": 8545,
  "incised": 19536,
  "##fied": 16105,
  "cob": 23526,
  "##acher": 6338,
  "##Ta": 27249,
  "##ipped": 13045,
  "##lor": 1767,
  "##oh": 7703,
  "Koch": 29188,
  "lected": 29433,
  "weigh": 8309,
  "notions": 14442,
  "copies": 5087,
  "Fie": 29078,
  "rede": 29928,
  "junction": 14839,
  "Mace": 22585,
  "gla": 7923,
  "1577": 15836,
  "Holy": 6065,
  "Lionel": 7829,
  "sty": 16139,
  "Plut": 20404,
  "Pill": 23828,
  "##iales": 24909,
  "np": 8149,
  "despatched": 21646,
  "##iformis": 21113,
  "globe": 6994,
  "fron": 25742,
  "##OTT": 20318,
  "paths": 21118,
  "Paper": 5035,
  "##E": 427,
  "##idiam": 23276,
  "folds": 19998,
  "prosecuted": 24437,
  "Gospel": 16605,
  "melting": 15778,
  "167": 2910,
  "cas": 4840,
  "Weber": 26580,
  "##je": 5503,
  "##gend": 5816,
  "deductions": 25078,
  "audible": 22543,
  "pros": 4402,
  "sarc": 23767,
  "oath": 8061,
  "dialogue": 23633,
  "fove": 22397,
  "Eccles": 14592,
  "Plum": 26249,
  "admired": 12341,
  "Lb": 26293,
  "abide": 21985,
  "##cis": 2412,
  "543": 26839,
  "##ftions": 20291,
  "rin": 27559,
  "marg": 7067,
  "acknow": 5364,
  "vet": 18028,
  "dry": 3816,
  "beast": 17036,
  "anyone": 15310,
  "Blood": 11978,
  "eng": 2250,
  "code": 22963,
  "##ural": 1645,
  "analy": 7760,
  "sudden": 2741,
  "15\u00b0": 22722,
  "477": 20693,
  "hac": 25839,
  "been": 826,
  "posit": 10514,
  "ri": 4255,
  "##olite": 17326,
  "anne": 14022,
  "Mines": 15741,
  "421": 20561,
  "shoulders": 10252,
  "astonishment": 10967,
  "##riac": 18369,
  "promoted": 20171,
  "stick": 9438,
  "porcelain": 27058,
  "##ults": 9828,
  "29th": 11620,
  "Big": 15715,
  "78": 3370,
  "christian": 25494,
  "expiration": 15585,
  "Leipz": 16763,
  "##hon": 25835,
  "sweep": 20297,
  "user": 29347,
  "##MON": 27661,
  "\u2089": 337,
  "Colonies": 16600,
  "aes": 18327,
  "farm": 8317,
  "disapp": 7259,
  "Michael": 5317,
  "cool": 5738,
  "Discourses": 23979,
  "disappe": 5515,
  "1200": 21809,
  "wilderness": 24814,
  "\u200c": 304,
  "##oos": 24658,
  "les": 1063,
  "lull": 25314,
  "##ote": 1752,
  "Otho": 25465,
  "implicit": 28453,
  "##a\u00ac": 11216,
  "Lm": 27651,
  "cf": 9186,
  "Hodg": 18721,
  "evere": 25404,
  "magnified": 16246,
  "Roma": 13754,
  "Br": 1451,
  "suspended": 7279,
  "sept": 6982,
  "tke": 22775,
  "peaceful": 18225,
  "8i": 26951,
  "transit": 11142,
  "mt": 12440,
  "whit": 9513,
  "Devel": 22657,
  "Warrant": 22027,
  "Empire": 11970,
  "Examination": 16653,
  "electrolyte": 27287,
  "##rid": 3837,
  "recommended": 8356,
  "##gham": 11668,
  "limits": 7181,
  "transition": 16280,
  "Porter": 18129,
  "zealous": 18265,
  "poetic": 26594,
  "Charter": 10038,
  "Hospital": 5133,
  "brighter": 19477,
  "Pelham": 27361,
  "Berlin": 8912,
  "33": 1620,
  "Lodge": 12326,
  "ain": 9692,
  "##TICAL": 18909,
  "##osity": 10430,
  "room": 1743,
  "Wilmot": 28778,
  "etend": 12405,
  "hydrochlor": 24086,
  "grounds": 7073,
  "dedu": 11144,
  "##mia": 27525,
  "Mont": 3086,
  "tremendous": 12501,
  "tes": 14238,
  "las": 7639,
  "suburbs": 23390,
  "Comb": 17173,
  "stretch": 13606,
  "##pus": 3985,
  "node": 23640,
  "distressing": 24641,
  "##aff": 4289,
  "##ented": 4828,
  "given": 1492,
  "propriety": 12346,
  "Wellesley": 18455,
  "Engraving": 29377,
  "welcomed": 27366,
  "pane": 27081,
  "Should": 12428,
  "bosom": 7848,
  "##rock": 13911,
  "tendency": 8209,
  "mead": 15308,
  "prosecution": 15130,
  "High": 4512,
  "conform": 8438,
  "precautions": 16394,
  "teeth": 5002,
  "##eli": 13425,
  "Eucl": 17757,
  "Cecil": 8191,
  "##organ": 15990,
  "##essed": 6594,
  "##resa": 19749,
  "mon": 1354,
  "defendant": 15894,
  "##97": 25159,
  "Imper": 7284,
  "##etus": 9074,
  "##vest": 12172,
  "##AV": 4790,
  "Sale": 13273,
  "eagerly": 14591,
  "Bologna": 19399,
  "Augustine": 22945,
  "##ng": 932,
  "eon": 17195,
  "##be": 1254,
  "calcem": 22781,
  "fb": 18580,
  "band": 4766,
  "women": 4287,
  "Er": 3623,
  "regiment": 13325,
  "##vt": 16767,
  "25": 1324,
  "##orea": 21718,
  "##ierement": 10294,
  "Q": 92,
  "Addition": 18754,
  "rule": 5613,
  "Poor": 7361,
  "\u062a\u06be\u0627": 15698,
  "tales": 15941,
  "EARL": 29840,
  "guineas": 10326,
  "chieft": 21225,
  "decl": 2498,
  "##enger": 11753,
  "undert": 5366,
  "##usis": 16612,
  "301": 12927,
  "Mack": 9860,
  "tire": 12862,
  "rapid": 3547,
  "##fait": 14166,
  "840": 26541,
  "solitude": 16170,
  "Caroline": 9181,
  "##odia": 26193,
  "veloc": 4804,
  "intim": 7035,
  "Yough": 18895,
  "regular": 3726,
  "expe": 12199,
  "\u06d2": 291,
  "wb": 16870,
  "feat": 16838,
  "Hibbert": 26173,
  "##\u0648\u0644": 24624,
  "Stras": 29444,
  "\u0691": 281,
  "classic": 24499,
  "coffee": 12742,
  "anom": 11676,
  "REF": 26161,
  "fide": 15051,
  "L": 87,
  "cu": 4859,
  "unc": 2404,
  "sulph": 2887,
  "ce": 1312,
  "poses": 25228,
  "ej": 5712,
  "COMP": 11909,
  "National": 7606,
  "leger": 18835,
  "CONT": 11808,
  "luce": 26727,
  "##gies": 15761,
  "Past": 13075,
  "##ousse": 18764,
  "Dung": 19065,
  "##culiar": 3084,
  "unseen": 27840,
  "Citizens": 23510,
  "Clon": 8786,
  "##cape": 15393,
  "Natur": 11710,
  "ik": 15952,
  "##ariis": 10334,
  "potass": 7813,
  "##kk": 20527,
  "lobis": 14716,
  "existe": 13175,
  "Lect": 9189,
  "##erent": 16972,
  "env": 6633,
  "##AR": 1279,
  "fruct": 7849,
  "Henrici": 20038,
  "##voc": 6622,
  "States": 4243,
  "\u0645\u06a9": 23243,
  "consisting": 6518,
  "##orious": 6237,
  "dismal": 18562,
  "hat": 4686,
  "utmost": 6514,
  "twentieth": 26031,
  "contribute": 13849,
  "##itations": 11936,
  "secure": 6939,
  "##amus": 16304,
  "gallons": 23014,
  "pushing": 27375,
  "reg": 1235,
  "twisted": 19441,
  "dates": 11912,
  "wolde": 17535,
  "infl": 4939,
  "Pest": 28326,
  "Coins": 23182,
  "extraction": 27219,
  "nox": 22975,
  "ex": 713,
  "<|whilst|>": 31,
  "1906": 21945,
  "fills": 26368,
  "Viz": 29966,
  "dorsal": 16233,
  "detached": 11730,
  "Spencer": 15626,
  "conic": 27904,
  "yearly": 9710,
  "2e": 27844,
  "\u2084": 336,
  "teaching": 14065,
  "cylindrical": 16094,
  "preparatory": 27588,
  "1736": 16323,
  "vices": 15632,
  "curing": 24138,
  "##SE": 6439,
  "##iful": 2665,
  "Georgiana": 21578,
  "partial": 8318,
  "byC": 26773,
  "\u03c1": 213,
  "##ber": 859,
  "Sea": 5612,
  "dich": 14608,
  "prohibited": 26682,
  "426": 21396,
  "absence": 5590,
  "##ants": 1414,
  "##ffe": 13723,
  "annot": 17082,
  "Chap": 5716,
  "##ene": 1283,
  "sat": 3160,
  "pris": 9294,
  "beautifully": 12121,
  "Henri": 11018,
  "WiU": 18879,
  "Howth": 22536,
  "##all": 742,
  "##itudine": 16146,
  "##isper": 27859,
  "##reet": 1436,
  "unique": 15538,
  "surf": 1805,
  "Nova": 11039,
  "passes": 6871,
  "Hen": 1629,
  "famine": 25025,
  "6d": 2908,
  "730": 25485,
  "##\u0292": 613,
  "##\u20ac": 445,
  "wick": 17393,
  "Nic": 6206,
  "Esther": 20597,
  "##urin": 26372,
  "rey": 29507,
  "173": 3014,
  "recently": 6118,
  "delir": 20262,
  "decom": 4245,
  "Byr": 23184,
  "Kat": 21192,
  "Bowen": 24046,
  "\u03bf": 211,
  "AF": 16957,
  "Atlantic": 15066,
  "##ulet": 22127,
  "bif": 13151,
  "rather": 2128,
  "##peak": 24027,
  "utric": 11560,
  "thirst": 16039,
  "##erated": 29799,
  "regretted": 19503,
  "pierced": 17934,
  "Hamp": 19226,
  "Coff": 10253,
  "opium": 20885,
  "embryon": 11337,
  "prejudices": 19742,
  "soever": 21525,
  "##entes": 5983,
  "animals": 3640,
  "mumm": 25399,
  "boldly": 17515,
  "faisceau": 20543,
  "OS": 10586,
  "##laim": 2040,
  "rescued": 25901,
  "phial": 16422,
  "Coach": 22124,
  "richer": 25150,
  "clergy": 7933,
  "Miscellany": 25528,
  "Kit": 15524,
  "##heen": 28280,
  "##iser": 14931,
  "travaux": 20999,
  "screwed": 21826,
  "##ulte": 12314,
  "regarde": 27738,
  "tends": 15451,
  "Sinc": 18326,
  "Forbes": 18174,
  "sortes": 28251,
  "##wood": 4480,
  "##OSE": 13409,
  "Cer": 9936,
  "##conis": 28064,
  "Hebr": 27489,
  "engra": 5098,
  "How": 2285,
  "specim": 3224,
  "conversion": 17452,
  "##wm": 28279,
  "ceed": 18086,
  "Bishops": 10925,
  "##b": 434,
  "##inders": 19172,
  "TRANSACTIONS": 3536,
  "##idis": 6914,
  "libre": 23683,
  "expl": 2078,
  "exhibits": 11877,
  "serm": 8385,
  "##aul": 17960,
  "828": 29824,
  "##UB": 5126,
  "##B": 430,
  "##25": 8914,
  "Thesa": 24284,
  "##60": 6827,
  "subsess": 25810,
  "##end": 1031,
  "MAC": 14063,
  "Chiffin": 18144,
  "boil": 17258,
  "tinged": 19897,
  "##onna": 27456,
  "dove": 26301,
  "##piece": 29095,
  "JAMES": 14080,
  "provoked": 26703,
  "##ifil": 27766,
  "communion": 26599,
  "bos": 6911,
  "acc": 944,
  "1517": 23067,
  "##ague": 4358,
  "##amph": 7786,
  "MAJ": 25570,
  "Ork": 20861,
  "##inb": 28698,
  "hundred": 2913,
  "##ocity": 23619,
  "##eo": 25587,
  "mined": 19627,
  "formes": 12786,
  "##itto": 2972,
  "mountains": 6433,
  "##athers": 26306,
  "uninterrupted": 26442,
  "neglected": 10022,
  "innocent": 8505,
  "Colonel": 3943,
  "Ce": 3196,
  "Apart": 25447,
  "etab": 25786,
  "590": 23353,
  "alloys": 27084,
  "Trib": 18878,
  "Straits": 25128,
  "Sudden": 25496,
  "457": 23097,
  "moments": 7051,
  "libert": 4253,
  "astonishing": 21431,
  "Into": 16919,
  "clothed": 15976,
  "Earle": 19105,
  "mercury": 4923,
  "betimes": 21785,
  "EF": 25246,
  "others": 1821,
  "puisse": 27631,
  "report": 3248,
  "##FIELD": 20058,
  "await": 18661,
  "tota": 24902,
  "paid": 3404,
  "mut": 3719,
  "Christend": 20863,
  "Mason": 16275,
  "adm": 1700,
  "expulsion": 28863,
  "grew": 6251,
  "calycis": 21577,
  "constructing": 26683,
  "Knock": 12090,
  "deepest": 14601,
  "##ome": 788,
  "MA": 7896,
  "grievances": 26053,
  "enemy": 7280,
  "Nam": 16785,
  "statue": 13570,
  "municated": 24106,
  "##ld": 711,
  "4a": 27077,
  "##eroy": 29907,
  "##REN": 15663,
  "boy": 2707,
  "##NO": 4911,
  "crooked": 24212,
  "infect": 23745,
  "attracting": 24407,
  "##utors": 14748,
  "quoted": 9159,
  "##\u03b4": 563,
  "humid": 27307,
  "diat": 27139,
  "Paris": 1735,
  "relax": 13767,
  "Berth": 25413,
  "EXC": 27026,
  "dcx": 15599,
  "Lar": 7774,
  "collected": 4858,
  "scene": 4707,
  "lanceolato": 23571,
  "tenths": 21855,
  "insects": 9616,
  "metre": 24325,
  "##42": 23612,
  "##mor": 13172,
  "strangely": 18290,
  "##opp": 6241,
  "##IX": 5283,
  "Huygens": 20549,
  "file": 9082,
  "disappoint": 11948,
  "voted": 17482,
  "dissip": 13410,
  "miles": 3165,
  "centimet": 24259,
  "fullest": 22352,
  "Project": 3417,
  "fero": 22817,
  "una": 8421,
  "disad": 17817,
  "lined": 14854,
  "unpleasant": 15235,
  "APPENDIX": 17287,
  "\u0666": 272,
  "\u2078": 330,
  "oppositis": 28665,
  "##UR": 1877,
  "faire": 7569,
  "Emanuel": 28454,
  "amusing": 17448,
  "##IE": 6290,
  "##nds": 9851,
  "Opp": 15579,
  "Griffin": 26646,
  "relativement": 28063,
  "mouve": 10997,
  "lu": 6960,
  "##ye": 4464,
  "\u0641\u0631": 27720,
  "dinner": 3579,
  "pawn": 27222,
  "coral": 18283,
  "reconcil": 14936,
  "exact": 2688,
  "description": 3057,
  "##ag": 794,
  "qua": 6744,
  "dost": 21496,
  "compressed": 13901,
  "perihelion": 27751,
  "secundum": 15692,
  "neigh": 3096,
  "Burgo": 28877,
  "admixture": 29636,
  "era": 14714,
  "Enough": 27877,
  "Public": 4994,
  "smo": 6332,
  "philos": 7630,
  "Comme": 24563,
  "Ephemer": 23187,
  "popularity": 21463,
  "##ientot": 21991,
  "milky": 25032,
  "Eye": 15317,
  "countries": 5244,
  "ovo": 15927,
  "oppo": 24263,
  "trivial": 23077,
  "won": 5880,
  "rc": 12238,
  "Brien": 11256,
  "##bone": 17898,
  "cime": 25906,
  "##ething": 2770,
  "Refract": 12370,
  "##ixture": 20050,
  "Lands": 10572,
  "situated": 5439,
  "fibres": 5347,
  "Petrie": 18479,
  "##entle": 1642,
  "concludes": 9404,
  "planes": 9993,
  "expended": 16074,
  "picked": 15482,
  "Illustrated": 17704,
  "##iveness": 12284,
  "Bu": 4777,
  "##\u064a\u06d2": 19270,
  "indef": 12935,
  "excite": 10478,
  "generous": 8071,
  "pert": 8103,
  "Cro": 6172,
  "woman": 2384,
  "18th": 10311,
  "beauties": 18998,
  "##ather": 1124,
  "1651": 20173,
  "grooves": 20995,
  "##FORD": 15966,
  "metropolis": 12277,
  "Hall": 3120,
  "62\u00b0": 28622,
  "Writing": 24051,
  "##\u0633\u062a": 21301,
  "Ls": 27372,
  "appreciate": 21630,
  "shine": 17112,
  "scope": 16660,
  "dye": 21385,
  "##dom": 3202,
  "1647": 15564,
  "barn": 27010,
  "segment": 10386,
  "##ium": 1276,
  "falling": 6774,
  "morocco": 7071,
  "##with": 4337,
  "defy": 25197,
  "##wich": 3819,
  "1883": 24993,
  "uf": 9085,
  "##esses": 5941,
  "ruled": 17665,
  "Ornith": 24478,
  "Nees": 27771,
  "avowed": 24497,
  "14s": 20258,
  "elegantly": 17840,
  "##rom": 718,
  "Yellow": 18685,
  "Epit": 15555,
  "shews": 21937,
  "7i": 19533,
  "Cast": 5523,
  "##rob": 20528,
  "swallowed": 19149,
  "PRI": 18524,
  "union": 7605,
  "theorems": 22950,
  "ani": 13266,
  "way": 1441,
  "##etur": 9165,
  "Yes": 2886,
  "1593": 13177,
  "again": 1097,
  "Variation": 18267,
  "inherit": 17954,
  "resumed": 7646,
  "##iffs": 8403,
  "##iddle": 2708,
  "phenomena": 4765,
  "exs": 13236,
  "##ori": 5864,
  "rear": 17724,
  "157": 3100,
  "led": 2984,
  "tints": 16137,
  "##sel": 879,
  "bar": 1827,
  "##S": 414,
  "requires": 8131,
  "Tara": 22246,
  "Guildhall": 21163,
  "##NE": 4631,
  "##lica": 26692,
  "dot": 19808,
  "cast": 3276,
  "San": 4328,
  "anciens": 26853,
  "coff": 8010,
  "Tl": 16221,
  "rapidly": 6101,
  "Pall": 9333,
  "effort": 7939,
  "closet": 17142,
  "##elia": 10204,
  "patent": 9873,
  "remarque": 15657,
  "arranged": 5593,
  "ak": 18367,
  "Savoy": 16395,
  "\u0644\u06cc": 26021,
  "glimpse": 17003,
  "cles": 23302,
  "Dollond": 27202,
  "island": 4551,
  "pneum": 28946,
  "Quarterly": 14915,
  "Nouvelles": 23757,
  "abom": 20479,
  "prim": 3142,
  "466": 21138,
  "til": 14030,
  "computed": 10617,
  "XXXVI": 28155,
  "travellers": 12476,
  "##racted": 3632,
  "##pendant": 10089,
  "Fergus": 17492,
  "quadrang": 20105,
  "group": 6041,
  "rugged": 20870,
  "affir": 14886,
  "##inoceros": 22139,
  "describe": 7188,
  "insignificant": 26141,
  "##lected": 3723,
  "advoc": 12356,
  "##achus": 17257,
  "wherefore": 13207,
  "park": 12158,
  "stall": 19289,
  "Dor": 7225,
  "ellipse": 22491,
  "Patav": 25102,
  "##RE": 2457,
  "dagger": 20634,
  "sundry": 18245,
  "tamen": 15526,
  "fraternity": 29117,
  "288": 12628,
  "Murphy": 16930,
  "##illery": 15457,
  "Maule": 25276,
  "##urer": 3776,
  "fart": 4491,
  "##icon": 9164,
  "foret": 22654,
  "Magnetic": 10052,
  "appre": 4285,
  "reli": 18976,
  "prol": 7596,
  "If": 1558,
  "established": 4625,
  "##illeurs": 15703,
  "siege": 16512,
  "repeated": 4079,
  "##\u0686": 500,
  "baker": 29390,
  "kindly": 8433,
  "curse": 17174,
  "teacher": 19427,
  "parti": 15256,
  "Gerald": 9088,
  "Forster": 20275,
  "fissures": 22298,
  "cho": 4267,
  "ap": 922,
  "492": 25170,
  "ITS": 21758,
  "amusements": 25897,
  "leagues": 16025,
  "Daniel": 7916,
  "missionary": 13697,
  "Blackrock": 24751,
  "83": 3254,
  "Gam": 21409,
  "##riage": 3168,
  "Eleanor": 17089,
  "##hc": 20759,
  "associ": 4582,
  "##igny": 22347,
  "coils": 28707,
  "uppermost": 18023,
  "metres": 19931,
  "endow": 21255,
  "##ilding": 26739,
  "##atres": 14189,
  "ora": 19170,
  "steep": 8605,
  "pile": 9191,
  "extent": 3636,
  "miracle": 28013,
  "##onum": 15456,
  "ast": 2725,
  "Pennsylvania": 25535,
  "ignition": 20622,
  "convent": 12320,
  "Gou": 28032,
  "quarry": 21603,
  "luxur": 21434,
  "whan": 22755,
  "Ciceronis": 28735,
  "Litter": 24548,
  "Hipp": 12307,
  "analogue": 21229,
  "anni": 20728,
  "Langu": 12332,
  "##apside": 16773,
  "circonstances": 27076,
  "##ronomy": 6626,
  "##otten": 5446,
  "serviceable": 28484,
  "##ilt": 2120,
  "Saturday": 9143,
  "eadem": 16608,
  "divise": 22459,
  "##OST": 14086,
  "Frederic": 18034,
  "exercised": 13632,
  "lords": 4298,
  "org": 4799,
  "saint": 11888,
  "##ouve": 3760,
  "Sr": 12180,
  "conductor": 12402,
  "flav": 17513,
  "Cy": 5419,
  "##abili": 26271,
  "suicide": 28334,
  "achieved": 23572,
  "composition": 5599,
  "##ANE": 8096,
  "diverted": 29753,
  "##oldt": 12515,
  "augmented": 16823,
  "communicates": 28058,
  "brane": 26589,
  "occasional": 11646,
  "charmed": 23404,
  "##ield": 1589,
  "##ificates": 28616,
  "Ie": 27291,
  "VIE": 26352,
  "Syn": 9132,
  "asserted": 12933,
  "colum": 7492,
  "Malta": 26359,
  "presently": 6885,
  "##uccess": 21028,
  "##ltry": 23358,
  "Visc": 8719,
  "bismuth": 16751,
  "Edith": 12716,
  "##umm": 8180,
  "##atre": 4100,
  "fus": 8674,
  "Miles": 15697,
  "AG": 10258,
  "Lee": 9704,
  "strove": 28976,
  "Lif": 24059,
  "Lab": 8942,
  "##laced": 9737,
  "257": 12968,
  "malice": 20367,
  "nomine": 17649,
  "##gomery": 18911,
  "Wit": 11617,
  "185": 3902,
  "mortal": 10471,
  "PRINTED": 20021,
  "consecrated": 21189,
  "tut": 17780,
  "oils": 21744,
  "##anti": 20147,
  "mail": 17408,
  "##oty": 11952,
  "Que": 2386,
  "scarce": 2626,
  "priv": 2816,
  "edition": 3701,
  "vesicles": 20865,
  "##ices": 1761,
  "##oii": 15332,
  "Griffith": 20872,
  "humbly": 17874,
  "##heres": 18797,
  "dies": 11950,
  "begins": 8511,
  "constit": 3941,
  "Ea": 20946,
  "##never": 7395,
  "##\u0627\u0646": 6105,
  "bi": 6525,
  "Pant": 20005,
  "spa": 18353,
  "##roc": 8542,
  "powers": 3993,
  "PHIL": 3188,
  "##TA": 10405,
  "cooling": 13287,
  "dilate": 28151,
  "##ates": 1185,
  "\u2021": 316,
  "accompanies": 26279,
  "infirm": 14968,
  "##inf": 26238,
  "589": 28875,
  "iia": 25468,
  "mans": 6976,
  "##board": 12456,
  "succ": 1992,
  "\u0638": 251,
  "622": 25672,
  "Advert": 22205,
  "Concl": 25226,
  "senses": 11447,
  "##lers": 9100,
  "Eden": 22257,
  "##agers": 15782,
  "province": 10041,
  "Meg": 23038,
  "##vir": 16622,
  "##iece": 7936,
  "appointment": 8865,
  "##ifie": 18850,
  "These": 2185,
  "Folk": 18855,
  "affirm": 11845,
  "##ait": 1455,
  "galvanic": 20470,
  "##erum": 6900,
  "Isle": 9885,
  "##fig": 25623,
  "Pn": 28268,
  "particulierement": 28306,
  "##ccion": 29001,
  "dem": 2466,
  "Lime": 15820,
  "\u0646\u06c1": 13457,
  "Spr": 9063,
  "gree": 23639,
  "inconsiderable": 19696,
  "Fahrenheit": 15105,
  "sepulch": 15475,
  "dipping": 19776,
  "##aw": 2248,
  "undergone": 14541,
  "volcano": 14833,
  "##ut": 664,
  "thither": 8307,
  "immersion": 22700,
  "##md": 8074,
  "practice": 5030,
  "Chich": 15619,
  "##ners": 5275,
  "transactions": 14558,
  "dining": 14490,
  "disturbing": 15996,
  "also": 1116,
  "sagacity": 24688,
  "clim": 9493,
  "pulmonary": 23111,
  "Soph": 8627,
  "monthly": 17160,
  "Wheat": 20667,
  "avoided": 13696,
  "##fts": 8995,
  "hemisp": 11413,
  "i2": 24517,
  "##\u0662": 562,
  "27th": 12194,
  "utter": 5130,
  "barony": 12487,
  "yards": 6278,
  "ferred": 28667,
  "claim": 4534,
  "Passio": 27827,
  "gt": 21617,
  "foi": 21050,
  "Liverpool": 8355,
  "fuller": 27093,
  "864": 27013,
  "Spen": 12739,
  "waves": 10899,
  "##retches": 20860,
  "prem": 4431,
  "##worth": 3829,
  "conn": 2256,
  "##hing": 1506,
  "pine": 18601,
  "experienced": 6549,
  "shadow": 8874,
  "explaining": 18541,
  "##utenant": 6747,
  "203": 10391,
  "tongue": 6072,
  "##igent": 8499,
  "Reed": 17244,
  "lodge": 19847,
  "anten": 8273,
  "cork": 18440,
  "RICH": 15109,
  "themselves": 2245,
  "nected": 23803,
  "##otic": 11339,
  "##utum": 16743,
  "Ath": 3830,
  "##ria": 4610,
  "Emma": 10701,
  "##ental": 7938,
  "##ing": 645,
  "##TION": 1922,
  "wilt": 16073,
  "Wilkins": 13800,
  "106": 6631,
  "admits": 14735,
  "222": 10605,
  "accepting": 24145,
  "foot": 2680,
  "quis": 20446,
  "smiling": 11248,
  "##atio": 2397,
  "##etch": 5614,
  "##atuor": 13258,
  "easier": 18477,
  "##hels": 24426,
  "FELLOWS": 28317,
  "bottom": 4016,
  "Clavering": 19016,
  "Casaub": 13091,
  "Nerv": 19375,
  "fail": 3763,
  "engine": 7579,
  "Jt": 16234,
  "Joh": 4310,
  "##moires": 27580,
  "machinery": 13774,
  "immersed": 12981,
  "celebrity": 27691,
  "ars": 20257,
  "cili": 14338,
  "Amer": 2897,
  "\u0395": 186,
  "perfectly": 3590,
  "blend": 15708,
  "pasture": 22509,
  "drop": 8236,
  "pamphlet": 18526,
  "##berry": 12903,
  "CASTLE": 28028,
  "##olta": 22400,
  "approve": 18238,
  "valve": 15814,
  "liver": 12163,
  "##ed": 633,
  "initials": 28260,
  "Air": 7544,
  "Birmingham": 5407,
  "n": 121,
  "##ANG": 17001,
  "Vaughan": 24975,
  "Species": 13484,
  "tang": 6899,
  "riches": 15829,
  "aid": 5106,
  "seller": 23165,
  "Buckingham": 11743,
  "nouve": 6540,
  "nunc": 8675,
  "effectually": 13360,
  "Maitland": 29670,
  "##heda": 20803,
  "Dutch": 7354,
  "sizes": 15844,
  "##ards": 2400,
  "##urnal": 8806,
  "##ferred": 6111,
  "avenue": 16120,
  "Payments": 24608,
  "Tw": 2745,
  "selection": 17714,
  "##eem": 6193,
  "before": 1109,
  "Salisbury": 12372,
  "##aping": 14093,
  "pressure": 4434,
  "rusty": 19871,
  "381": 15892,
  "##He": 24224,
  "commer": 5932,
  "##lier": 4399,
  "inconven": 8457,
  "fluid": 3029,
  "##uve": 21638,
  "Opus": 12901,
  "calcul": 3046,
  "##atural": 29855,
  "filets": 19826,
  "logical": 22986,
  "sternly": 24050,
  "Warden": 27613,
  "soothing": 26574,
  "\ua75d": 381,
  "##antic": 6589,
  "addition": 3295,
  "wt": 13473,
  "egress": 29618,
  "wra": 10788,
  "obiit": 21912,
  "uneas": 16770,
  "title": 4282,
  "Tup": 28033,
  "Resurrection": 14460,
  "iti": 21442,
  "City": 3600,
  "demi": 19888,
  "ina": 22424,
  "delegates": 17777,
  "stems": 22037,
  "Bill": 7024,
  "was": 690,
  "difficult": 2372,
  "PLATES": 26849,
  "Clement": 13074,
  "##isted": 6160,
  "\u200f": 306,
  "chose": 9536,
  "sence": 28462,
  "folioles": 25864,
  "dart": 11564,
  "##lom": 14595,
  "Sloane": 16982,
  "##6t": 15781,
  "Inquis": 27134,
  "Montoni": 13390,
  "##cker": 10937,
  "fibr": 14044,
  "copy": 2736,
  "unfit": 18620,
  "special": 5722,
  "##ude": 1466,
  "Satan": 20413,
  "Dolly": 29728,
  "Thunder": 27441,
  "arrival": 6715,
  "prope": 13293,
  "##ness": 1150,
  "Super": 8016,
  "Martin": 4404,
  "##pse": 4384,
  "exer": 10659,
  "castles": 16470,
  "concretions": 26782,
  "lymph": 17942,
  "##aux": 2173,
  "1756": 12800,
  "##HILL": 28081,
  "signify": 22319,
  "##addles": 12552,
  "SHE": 21585,
  "##illed": 2505,
  "Connor": 16542,
  "357": 14794,
  "##held": 7010,
  "##iB": 12193,
  "firing": 23744,
  "voisine": 27074,
  "indol": 26460,
  "chorus": 28561,
  "gravel": 12472,
  "Command": 17788,
  "marrying": 24546,
  "##doms": 17464,
  "##hers": 4844,
  "##elling": 19136,
  "propagation": 21545,
  "enterpr": 11273,
  "yea": 24907,
  "imper": 3685,
  "oO": 27168,
  "peaceable": 29365,
  "##OV": 6187,
  "rubb": 21461,
  "inacc": 13690,
  "OBS": 12859,
  "plea": 16345,
  "satir": 25341,
  "groaned": 29125,
  "creation": 13753,
  "purely": 15792,
  "Assemb": 12969,
  "##ma": 2616,
  "ruin": 6625,
  "ending": 13648,
  "moyen": 16041,
  "cau": 9055,
  "sab": 22090,
  "Monthly": 15476,
  "Chief": 7023,
  "warrior": 23513,
  "##atro": 24199,
  "hospitals": 22297,
  "steam": 5915,
  "hot": 3868,
  "illustration": 10946,
  "USE": 28597,
  "contradict": 19433,
  "denoted": 18213,
  "rar": 6148,
  "ro": 1060,
  "life": 1594,
  "Parish": 11028,
  "glor": 20403,
  "usum": 24985,
  "##ranger": 25475,
  "patience": 12188,
  "fructification": 23416,
  "lod": 4584,
  "##i": 395,
  "mingled": 8951,
  "##iand": 22307,
  "Hux": 26904,
  "radiated": 27238,
  "Cf": 15445,
  "countrymen": 15223,
  "anticipate": 23267,
  "##odium": 11236,
  "beans": 28084,
  "Swe": 11729,
  "prophet": 19274,
  "slender": 10423,
  "fals": 26105,
  "Mas": 10854,
  "##ARD": 4660,
  "credit": 6815,
  "##anc": 3209,
  "prep": 8443,
  "Sit": 16676,
  "##neys": 10230,
  "##VENT": 15511,
  "accuse": 29107,
  "##ension": 3917,
  "##inta": 16412,
  "features": 5925,
  "mell": 26732,
  "287": 13269,
  "lab": 2259,
  "Hodgson": 20976,
  "Mos": 11887,
  "notation": 22934,
  "number": 1715,
  "##asion": 8121,
  "\u0648\u06c1\u0627\u06ba": 24862,
  "Armen": 20082,
  "##quiries": 17888,
  "##OMBEY": 22219,
  "##88": 11344,
  "exha": 7376,
  "charcoal": 10330,
  "Poems": 8154,
  "Metrop": 23289,
  "##apel": 5115,
  "Pros": 13526,
  "ingredient": 24609,
  "excursions": 28144,
  "walk": 2780,
  "warlike": 23593,
  "bein": 27482,
  "DECAIS": 27161,
  "##ifer": 6190,
  "Mur": 4801,
  "rejoiced": 19501,
  "sentiment": 8677,
  "anNO": 24133,
  "bustle": 22271,
  "Gmel": 29556,
  "##aze": 29359,
  "\u02d9": 181,
  "meaning": 5871,
  "##av": 876,
  "Petty": 22020,
  "Prop": 5843,
  "pave": 13508,
  "Joseph": 3903,
  "\u061b": 231,
  "Before": 7633,
  "tat": 18776,
  "##itants": 20080,
  "toes": 25058,
  "struct": 2934,
  "##iber": 5979,
  "<|date|>": 37,
  "unh": 6563,
  "##ando": 9922,
  "with": 687,
  "Mercury": 12461,
  "Boiss": 19428,
  "Dorville": 18363,
  "Beverley": 25687,
  "steady": 9690,
  "impressed": 12173,
  "JOURNAL": 14205,
  "Dissent": 27061,
  "##pd": 26910,
  "\u06a9\u06cc\u0627": 23306,
  "470": 17136,
  "##ear": 3772,
  "Leach": 16809,
  "##EED": 10166,
  "JOHN": 7379,
  "Sac": 7429,
  "termin": 6033,
  "##ix": 1050,
  "##okes": 15583,
  "Netherlands": 26223,
  "devel": 3012,
  "Drog": 20417,
  "whe": 779,
  "tlie": 2168,
  "vicar": 20268,
  "aaa": 23832,
  "hia": 18014,
  "Prophe": 22161,
  "hasten": 18178,
  "Phi": 28240,
  "##ah": 2233,
  "belong": 2558,
  "cubic": 9349,
  "simile": 27301,
  "93": 4009,
  "D": 79,
  "sentimental": 24506,
  "##verb": 18935,
  "##cell": 2282,
  "bellows": 25379,
  "invent": 6343,
  "##inian": 17784,
  "##car": 10266,
  "weakness": 11561,
  "##vers": 1239,
  "1794": 7857,
  "remains": 3268,
  "sorry": 7255,
  "independ": 5336,
  "##leys": 14007,
  "new": 1326,
  "##ogram": 23314,
  "then": 1010,
  "##acic": 18042,
  "mathematical": 11042,
  "caverns": 20799,
  "ct": 7120,
  "##historic": 19063,
  "chamber": 3773,
  "paroxys": 27052,
  "577": 26156,
  "begging": 22727,
  "##gle": 16317,
  "##kea": 29005,
  "Matters": 23665,
  "saturated": 17862,
  "mig": 18552,
  "PAP": 13757,
  "perc": 20610,
  "expansion": 10246,
  "fortune": 5529,
  "History": 2516,
  "deposition": 19813,
  "wy": 17671,
  "writer": 5572,
  "##illum": 27566,
  "principaux": 24670,
  "consolation": 16781,
  "Tn": 18989,
  "1819": 5756,
  "##racts": 3324,
  "researches": 7364,
  "Auc": 29725,
  "vation": 18385,
  "forehead": 11828,
  "afflicted": 15153,
  "occupy": 10527,
  "##pool": 7580,
  "brush": 19818,
  "##arynx": 21664,
  "##iment": 2485,
  "dt": 12373,
  "apprehens": 9077,
  "Jud": 5837,
  "attorney": 15593,
  "bark": 7013,
  "dl": 11004,
  "Shall": 12391,
  "av": 2269,
  "annually": 11517,
  "Gom": 23202,
  "plupart": 16344,
  "longed": 18765,
  "Very": 5701,
  "salary": 18822,
  "##ulph": 2424,
  "##posed": 1923,
  "##pl": 1039,
  "Cord": 12432,
  "Baroness": 10841,
  "Hag": 19302,
  "erection": 15147,
  "1866": 26162,
  "sub": 943,
  "462": 22355,
  "MY": 18549,
  "End": 7764,
  "##URN": 8398,
  "secre": 9198,
  "139": 7487,
  "tar": 9802,
  "Os": 5230,
  "\u25ba": 365,
  "fecond": 15251,
  "\u06be": 287,
  "fbr": 20654,
  "1870": 15101,
  "##asti": 19615,
  "basket": 15735,
  "connexions": 29474,
  "temperature": 2958,
  "##ono": 19323,
  "CAT": 9491,
  "Gentleman": 12159,
  "lik": 20741,
  "##ecture": 4819,
  "Major": 4832,
  "variable": 11188,
  "Tra": 3075,
  "door": 2124,
  "twelve": 4472,
  "##OLE": 26274,
  "imports": 29119,
  "##quer": 4825,
  "continues": 9048,
  "ten": 1963,
  "recom": 16874,
  "Senate": 27359,
  "##inary": 2183,
  "gaze": 12018,
  "Leave": 25792,
  "##illen": 21344,
  "asunder": 18711,
  "creeping": 25533,
  "sund": 16204,
  "inevitable": 23023,
  "glo": 4155,
  "Liqu": 19789,
  "Prefident": 28116,
  "situ": 2581,
  "##TS": 4318,
  "##og": 878,
  "seriously": 13306,
  "eminent": 6538,
  "##fet": 21201,
  "scales": 12170,
  "tested": 29091,
  "flex": 9580,
  "solutions": 9393,
  "##atisf": 2580,
  "afternoon": 5574,
  "!": 44,
  "##AIN": 6541,
  "conditions": 6590,
  "certificate": 21186,
  "Collier": 28966,
  "ruins": 7672,
  "Lomd": 26560,
  "##lichen": 25671,
  "Foot": 5857,
  "rh": 5160,
  "##aneum": 29631,
  "Paine": 22648,
  "unpr": 20927,
  "fractions": 26394,
  "roads": 10958,
  "elapsed": 11149,
  "mercantile": 24713,
  "Next": 11455,
  "ciples": 29130,
  "414": 17700,
  "##r": 394,
  "Wren": 18025,
  "cut": 2337,
  "Greville": 26431,
  "CHRIST": 20974,
  "18s": 10973,
  "Transactions": 4303,
  "propri": 9316,
  "IT": 7798,
  "rolling": 17207,
  "522": 24916,
  "##ieme": 9765,
  "##cca": 8844,
  "Do": 2025,
  "##enf": 10512,
  "compilation": 29694,
  "praed": 23359,
  "##broken": 29771,
  "conced": 19613,
  "275": 11024,
  "indiffer": 25723,
  "dearest": 9278,
  "##fit": 4995,
  "tx": 28135,
  "fun": 3236,
  "##ims": 6543,
  "Otto": 15131,
  "stagger": 20705,
  "Houfe": 18038,
  "clasping": 28219,
  "##oup": 3995,
  "Epitaph": 26757,
  "quiet": 5043,
  "Bench": 16570,
  "##Ki": 29267,
  "protect": 8901,
  "forms": 3401,
  "##jj": 12779,
  "##ellum": 5428,
  "silica": 20216,
  "jl": 29144,
  "ew": 19437,
  "Manners": 16133,
  "##th": 725,
  "pletely": 29664,
  "##77": 11586,
  "lun": 7537,
  "##oD": 26729,
  "Burns": 28582,
  "##arm": 3113,
  "Hunting": 13734,
  "sylv": 23621,
  "Nom": 17655,
  "Yor": 6748,
  "broad": 4394,
  "peculiarity": 17192,
  "rend": 6282,
  "##fy": 13780,
  "articles": 5373,
  "Crus": 23720,
  "pariet": 26734,
  "pist": 9524,
  "hr": 21683,
  "Ik": 23934,
  "ear": 1223,
  "radiation": 21875,
  "attendance": 10866,
  "##long": 11798,
  "Eagle": 28322,
  "pubescent": 11996,
  "##gency": 18753,
  "declination": 10639,
  "##allen": 12240,
  "cemented": 27641,
  "##aco": 25910,
  "##ilio": 21886,
  "Strong": 12344,
  "Strype": 20701,
  "disappo": 8171,
  "sessilibus": 24439,
  "##az": 2112,
  "eas": 2255,
  "##oyal": 1509,
  "stay": 4952,
  "MER": 20551,
  "##onger": 17917,
  "LIT": 8463,
  "fiss": 12673,
  "Establish": 15896,
  "moor": 23709,
  "Duch": 25423,
  "rene": 7310,
  "Lindley": 23236,
  "##abil": 29151,
  "platform": 17250,
  "##ans": 820,
  "##ully": 2241,
  "profoundly": 19162,
  "engaging": 29283,
  "formed": 2264,
  "chaleur": 14694,
  "deserted": 14687,
  "Qu": 1987,
  "##fices": 16733,
  "Explanation": 26264,
  "montrer": 23361,
  "task": 8026,
  "communic": 2676,
  "Williams": 9357,
  "pere": 19511,
  "1709": 17511,
  "486": 24175,
  "##ang": 1076,
  "Almighty": 20682,
  "historian": 16777,
  "body": 1818,
  "##press": 10561,
  "subc": 14137,
  "##anks": 4316,
  "Afric": 4781,
  "remedy": 10064,
  "##ling": 1756,
  "pend": 3473,
  "##Av": 29975,
  "totum": 22155,
  "inocul": 24625,
  "attractions": 17528,
  "bal": 5496,
  "##lf": 2752,
  "deflection": 19960,
  "vestig": 15551,
  "Greenland": 18263,
  "##ieuse": 27216,
  "Bernou": 29374,
  "820": 26047,
  "Vibr": 14702,
  "imposed": 13076,
  "Fel": 10425,
  "##amental": 13913,
  "classification": 18137,
  "\u25a0": 362,
  "nion": 23208,
  "##lie": 1180,
  "Herod": 17836,
  "were": 797,
  "Tractatus": 15546,
  "ipsius": 25237,
  "premiers": 19763,
  "doubtful": 9706,
  "plano": 25264,
  "##iling": 4070,
  "##undred": 2790,
  "##uch": 1006,
  "##vert": 3490,
  "dehors": 21152,
  "##inners": 15750,
  "DISCOURSE": 26328,
  "3e": 29784,
  "tio": 21226,
  "Dryden": 24477,
  "pass": 1184,
  "vertebrae": 19560,
  "consult": 7313,
  "##pur": 25282,
  "innov": 26846,
  "done": 1910,
  "mas": 8214,
  "diameter": 3648,
  "pan": 5438,
  "##UM": 3961,
  "Antiqu": 4006,
  "Hend": 25063,
  "denom": 8911,
  "gird": 24454,
  "brine": 26965,
  "Bun": 12289,
  "Storm": 28342,
  "##sed": 23307,
  "##ilver": 13534,
  "dant": 25741,
  "Mineralogy": 20677,
  "throws": 22123,
  "Bentley": 29033,
  "ounces": 11982,
  "merid": 4993,
  "Journ": 27878,
  "gratified": 18340,
  "longo": 27572,
  "bears": 7336,
  "##abe": 22690,
  "Britons": 22783,
  "fondly": 22822,
  "real": 2988,
  "Shad": 19199,
  "##aseous": 18159,
  "##cB": 21317,
  "wrist": 28429,
  "##eenth": 9456,
  "##ographical": 5810,
  "needle": 3637,
  "10th": 8405,
  "eaux": 27759,
  "subdu": 11182,
  "Sb": 24761,
  "titles": 12954,
  "crystallization": 20624,
  "Mosc": 27317,
  "##aths": 14013,
  "Justice": 7230,
  "##utter": 17198,
  "Bever": 20078,
  "Gow": 19657,
  "##hold": 5292,
  "##ingle": 12477,
  "larges": 23652,
  "wandering": 15090,
  "surrendered": 24723,
  "##urous": 23089,
  "INSCRIP": 26393,
  "pu": 3435,
  "910": 28972,
  "##iet": 6591,
  "\u00b6": 153,
  "Det": 10194,
  "videtur": 17180,
  "##arre": 27527,
  "nineteen": 18842,
  "Animals": 14813,
  "ym": 28080,
  "obscure": 8197,
  "proportioned": 26384,
  "rosy": 28644,
  "\u2500": 356,
  "nos": 9115,
  "serum": 20274,
  "##ose": 798,
  "dresses": 17969,
  "elevation": 8101,
  "names": 3405,
  "epis": 21112,
  "396": 15499,
  "A": 76,
  "pel": 12595,
  "##forth": 9445,
  "Coleridge": 22327,
  "##R": 459,
  "Neap": 22723,
  "Mess": 4849,
  "makes": 3909,
  "nomenclature": 25044,
  "imprison": 11531,
  "accom": 2286,
  "angels": 20139,
  "Master": 4311,
  "heretofore": 15797,
  "##iflion": 18436,
  "1682": 15539,
  "Ann": 2617,
  "SO": 7353,
  "series": 2694,
  "pronounce": 18667,
  "accuracy": 6729,
  "thyself": 22414,
  "imply": 20335,
  "##isements": 27664,
  "Span": 5271,
  "headed": 10965,
  "##oquy": 27830,
  "maybe": 20884,
  "autant": 15366,
  "Hun": 21864,
  "lap": 14509,
  "mentioning": 18475,
  "witli": 10313,
  "##iculi": 26276,
  "sign": 2341,
  "eat": 5125,
  "Thomson": 12590,
  "filiform": 13021,
  "richest": 21215,
  "<|pad|>": 2,
  "##ibre": 29212,
  "Construction": 23470,
  "axe": 9138,
  "alco": 7075,
  "undertaking": 14828,
  "1897": 10637,
  "rumour": 27030,
  "304": 13378,
  "Pol": 3894,
  "WATER": 23019,
  "##bet": 14649,
  "##omo": 21871,
  "offer": 3072,
  "Nicholas": 5107,
  "delicate": 6535,
  "ultim": 11217,
  "About": 6093,
  "Aberdeen": 19639,
  "seule": 7081,
  "Mul": 12913,
  "sides": 3352,
  "##ob": 1734,
  "constancy": 29453,
  "awaken": 29581,
  "rH": 17279,
  "deer": 14304,
  "583": 28248,
  "remarkable": 3305,
  "flocks": 28141,
  "Go": 1895,
  "##ffected": 25628,
  "Sug": 22338,
  "##ifl": 10431,
  "RICHARD": 16956,
  "##ourable": 3833,
  "616": 29821,
  "##inde": 16224,
  "irons": 29014,
  "dorso": 19805,
  "miscre": 27418,
  "edu": 29969,
  "Epitome": 29071,
  "fry": 28275,
  "sacrifice": 10347,
  "namely": 5343,
  "Bed": 6154,
  "folia": 10695,
  "tap": 13333,
  "respects": 7704,
  "Germany": 8205,
  "152": 4495,
  "errand": 20485,
  "##elle": 3693,
  "##regn": 10678,
  "worldly": 16720,
  "##mentioned": 25326,
  "nan": 26185,
  "Seb": 20432,
  "##WARD": 16302,
  "##on": 626,
  "pyramids": 28639,
  "complet": 9199,
  "##\u03c5": 483,
  "beating": 15665,
  "Episcop": 10299,
  "contribution": 21312,
  "enormous": 10778,
  "##ary": 854,
  "1529": 23599,
  "concerning": 2641,
  "Wat": 6571,
  "\u2013": 307,
  "irregularly": 22845,
  "Wild": 13140,
  "prett": 24228,
  "Beginning": 26441,
  "##oro": 18233,
  "Kilc": 22356,
  "##minster": 5246,
  "Father": 6763,
  "brut": 19817,
  "ends": 4918,
  "fruitful": 29469,
  "##hors": 6107,
  "##urious": 9337,
  "##enser": 21392,
  "##bacco": 12791,
  "toujours": 9235,
  "##ween": 1255,
  "##\u0641": 499,
  "##eb": 23868,
  "acetate": 25912,
  "puber": 17047,
  "Squ": 7399,
  "##pire": 5356,
  "1675": 14796,
  "##ousand": 3201,
  "Capp": 25511,
  "bases": 11423,
  "scut": 27729,
  "equator": 9795,
  "##point": 27746,
  "differences": 6377,
  "##retions": 19751,
  "XXVI": 21357,
  "soin": 23614,
  "Lae": 29557,
  "vasculaire": 26946,
  "tubercul": 20090,
  "##haven": 17762,
  "practised": 10902,
  "##amatta": 24489,
  "##acke": 29002,
  "##see": 23275,
  "amidst": 10376,
  "MANUS": 14130,
  "indisp": 13539,
  "field": 3391,
  "handed": 11232,
  "ted": 9332,
  "##AVE": 18070,
  "Kilm": 13597,
  "##ia": 822,
  "discrim": 23122,
  "##raneous": 15271,
  "##ulatus": 22720,
  "##iler": 11246,
  "attire": 20482,
  "wished": 6028,
  "##iary": 23990,
  "enclosed": 13106,
  "##92": 26234,
  "##heim": 18259,
  "##jd": 20954,
  "##keley": 13138,
  "pression": 17904,
  "Geoff": 14236,
  "whereon": 26530,
  "mathematics": 18292,
  "Templ": 18735,
  "shelves": 22668,
  "Bris": 26833,
  "touching": 5820,
  "Copyright": 28883,
  "Cir": 20815,
  "rod": 6980,
  "##iquement": 25596,
  "Pref": 9715,
  "aer": 12822,
  "electri": 21532,
  "##jr": 7800,
  "diametre": 13362,
  "posted": 18558,
  "Avith": 23957,
  "Hol": 5609,
  "despised": 24601,
  "Ear": 1867,
  "##rec": 10846,
  "bab": 10270,
  "sym": 3820,
  "anf": 26817,
  "Josh": 14987,
  "##asions": 28371,
  "Pel": 13156,
  "governess": 24348,
  "rank": 5456,
  "##pore": 28422,
  "bh": 20352,
  "pencils": 24246,
  "vowed": 29332,
  "1613": 16285,
  "Clarke": 12003,
  "##ungs": 7076,
  "##iture": 6851,
  "##abeth": 3619,
  "Objects": 24236,
  "gra": 1201,
  "sprung": 16882,
  "nouvelles": 10926,
  "noisy": 28941,
  "##\u02d9": 524,
  "cortical": 19263,
  "magistrates": 18741,
  "advantages": 7928,
  "difl": 17190,
  "encoun": 9247,
  "och": 16316,
  "Merrion": 26542,
  "laugh": 6138,
  "bords": 15328,
  "mp": 26650,
  "running": 6274,
  "Worcester": 12638,
  "##ya": 23152,
  "Gunthorpe": 22612,
  "negociations": 27551,
  "Dob": 13087,
  "dynam": 25768,
  "play": 3049,
  "##Ve": 29045,
  "spur": 19837,
  "Dalton": 17925,
  "liability": 26197,
  "fleshy": 26049,
  "remainder": 8715,
  "##PPER": 27506,
  "##icial": 26073,
  "aversion": 23736,
  "##verted": 5294,
  "addressing": 12017,
  "bass": 25740,
  "8622": 8151,
  "Jam": 16560,
  "Received": 22062,
  "gent": 7469,
  "secreted": 26000,
  "burying": 26220,
  "frankly": 22905,
  "\u02d6": 180,
  "corps": 7543,
  "goddess": 28073,
  "\u0643": 258,
  "quarrel": 13296,
  "##herty": 22282,
  "beforehand": 29519,
  "lessen": 26781,
  "minutis": 28069,
  "horizontally": 21359,
  "cham": 8167,
  "THIS": 16339,
  "##ware": 18831,
  "514": 22208,
  "Moy": 10918,
  "Sle": 18525,
  "##mr": 17213,
  "##ird": 1793,
  "oscillation": 22547,
  "##oce": 21043,
  "Lawrence": 13599,
  "Cle": 6397,
  "Clergy": 14175,
  "MEN": 24277,
  "hypog": 21625,
  "Brew": 9130,
  "opinion": 2517,
  "Distribution": 22899,
  "siderable": 18520,
  "laying": 9596,
  "Ghost": 18859,
  "yielding": 16093,
  "edited": 9290,
  "stam": 11080,
  "Traits": 21266,
  "##gm": 21637,
  "varies": 12022,
  "partem": 22308,
  "Tales": 24581,
  "all": 782,
  "consid": 6873,
  "mesures": 26126,
  "Mediol": 25886,
  "played": 9377,
  "Aet": 28684,
  "shift": 25127,
  "##ories": 4780,
  "distribution": 7038,
  "groove": 22213,
  "throughout": 4869,
  "egg": 6116,
  "Val": 4244,
  "individuals": 7593,
  "##\ufb00": 619,
  "committee": 7187,
  "1893": 9918,
  "shallow": 16125,
  "##cb": 13785,
  "thank": 6624,
  "erected": 5872,
  "withal": 22590,
  "Civill": 28977,
  "inscription": 5629,
  "stupid": 20001,
  "spath": 22628,
  "##bles": 4718,
  "\u06a9\u06cc": 10107,
  "weeds": 19792,
  "##ERE": 20907,
  "##87": 20785,
  "qualifications": 23328,
  "Pav": 20584,
  "Further": 13663,
  "##aughan": 21624,
  "##attered": 6636,
  "Linton": 23669,
  "74": 3282,
  "recollections": 23567,
  "concentrated": 15920,
  "##inj": 25017,
  "diocese": 16780,
  "##ulatory": 23524,
  "Sid": 9592,
  "makers": 18657,
  "ail": 10652,
  "lens": 7503,
  "puzzled": 25651,
  "dwellings": 20997,
  "##ervation": 24358,
  "omin": 20952,
  "scru": 15191,
  "Bibliotheca": 14870,
  "##cipled": 29718,
  "##atives": 7022,
  "##rency": 17398,
  "glazed": 28400,
  "##iliary": 20935,
  "wool": 14165,
  "Hor": 4848,
  "Gerard": 18011,
  "Marianne": 20774,
  "AL": 3550,
  "Katherine": 15839,
  "Romance": 22639,
  "scanty": 21940,
  "Water": 3559,
  "##OU": 3463,
  "526": 25995,
  "Celt": 9062,
  "expect": 2599,
  "permitted": 7924,
  "University": 5443,
  "Academy": 5333,
  "shire": 16186,
  "responsibility": 21902,
  "##mitted": 3565,
  "Judge": 13983,
  "Po": 1832,
  "forfe": 12566,
  "sans": 6130,
  "##aven": 4453,
  "##IEL": 14728,
  "Fl": 3582,
  "1872": 26789,
  "Zoe": 17883,
  "Laurence": 19802,
  "moon": 4048,
  "Sci": 13929,
  "##ee": 1838,
  "extremites": 25603,
  "Compan": 14009,
  "C0": 22554,
  "shifting": 27385,
  "##roved": 21588,
  "LETTERS": 27320,
  "##acha": 20929,
  "Athlone": 19800,
  "joining": 15060,
  "THIR": 28253,
  "\u062f\u06cc\u06a9": 22776,
  "274": 12448,
  "lith": 12166,
  "candidates": 27834,
  "separ": 2461,
  "applications": 17769,
  "deliber": 10147,
  "592": 27310,
  "builder": 29122,
  "tells": 6091,
  "stove": 28136,
  "professors": 29955,
  "08": 4823,
  "propre": 15269,
  "Impress": 7894,
  "crystals": 5811,
  "magnifying": 18068,
  "##action": 3976,
  "##ida": 4754,
  "Relig": 7895,
  "obso": 14299,
  "Bent": 15506,
  "##covered": 21601,
  "stir": 7419,
  "la": 791,
  "grosse": 23542,
  "dream": 5626,
  "ova": 12569,
  "amiable": 10493,
  "expelled": 17037,
  "furniture": 12196,
  "Reduct": 16633,
  "Grantham": 24088,
  "##emen": 10693,
  "##riment": 17446,
  "Writers": 29308,
  "##acent": 8431,
  "##ousses": 23972,
  "##itating": 10657,
  "enem": 4698,
  "inten": 26036,
  "humane": 21893,
  "##fe": 1447,
  "Berwick": 18010,
  "MUR": 27475,
  "##bad": 25876,
  "MONT": 16905,
  "cul": 8350,
  "##oglyph": 28341,
  "accompanied": 5207,
  "##oth": 1103,
  "##emon": 6796,
  "##rupt": 4589,
  "##fect": 4659,
  "limbo": 24676,
  "fortunately": 18720,
  "##\u0648": 470,
  "chased": 28086,
  "##48": 29906,
  "6l": 21582,
  "choice": 7907,
  "indicate": 9202,
  "friendship": 8733,
  "derive": 13388,
  "1787": 9568,
  "Four": 5119,
  "accomplishments": 27783,
  "Hauton": 10390,
  "##quin": 19307,
  "##ms": 1690,
  "##vais": 29567,
  "##rys": 12427,
  "plentiful": 21631,
  "limitation": 21481,
  "##ifications": 6837,
  "curvature": 16000,
  "junior": 23444,
  "maintains": 28627,
  "colour": 2051,
  "Whereas": 27403,
  "##ipot": 23379,
  "lately": 4183,
  "##inable": 16623,
  "autograph": 20083,
  "flexible": 27281,
  "##sei": 20590,
  "Jes": 6325,
  "\u063b": 254,
  "##fore": 947,
  "NATURAL": 23930,
  "Barometer": 9887,
  "emp": 14358,
  "avert": 29192,
  "##ME": 17380,
  "Brough": 19840,
  "##cta": 23523,
  "acule": 29221,
  "SP": 6472,
  "of": 628,
  "major": 6339,
  "Speculum": 27741,
  "##nus": 20758,
  "hc": 26336,
  "Vols": 7194,
  "tage": 26769,
  "##itated": 4927,
  "telescopes": 17388,
  "Meth": 24127,
  "redist": 29699,
  "##alee": 17355,
  "356": 15529,
  "jp": 28181,
  "flushed": 27260,
  "Lecture": 9462,
  "Terra": 23474,
  "justly": 9528,
  "etamine": 23198,
  "##isses": 25705,
  "besee": 16820,
  "house": 1418,
  "1784": 9541,
  "chlorine": 8923,
  "fla": 4429,
  "Cann": 15974,
  "weeping": 17339,
  "Circular": 29375,
  "stockings": 22159,
  "epaisseur": 22167,
  "prefent": 25860,
  "1829": 5610,
  "tribes": 11559,
  "rhomb": 26751,
  "dis\u00ac": 18693,
  "fung": 17379,
  "imp": 1051,
  "quence": 22403,
  "##usse": 24462,
  "District": 20515,
  "ethyl": 22548,
  "##rane": 5445,
  "rewarded": 21516,
  "Bess": 15602,
  "\u0660": 266,
  "exported": 28474,
  "##itty": 14597,
  "Die": 10368,
  "readily": 5410,
  "petiol": 7375,
  "pays": 12874,
  "##ancery": 12735,
  "##vere": 4874,
  "Trans": 2310,
  "carried": 3006,
  "Brethren": 29127,
  "tearing": 28615,
  "benefic": 11657,
  "vaulted": 28891,
  "heredit": 26553,
  "lace": 16319,
  "arid": 16731,
  "ovules": 18493,
  "rt": 7618,
  "sig": 23273,
  "summ": 7069,
  "##val": 2737,
  "destroyed": 5404,
  "mn": 14452,
  "etude": 21016,
  "translation": 7668,
  "softer": 23246,
  "curt": 9223,
  "oxygen": 4893,
  "amiss": 26245,
  "quern": 28375,
  "speaker": 22289,
  "subtle": 22135,
  "##TICE": 26924,
  "observing": 6852,
  "forming": 5067,
  "vient": 18105,
  "unequal": 11098,
  "minut": 10418,
  "315": 13097,
  "gloves": 23413,
  "neut": 8905,
  "##he": 623,
  "del": 1627,
  "Eton": 25119,
  "Table": 4180,
  "Senior": 28018,
  "##vent": 1459,
  "manly": 19051,
  "##esia": 7745,
  "ofi": 27128,
  "88": 3451,
  "Here": 2947,
  "blind": 6587,
  "vertical": 6741,
  "varnish": 23076,
  "##ucid": 8310,
  "##abet": 9761,
  "allusions": 27387,
  "obe": 20064,
  "Printed": 7824,
  "##000": 7926,
  "crush": 25798,
  "mangan": 23345,
  "BELL": 27042,
  "cust": 3764,
  "430": 16488,
  "Inhab": 19440,
  "BRE": 19717,
  "barley": 18045,
  "stars": 3848,
  "##ieurs": 5240,
  "respectable": 8478,
  "Youghal": 19768,
  "stim": 9370,
  "##ved": 1080,
  "##Si": 18465,
  "Pian": 21061,
  "died": 2799,
  "##ki": 8891,
  "FRANC": 16906,
  "1583": 13669,
  "suspicion": 7822,
  "##udes": 5010,
  "##ele": 14369,
  "##fen": 22561,
  "Ibid": 11069,
  "lesson": 17920,
  "asserts": 24150,
  "##rov": 11085,
  "sus": 2287,
  "vn": 13613,
  "ovario": 24873,
  "\u0391": 183,
  "introduction": 7043,
  "refreshment": 24123,
  "vital": 9962,
  "##bald": 19645,
  "htt": 22774,
  "oli": 14648,
  "toutes": 6841,
  "Sull": 19855,
  "Gen": 5042,
  "Theatre": 11593,
  "cours": 21037,
  "##nor": 27248,
  "Md": 20632,
  "Claim": 27757,
  "dehisc": 19532,
  "Lynn": 27075,
  "Hack": 18058,
  "vera": 24237,
  "Introduct": 24503,
  "Changes": 26303,
  "army": 6097,
  "##amens": 20380,
  "atmo": 24254,
  "subjects": 4391,
  "wliich": 11244,
  "##appe": 4716,
  "owed": 17445,
  "construct": 12304,
  "##rolled": 28042,
  "flattered": 22759,
  "Barnaby": 23922,
  "Order": 7028,
  "##iga": 27862,
  "vasc": 15883,
  "demolished": 28071,
  "evolved": 11677,
  "ignom": 29829,
  "pedigree": 20749,
  "surpri": 23316,
  "hir": 14962,
  "corrections": 14363,
  "Gres": 15914,
  "ruler": 23047,
  "looks": 4974,
  "inj": 3745,
  "\u0645\u06cc": 22378,
  "Glas": 8762,
  "members": 4260,
  "##bishop": 5301,
  "revival": 25853,
  "Prospect": 20699,
  "nord": 26651,
  "rudiments": 27468,
  "dissertation": 19676,
  "brom": 16677,
  "##pte": 16459,
  "123": 7247,
  "lique": 23998,
  "prayers": 11274,
  "##inae": 14268,
  "vegetation": 10254,
  "eut": 22560,
  "One": 2655,
  "compr": 12780,
  "exempt": 16642,
  "##irts": 19455,
  "##iles": 2020,
  "amb": 5921,
  "OP": 6496,
  "##uret": 6800,
  "##BURY": 24249,
  "planned": 29004,
  "chance": 4967,
  "##OH": 23398,
  "haught": 12522,
  "xxv": 25605,
  "Gaul": 18165,
  "sider": 8736,
  "ciety": 14142,
  "surrounds": 28486,
  "lint": 20655,
  "nitrous": 15520,
  "Dennis": 26649,
  "plunge": 25725,
  "##arney": 15618,
  "Dunstable": 28971,
  "writes": 10920,
  "1635": 23659,
  "##INO": 27909,
  "palpi": 19258,
  "larva": 29224,
  "##iori": 13276,
  "musical": 14361,
  "ascend": 5327,
  "BIR": 28221,
  "Clog": 24493,
  "thermometer": 6445,
  "throwing": 10891,
  "Brit": 1961,
  "Cholmonde": 27645,
  "Mayer": 25915,
  "Cho": 24111,
  "minded": 15497,
  "169": 3265,
  "fusc": 29376,
  "MISCELLANEA": 24778,
  "bewildered": 18597,
  "servant": 5229,
  "CAPTAIN": 28024,
  "##ifera": 15847,
  "rocks": 5324,
  "ordering": 22836,
  "superficial": 15879,
  "forgery": 28101,
  "Element": 14039,
  "retain": 8830,
  "Monastic": 25756,
  "fifteen": 7645,
  "arrives": 19599,
  "##ink": 1213,
  "whi": 27001,
  "##ustic": 15824,
  "##olle": 12009,
  "quadru": 19390,
  "fitz": 24654,
  "seventy": 12818,
  "Anno": 11445,
  "mystery": 10100,
  "penet": 6180,
  "##ilke": 27903,
  "##celles": 25137,
  "##resent": 2071,
  "##bus": 5025,
  "Shell": 27142,
  "magnific": 7882,
  "##seller": 17664,
  "mark": 2038,
  "##ifies": 10826,
  "359": 14435,
  "parab": 17412,
  "Omn": 16847,
  "##emp": 19975,
  "alleged": 13713,
  "~": 137,
  "inflammable": 19918,
  "wounded": 9816,
  "consumption": 13752,
  "Thames": 8057,
  "Mi": 6550,
  "arguments": 10371,
  "Tyrone": 13685,
  "##urus": 10361,
  "declaration": 13197,
  "Ang": 2995,
  "re\u00ac": 10521,
  "Uriah": 24726,
  "impr": 7750,
  "##tes": 7890,
  "Popery": 27817,
  "Calm": 25445,
  "Sampson": 18444,
  "joyous": 22948,
  "Oldbuck": 24537,
  "##aron": 26612,
  "##cks": 2952,
  "um": 10909,
  "Rog": 6203,
  "##ting": 2486,
  "viz": 3538,
  "PE": 8741,
  "appell": 14382,
  "##ords": 1481,
  "warm": 4189,
  "be\u00ac": 19660,
  "cinere": 27358,
  "##used": 2335,
  "Aret": 29317,
  "quaedam": 26433,
  "##ista": 8847,
  "##hy": 9496,
  "subur": 16854,
  "herd": 23804,
  "##ulas": 14449,
  "yel": 15342,
  "contro": 9901,
  "LIEUT": 22086,
  "grains": 3977,
  "##acles": 7585,
  "cylindrace": 29230,
  "inft": 26915,
  "infer": 2846,
  "witnessed": 13232,
  "cords": 23085,
  "plex": 16208,
  "Pliny": 16498,
  "meadows": 27419,
  "##cket": 5162,
  "\u0627": 234,
  "principes": 23562,
  "Minister": 8510,
  "##izz": 16434,
  "##IR": 3856,
  "##ulam": 22115,
  "coolly": 24628,
  "ai": 3008,
  "##ly": 660,
  "ont": 3952,
  "independent": 7438,
  "##TISH": 20075,
  "alive": 7491,
  "##vin": 9240,
  "##undis": 27953,
  "##reys": 18248,
  "Comparative": 22670,
  "##44": 11150,
  "Rock": 11653,
  "\u252c": 360,
  "painting": 13836,
  "supposed": 3091,
  "arri": 2570,
  "16": 885,
  "##onc": 9566,
  "duties": 6351,
  "maintenant": 24539,
  "glimmer": 25274,
  "1596": 13166,
  "finest": 9697,
  "moitie": 21989,
  "deceit": 26883,
  "Alderman": 10651,
  "hollow": 6529,
  "mum": 22448,
  "404": 15156,
  "exterieur": 19667,
  "abdom": 21154,
  "##more": 5013,
  "bush": 29994,
  "ls": 17983,
  "Common": 5518,
  "##ii": 880,
  "##pha": 19535,
  "exactement": 23656,
  "cotyledons": 18294,
  "Race": 23902,
  "hourly": 24036,
  "commander": 23999,
  "unum": 26030,
  "##lj": 14280,
  "##ased": 1817,
  "splendid": 6742,
  "brick": 12276,
  "earnest": 5570,
  "brilliancy": 20626,
  "##aga": 22936,
  "immedi": 2205,
  "refer": 2375,
  "epr": 27984,
  "probability": 9406,
  "superb": 20069,
  "esq": 13277,
  "praised": 25523,
  "incline": 25802,
  "Recher": 12514,
  "ounce": 15282,
  "Fri": 5146,
  "Gloss": 17648,
  "pen": 2669,
  "examen": 17787,
  "367": 15517,
  "ended": 10373,
  "fund": 5555,
  "luck": 11443,
  "##broke": 27108,
  "Malp": 12752,
  "parv": 18158,
  "##ph": 962,
  "whis": 4925,
  "unes": 17429,
  "Code": 7360,
  "Amy": 22231,
  "##nut": 13115,
  "esta": 20989,
  "heavily": 18289,
  "##olde": 11666,
  "ceux": 8611,
  "##illo": 16411,
  "peasant": 14190,
  "Eu": 9229,
  "##\u06cc\u0627": 5841,
  "##aneous": 3620,
  "citizens": 8193,
  "BET": 27326,
  "##ital": 2268,
  "deuxieme": 28829,
  "ash": 11365,
  "Essai": 14364,
  "spir": 1965,
  "engraved": 8717,
  "IR": 3728,
  "465": 20386,
  "improvement": 7108,
  "scruple": 25275,
  "Petit": 16583,
  "fearing": 27668,
  "calumn": 28053,
  "heavenly": 18430,
  "##archy": 25601,
  "##ofs": 18304,
  "costly": 19127,
  "placing": 8775,
  "Memor": 7978,
  "forte": 18191,
  "##rang": 5394,
  "rooms": 7084,
  "Containing": 23657,
  "##iz": 1042,
  "purch": 4261,
  "Lovel": 26598,
  "\u03b1": 197,
  "##culus": 26202,
  "assid": 21987,
  "utterance": 16231,
  "Pit": 19376,
  "##ittees": 17527,
  "Measure": 21561,
  "Fried": 27370,
  "another": 1443,
  "005": 18474,
  "prices": 8829,
  "Daw": 14058,
  "unp": 7104,
  "Hat": 7991,
  "renfer": 11898,
  "magic": 19846,
  "Claude": 22735,
  "unne": 9472,
  "##criber": 25989,
  "Collections": 9129,
  "measurement": 14838,
  "favor": 11421,
  "day": 1245,
  "##racy": 13676,
  "Stockholm": 19371,
  "treasures": 21147,
  "illustrative": 14983,
  "Kir": 7312,
  "Lom": 16235,
  "##elis": 19361,
  "pro": 740,
  "##ether": 10550,
  "We": 1353,
  "goldsmith": 22051,
  "jeune": 14972,
  "scattered": 9938,
  "Queens": 29226,
  "Roe": 21812,
  "TRAN": 3339,
  "id": 2427,
  "absent": 10901,
  "298": 12886,
  "denominated": 19431,
  "rub": 5083,
  "excer": 24631,
  "turpentine": 20300,
  "365": 13580,
  "opinions": 6756,
  "Right": 4641,
  "repentance": 22993,
  "buck": 20932,
  "disagree": 13126,
  "clothing": 19041,
  "1578": 14887,
  "screws": 21756,
  "\u0632": 245,
  "dei": 19100,
  "254": 11930,
  "##rata": 21523,
  "##orde": 18692,
  "ugly": 18957,
  "4\u00ae": 4987,
  "Bruxelles": 16134,
  "##ees": 5737,
  "care": 2072,
  "none": 3575,
  "anatom": 7498,
  "lav": 14392,
  "cousins": 23263,
  "libris": 23407,
  "Eug": 13441,
  "botanique": 19206,
  "coe": 9209,
  "crescent": 28273,
  "discom": 23254,
  "6o": 19113,
  "Dup": 20780,
  "Harborough": 29054,
  "analogie": 23288,
  "##ale": 1101,
  "agitated": 10962,
  "##\u0283": 565,
  "hospitable": 27548,
  "warmer": 25064,
  "arms": 3077,
  "Macdonald": 28594,
  "##ilic": 12210,
  "##ilh": 10196,
  "converting": 28936,
  "##eri": 9796,
  "dinners": 29900,
  "Cup": 16119,
  "ske": 10179,
  "requested": 10125,
  "solidity": 29765,
  "allowance": 12145,
  "##MAN": 7972,
  "forth": 2791,
  "Ensign": 26987,
  "occasionally": 6820,
  "Wher": 28179,
  "haute": 15415,
  "##ricity": 10190,
  "ui": 11785,
  "pause": 8701,
  "DUKE": 28257,
  "aA": 22995,
  "##hurst": 18232,
  "##cribed": 4078,
  "1899": 12599,
  "efficacy": 21831,
  "##\u00a2": 497,
  "##ulosa": 18467,
  "##cee": 20009,
  "##IUM": 24586,
  "Mortimer": 15089,
  "concur": 11974,
  "Clay": 16964,
  "lads": 25140,
  "trace": 5798,
  "help": 3420,
  "##otti": 18902,
  "##\u00f8": 620,
  "woe": 15120,
  "tremend": 12229,
  "fly": 6360,
  "newspapers": 15409,
  "parliament": 7202,
  "determining": 8265,
  "]": 104,
  "Advent": 18802,
  "4i": 14952,
  "improper": 14253,
  "##ston": 6389,
  "Sour": 20377,
  "exch": 26148,
  "##rection": 8178,
  "stables": 27132,
  "otlier": 29291,
  "Ten": 7921,
  "closely": 6822,
  "##ents": 945,
  "absol": 16144,
  "Chamber": 8949,
  "conception": 17215,
  "ie": 4274,
  "Road": 9418,
  "##irth": 4699,
  "Nickle": 14237,
  "claims": 9268,
  "##acea": 10288,
  "##aient": 6354,
  "morals": 22600,
  "Bennett": 27924,
  "##OUTH": 21182,
  "enn": 22117,
  "Glasses": 29876,
  "displaying": 17140,
  "volunt": 7003,
  "breast": 5913,
  "F1": 28172,
  "suits": 19772,
  "Manufact": 12762,
  "##OCI": 3357,
  "Bir": 9073,
  "Inhabitants": 22552,
  "Ku": 28799,
  "anti": 16078,
  "approximate": 22922,
  "##the": 4379,
  "perd": 21445,
  "disposition": 5929,
  "United": 4557,
  "##apit": 25749,
  "converted": 8885,
  "Chara": 25292,
  "exterieure": 19316,
  "##verte": 13547,
  "holes": 9510,
  "##pis": 26911,
  "Make": 16159,
  "##arn": 2288,
  "Bid": 28458,
  "##vn": 17672,
  "practical": 6404,
  "##eler": 23277,
  "therm": 4917,
  "class": 2606,
  "receipts": 22136,
  "Cres": 15882,
  "atten": 19460,
  "appeared": 2270,
  "##opy": 20504,
  "##idered": 20557,
  "modes": 12608,
  "expression": 4109,
  "Washington": 15925,
  "Beauty": 28647,
  "GH": 25540,
  "expres": 26418,
  "coinage": 27197,
  "##ble": 1110,
  "Mey": 22350,
  "tomorrow": 28974,
  "mirror": 13369,
  "Gn": 20816,
  "Inquiry": 15172,
  "##LIE": 23286,
  "oa": 10195,
  "Zoological": 24093,
  "##etes": 11697,
  "Vibrations": 16056,
  "disinter": 21720,
  "##iun": 20722,
  "epistol": 22152,
  "she": 857,
  "hints": 17656,
  "mutually": 23818,
  "AU": 8597,
  "corpuscle": 21540,
  "shocked": 19006,
  "##ometric": 18236,
  "HAMLET": 27203,
  "##lef": 12260,
  "Declination": 19018,
  "electrometer": 26968,
  "limited": 7237,
  "veiy": 23774,
  "heter": 18708,
  "Bore": 16042,
  "##aut": 1713,
  "extus": 26153,
  "communicating": 14697,
  "peasants": 26012,
  "graveyard": 22852,
  "sour": 4175,
  "replace": 16188,
  "ebb": 24932,
  "acquaint": 3350,
  "IK": 23575,
  "EST": 27846,
  "##mbre": 18196,
  "Watts": 27065,
  "impelled": 25440,
  "##ANY": 16769,
  "266": 12360,
  "369": 14851,
  "mus": 2088,
  "##imis": 12232,
  "Deer": 28819,
  "avarice": 29874,
  "##inel": 26654,
  "ribs": 13995,
  "2000": 18660,
  "illustra": 25962,
  "290": 11381,
  "messenger": 16904,
  "incorporated": 20775,
  "arrest": 15484,
  "Rooms": 21643,
  "##ificate": 13221,
  "trouver": 16173,
  "Cre": 6675,
  "##LOR": 25158,
  "confounded": 15260,
  "heaven": 5558,
  "Bartholomew": 15091,
  "##INGS": 8036,
  "daughter": 3069,
  "altitude": 12847,
  "1535": 27106,
  "##ardin": 20381,
  "##attery": 6466,
  "silice": 23947,
  "mucron": 19762,
  "disdain": 20226,
  "consisted": 8241,
  "Local": 12087,
  "vest": 9488,
  "Expos": 27054,
  "##iancy": 19750,
  "pauc": 23766,
  "94": 3971,
  "##ast": 784,
  "##var": 25663,
  "direct": 2623,
  "Nomina": 29383,
  "enh": 19493,
  "MEMORI": 27069,
  "worsh": 19976,
  "##KS": 4201,
  "went": 2054,
  "services": 7775,
  "threats": 24304,
  "insuff": 16306,
  "##rilles": 27542,
  "fortified": 24434,
  "471": 23098,
  "heap": 15028,
  "OC": 29252,
  "premieres": 23044,
  "##IDE": 16881,
  "accumulated": 17529,
  "invited": 10184,
  "inc": 1252,
  "ex\u00ac": 14636,
  "made": 998,
  "En": 2450,
  "##uring": 1454,
  "kneeling": 25443,
  "sition": 17914,
  "Notice": 9244,
  "Establishment": 19416,
  "##num": 25364,
  "twice": 6074,
  "happiness": 5711,
  "listen": 9389,
  "attribute": 18254,
  "Caulis": 29580,
  "fia": 28745,
  "##ights": 28235,
  "printing": 12208,
  "acumin": 9185,
  "Cair": 17255,
  "Index": 8089,
  "resc": 12965,
  "explained": 6368,
  "##imi": 11842,
  "alarming": 20942,
  "swe": 2914,
  "Nicholson": 26485,
  "Ladies": 13023,
  "lub": 29851,
  "pure": 3911,
  "framed": 21354,
  "LIV": 26183,
  "O": 90,
  "Pain": 21834,
  "##aped": 4238,
  "MARY": 29470,
  "Board": 7807,
  "Obser": 11864,
  "dii": 21657,
  "##obi": 27732,
  "complains": 25206,
  "##ann": 1639,
  "killed": 6759,
  "pursuits": 12751,
  "##hetic": 12385,
  "spi": 27443,
  "##IVE": 23065,
  "##iny": 6856,
  "ambitious": 22743,
  "Tale": 22829,
  "semblables": 21827,
  "##oine": 19246,
  "tran": 5934,
  "Fisher": 14387,
  "bib": 11329,
  "manuscript": 5897,
  "Append": 7248,
  "Chemical": 13005,
  "ht": 9028,
  "Archd": 20535,
  "Arctic": 20012,
  "abo": 20447,
  "Papa": 13778,
  "attitude": 15200,
  "Johan": 25380,
  "radicule": 27458,
  "theques": 26369,
  "afore": 13251,
  "##idays": 23874,
  "Cadiz": 29030,
  "Fy": 27513,
  "AUTH": 23824,
  "fract": 10817,
  "combine": 15087,
  "Buildings": 15565,
  "Archives": 27735,
  "witty": 25981,
  "##pu": 29147,
  "corrobor": 17815,
  "balls": 10066,
  "##aster": 1557,
  "##NW": 16578,
  "##soci": 3512,
  "agreeable": 6780,
  "Beal": 24326,
  "dissimilar": 28734,
  "##adne": 27483,
  "Would": 10395,
  "soon": 1896,
  "Rice": 29792,
  "nails": 18504,
  "feed": 13089,
  "Cros": 19806,
  "##ndi": 20286,
  "5th": 7244,
  "enabling": 25893,
  "qualified": 16651,
  "westerly": 18705,
  "##k": 421,
  "<|year|>": 36,
  "Ayr": 29726,
  "chang": 2720,
  "Virginia": 13342,
  "Proprietors": 19241,
  "Quar": 8781,
  "schoolmaster": 21898,
  "##ff": 815,
  "relates": 10535,
  "diff": 4433,
  "bard": 27982,
  "##rot": 9512,
  "looked": 2802,
  "##EL": 1695,
  "sust": 6615,
  "1514": 28534,
  "Cloudy": 4383,
  "ensuite": 21459,
  "suggested": 6767,
  "seem": 1328,
  "collecting": 17229,
  "clos": 8186,
  "administer": 13418,
  "flexu": 27884,
  "confinement": 17260,
  "Bart": 4359,
  "##giene": 20832,
  "Illustr": 5907,
  "alluding": 29509,
  "Libri": 13712,
  "grant": 3192,
  "##fti": 24171,
  "curiosity": 7678,
  "catast": 22265,
  "tj": 15940,
  "sire": 20586,
  "Aram": 19249,
  "Countries": 14335,
  "royal": 4573,
  "tian": 27614,
  "tour": 9517,
  "mine": 3850,
  "i6": 15643,
  "petiole": 20965,
  "Excursion": 26174,
  "entreaty": 29240,
  "inferieur": 29822,
  "afterward": 16007,
  "##oqu": 7558,
  "Short": 10433,
  "\u0674": 276,
  "prel": 15918,
  "##vd": 22226,
  "##q": 463,
  "breviores": 27155,
  "##BB": 11167,
  "##anim": 10078,
  "Ost": 20781,
  "mir": 5796,
  "endeavouring": 12205,
  "1536": 26974,
  "Islands": 8408,
  "Diet": 25890,
  "dropping": 22433,
  "##pes": 6893,
  "propres": 24035,
  "584": 28769,
  "hal": 10463,
  "extremement": 25638,
  "TOWER": 25770,
  "##atrical": 24390,
  "elder": 8223,
  "libr": 14850,
  "flock": 17159,
  "natures": 25790,
  "nupt": 27504,
  "Preface": 17953,
  "bas": 2448,
  "late": 1927,
  "entreaties": 29480,
  "sangu": 11901,
  "Edm": 5222,
  "verse": 8451,
  "Humb": 11291,
  "Cicero": 20547,
  "respiratory": 19164,
  "rush": 15329,
  "experimental": 11778,
  "gs": 24859,
  "825": 29059,
  "U": 96,
  "Louisa": 4665,
  "^": 105,
  "ky": 25834,
  "strokes": 20052,
  "##idees": 21938,
  "treating": 14852,
  "##inet": 7944,
  "Guer": 23010,
  "Lans": 14329,
  "issuing": 15803,
  "##RIG": 18837,
  "Invent": 20010,
  "nearly": 2033,
  "press": 2329,
  "gelatine": 23335,
  "##rens": 15041,
  "conquest": 14875,
  "pers": 1307,
  "sout": 25121,
  "hic": 27853,
  "succeeding": 11374,
  "Between": 12708,
  "##enny": 3549,
  "Medica": 19597,
  "ordre": 13015,
  "conveyed": 8032,
  "Rhod": 25566,
  "parties": 4646,
  "Mackenzie": 21333,
  "##essor": 2888,
  "1G": 25617,
  "achromatic": 26435,
  "embracing": 22440,
  "ELECTR": 15195,
  "younger": 8538,
  "\u2154": 344,
  "division": 5304,
  "methode": 28098,
  "##anes": 14703,
  "explanatory": 26316,
  "Substance": 25105,
  "bows": 21867,
  "10\u00b0": 19382,
  "##amer": 27861,
  "tibus": 27658,
  "##stall": 26525,
  "Compl": 17040,
  "bushes": 24915,
  "##rut": 20330,
  "Sutton": 19227,
  "##fth": 11815,
  "Muck": 25049,
  "265": 12063,
  "##ousing": 19682,
  "candour": 25207,
  "speci": 12169,
  "pens": 13884,
  "sixth": 9689,
  "contractions": 23332,
  "##ologiques": 23159,
  "student": 14518,
  "shaking": 11703,
  "sufficient": 3229,
  "foreigner": 23327,
  "##ouss": 18000,
  "1793": 8620,
  "ima": 25626,
  "Warner": 20648,
  "ni": 4199,
  "Hair": 19024,
  "phenomen": 3756,
  "##gie": 26814,
  "##usions": 6593,
  "ashamed": 12667,
  "unfrequ": 23362,
  "##lech": 11722,
  "7s": 7494,
  "##Ml": 22857,
  "CC": 17306,
  "Bride": 15734,
  "ecclef": 29658,
  "unanimously": 20497,
  "glancing": 16168,
  "1657": 19409,
  "ow": 7934,
  "vigil": 21432,
  "nar": 21497,
  "index": 7751,
  "possibly": 5071,
  "\u00fe": 170,
  "1627": 23628,
  "Dubl": 2149,
  "beautiful": 3105,
  "laud": 12162,
  "veter": 13918,
  "##20": 5685,
  "\u2125": 341,
  "Dissertatio": 10009,
  "##though": 2632,
  "weather": 4679,
  "##ognost": 27634,
  "matrix": 27099,
  "nigh": 16835,
  "Hunt": 12680,
  "fut": 3680,
  "pun": 2978,
  "peduncul": 15034,
  "quo": 6170,
  "rap": 3083,
  "slab": 7616,
  "Sec": 1721,
  "22": 1327,
  "DOMBEY": 22495,
  "merith": 18645,
  "crossed": 10292,
  "purp": 12748,
  "##entis": 16817,
  "rep": 1066,
  "stranger": 6364,
  "overwhel": 15973,
  "\u00a37": 26610,
  "##\u0647": 543,
  "trap": 11138,
  "bear": 3389,
  "expected": 4157,
  "Membran": 16063,
  "nutrition": 26979,
  "Celtic": 11663,
  "##ianth": 20640,
  "generosity": 17486,
  "aed": 29389,
  "##ference": 3532,
  "##ored": 4301,
  "influenced": 13111,
  "disorders": 23418,
  "\u2534": 361,
  "1786": 9804,
  "261": 12636,
  "##O": 413,
  "thrill": 17290,
  "##ungen": 12740,
  "##rated": 6401,
  "Hyg": 24501,
  "speedily": 8382,
  "periodical": 12525,
  "flank": 29447,
  "Saxondale": 8119,
  "239": 11644,
  "collection": 4200,
  "monaster": 7851,
  "##ock": 1332,
  "Bapt": 9442,
  "clearness": 24747,
  "abovementioned": 27302,
  "Bates": 26292,
  "trouvent": 17220,
  "##iving": 2564,
  "letters": 2960,
  "ell": 2969,
  "Tart": 12709,
  "Lam": 6904,
  "##istic": 6670,
  "Cashel": 18182,
  "##join": 24568,
  "rises": 9831,
  "##ding": 9135,
  "modem": 16667,
  "##iew": 1491,
  "Mons": 7352,
  "appointed": 4323,
  "##antee": 21419,
  "purse": 11336,
  "sober": 13921,
  "##ENCE": 8590,
  "loi": 19515,
  "Willoughby": 21990,
  "Capital": 24542,
  "lawyer": 13649,
  "Eugene": 20651,
  "tannin": 28072,
  "##alogue": 3750,
  "Money": 10647,
  "quae": 9793,
  "charac": 24986,
  "Fruct": 22140,
  "Nouve": 11680,
  "Daniell": 20033,
  "Chrift": 17200,
  "lamp": 7627,
  "sing": 1999,
  "8vo": 1593,
  "raw": 18760,
  "helpless": 22210,
  "laid": 3066,
  "349": 14543,
  "rv": 23086,
  "##TER": 2654,
  "arterial": 25714,
  "stre": 12653,
  "intentions": 15226,
  "Sheriffs": 21121,
  "contempt": 8759,
  "sheriffs": 26602,
  "spectrum": 11351,
  "examine": 6002,
  "Max": 10323,
  "vill": 3330,
  "Educ": 12882,
  "revolving": 17457,
  "##atura": 22664,
  "Pau": 19721,
  "somebody": 14945,
  "##adt": 22916,
  "constructed": 7852,
  "imbib": 19482,
  "AS": 6580,
  "Todd": 24479,
  "manufacturer": 26353,
  "Deg": 17554,
  "\u2158": 346,
  "poetry": 8788,
  "fli": 14491,
  "##escens": 21123,
  "sickness": 14497,
  "secund": 8517,
  "sper": 11026,
  "notes": 4217,
  "##urgh": 29505,
  "regne": 23559,
  "Commons": 5744,
  "serv": 1610,
  "emptied": 24092,
  "leg": 2357,
  "##ANCER": 22367,
  "respiration": 8899,
  "1624": 20240,
  "##ifting": 19513,
  "Wald": 29256,
  "382": 15719,
  "696": 29462,
  "##cs": 4176,
  "oppos": 3071,
  "centimetres": 29964,
  "fir": 995,
  "197": 9837,
  "philosophers": 13404,
  "Huntingdon": 16845,
  "pardon": 7138,
  "Tabulae": 18073,
  "profess": 10881,
  "Bi": 5390,
  "##AINT": 24270,
  "lust": 7653,
  "inside": 7203,
  "bee": 9392,
  "community": 10734,
  "Apparatus": 26644,
  "tor": 4160,
  "cav": 3739,
  "Roth": 20524,
  "hit": 11856,
  "disque": 25093,
  "vale": 20554,
  "pedic": 23596,
  "Deuts": 28859,
  "Salis": 11212,
  "caracter": 7947,
  "sera": 15679,
  "crown": 4585,
  "##ilib": 8401,
  "##ode": 2923,
  "Doct": 19978,
  "\u2159": 347,
  "bourgeons": 21098,
  "##nesse": 19257,
  "illustr": 3123,
  "Gust": 23337,
  "Declaration": 13661,
  "threshold": 17478,
  "appearance": 2544,
  "accidents": 19052,
  "myster": 7588,
  "quatre": 9012,
  "stage": 6869,
  "Stom": 26775,
  "nights": 11806,
  "Mail": 24384,
  "276": 12995,
  "medicine": 10718,
  "##ICATION": 27999,
  "uncons": 14395,
  "history": 2734,
  "##po": 6165,
  "decorated": 14980,
  "##ropri": 22105,
  "Lip": 29326,
  "except": 2415,
  "##hen": 1203,
  "hiding": 25429,
  "##alys": 3771,
  "barg": 14359,
  "leaders": 18663,
  "beams": 12113,
  "Oratio": 10715,
  "Utrecht": 24214,
  "43": 1959,
  "sanct": 9405,
  "Bengal": 18402,
  "recent": 5372,
  "##llo": 22099,
  "Phy": 17626,
  "Planet": 27463,
  "oss": 17522,
  "Stay": 28138,
  "Sext": 26459,
  "buildings": 6933,
  "covered": 3464,
  "fent": 12252,
  "wd": 20079,
  "1730": 14788,
  "Ged": 24125,
  "acced": 15560,
  "Kn": 3500,
  "crass": 8724,
  "z": 133,
  "formees": 24843,
  "Societatis": 26896,
  "297": 12961,
  "##ynge": 25028,
  "437": 19798,
  "eBook": 10808,
  "discovery": 4968,
  "186": 4186,
  "hi": 5116,
  "##rices": 15322,
  "Regulations": 29121,
  "painfully": 27151,
  "##atherine": 6641,
  "Soda": 26448,
  "affin": 18005,
  "##add": 4587,
  "posed": 9383,
  "Mau": 15296,
  "fra": 7265,
  "Consequently": 25498,
  "manufacturers": 21094,
  "##PP": 6269,
  "each": 1273,
  "brains": 22263,
  "fond": 4997,
  "CL": 5808,
  "446": 20405,
  "##icas": 16662,
  "##wall": 7952,
  "##oonah": 22786,
  "style": 4916,
  "##ylind": 4349,
  "mutual": 8940,
  "\u01b7": 176,
  "peak": 28522,
  "condensed": 15037,
  "persuaded": 11508,
  "Ss": 12890,
  "##idge": 2093,
  "dentibus": 21026,
  "Glass": 12387,
  "supersed": 25524,
  "Eurip": 26706,
  "##ogames": 25162,
  "objected": 18695,
  "salmon": 15174,
  "marble": 8384,
  "Church": 2336,
  "presumption": 24491,
  "##\u0627\u0646\u06d2": 29950,
  "##iid": 17130,
  "mineralog": 22703,
  "recompense": 28455,
  "Son": 6504,
  "##unc": 4644,
  "royalty": 25857,
  "87": 3439,
  "ocean": 9182,
  "extens": 18917,
  "fitt": 25908,
  "cured": 13586,
  "##uate": 29852,
  "Need": 10135,
  "##ogues": 17675,
  "Iris": 23186,
  "##xa": 24980,
  "possession": 4246,
  "ferent": 14950,
  "##AND": 2820,
  "weakened": 28352,
  "##born": 12100,
  "y": 132,
  "complaints": 15099,
  "dreamed": 28629,
  "##olic": 5809,
  "Fear": 22175,
  "reappe": 23585,
  "sigh": 10047,
  "correspondence": 9809,
  "dy": 9607,
  "focus": 10381,
  "labours": 7493,
  "lact": 29510,
  "successor": 11975,
  "rust": 9345,
  "imbricatis": 28547,
  "MEMBERS": 20053,
  "iM": 11009,
  "adds": 8878,
  "munic": 14330,
  "pattern": 12534,
  "Cholmondeley": 28265,
  "##uff": 3896,
  "sii": 21711,
  "schist": 27820,
  "INDIAN": 26854,
  "injuries": 21944,
  "tables": 4836,
  "rated": 16678,
  "mea": 14391,
  "##alf": 1347,
  "morning": 2266,
  "##atin": 29437,
  "links": 20281,
  "diminution": 10177,
  "had": 758,
  "maj": 3984,
  "ill": 1521,
  "ticket": 25110,
  "##ison": 1810,
  "Arm": 4497,
  "appalling": 19348,
  "dece": 4445,
  "##natural": 14204,
  "##hope": 18299,
  "draper": 25512,
  "tempera": 23260,
  "yf": 26770,
  "ghastly": 17303,
  "Rogers": 22607,
  "Argument": 24756,
  "eruption": 18274,
  "difi": 29987,
  "Farmer": 21648,
  "LXXX": 23026,
  "Lexicon": 17938,
  "stained": 19661,
  "Visitors": 19208,
  "Dame": 15707,
  "poison": 7523,
  "1588": 10638,
  "229": 11967,
  "expenses": 10696,
  "ungu": 19050,
  "desperate": 10403,
  "originals": 26089,
  "nom": 2551,
  "##iven": 14261,
  "bleed": 29647,
  "##opht": 29215,
  "Geology": 13359,
  "667": 27777,
  "people": 1736,
  "XIV": 9397,
  "##centibus": 26505,
  "##atis": 1331,
  "feuille": 7809,
  "##ossal": 28472,
  "burnt": 8406,
  "##lex": 2497,
  "##agne": 7420,
  "equilib": 9658,
  "##served": 28817,
  "ver": 1980,
  "horror": 8660,
  "Cases": 15402,
  "FIT": 25830,
  "useless": 10048,
  "dreams": 14325,
  "distrust": 26499,
  "wed": 10339,
  "supe": 26617,
  "eleg": 4296,
  "knew": 2840,
  "reproduced": 24053,
  "withdraw": 17178,
  "confidently": 24613,
  "arbit": 10049,
  "soude": 23322,
  "Watson": 13859,
  "Sold": 6430,
  "4": 63,
  "Eve": 10410,
  "Cous": 22468,
  "Denison": 25148,
  "##anna": 22015,
  "totius": 25449,
  "authorized": 29278,
  "Various": 16325,
  "Clifford": 18431,
  "Satur": 8235,
  "Norf": 7787,
  "##idit": 14805,
  "near": 1167,
  "Ask": 24871,
  "##mith": 7479,
  "moving": 6609,
  "Prison": 19736,
  "dominions": 20056,
  "##cript": 1317,
  "Marlow": 27874,
  "adventures": 17320,
  "detained": 18606,
  "##unal": 18372,
  "acres": 9236,
  "sull": 17608,
  "divi": 26743,
  "histor": 3596,
  "picturesque": 16672,
  "##ANK": 17832,
  "Eev": 12450,
  "##orts": 4645,
  "handwriting": 23618,
  "getting": 7201,
  "##ubb": 9184,
  "Being": 9562,
  "Bruns": 20592,
  "Swan": 11882,
  "##jah": 29624,
  "##otty": 8795,
  "##ICA": 20261,
  "heathen": 20338,
  "determin": 28244,
  "domestics": 21003,
  "Monsieur": 12331,
  "Faith": 13969,
  "VV": 19926,
  "legitimate": 19504,
  "574": 27819,
  "##KER": 17054,
  "forgiven": 29295,
  "Line": 12900,
  "Swiss": 29595,
  "Franciscus": 23292,
  "wil": 17570,
  "tl": 4550,
  "ineffable": 22791,
  "boiler": 20194,
  "Nile": 15808,
  "dined": 9119,
  "##cote": 22250,
  "Oly": 23735,
  "disturbed": 10552,
  "Beaumont": 19626,
  "Bren": 27424,
  "Spe": 3220,
  "bur": 2332,
  "Exc": 9417,
  "orifices": 18768,
  "##ruc": 14792,
  "pistol": 17501,
  "WHITE": 27235,
  "Soc": 7671,
  "maintaining": 16031,
  "##atient": 16816,
  "Kingdome": 24290,
  "device": 20047,
  "populous": 28923,
  "Candid": 22238,
  "taking": 2963,
  "impart": 8927,
  "seas": 11489,
  "##py": 18231,
  "Edgar": 22203,
  "servir": 14948,
  "Peggotty": 10212,
  "##6": 420,
  "wretch": 13600,
  "off": 1131,
  "Fh": 25736,
  "comets": 25126,
  "Traite": 12922,
  "attrib": 5286,
  "Crawford": 14103,
  "##stock": 21958,
  "##\u06f4": 566,
  "scruples": 28502,
  "pollen": 16438,
  "cases": 2872,
  "superieur": 23813,
  "Faust": 11717,
  "##AGH": 28831,
  "parson": 15999,
  "aur": 6488,
  "Weather": 16463,
  "##\u200f": 490,
  "baptism": 28023,
  "##nded": 25219,
  "ordinaire": 12518,
  "quot": 11330,
  "serratis": 26290,
  "##uh": 18725,
  "errone": 11457,
  "Missionary": 20871,
  "great": 925,
  "sk": 2237,
  "recesses": 23158,
  "conspir": 11154,
  ".": 57,
  "RESEARCHES": 16288,
  "Ford": 17308,
  "##ect": 762,
  "fronde": 24949,
  "richly": 15943,
  "More": 5625,
  "##eping": 9924,
  "##aus": 17338,
  "174": 2915,
  "passion": 5495,
  "##ufact": 4242,
  "1768": 12262,
  "Lectures": 12395,
  "Edw": 6555,
  "firom": 15746,
  "Sar": 8947,
  "Harriet": 12928,
  "##aia": 29265,
  "truly": 6341,
  "##irc": 1196,
  "##athing": 23649,
  "captive": 22894,
  "touches": 22573,
  "remark": 1843,
  "##lv": 7835,
  "Abr": 24650,
  "homes": 21576,
  "ek": 19082,
  "Band": 17253,
  "compl": 3712,
  "often": 2299,
  "shop": 6595,
  "##KES": 24587,
  "Seym": 25986,
  "##agle": 15219,
  "bert": 24104,
  "Staunton": 21446,
  "rubbish": 25243,
  "awoke": 17134,
  "##qualia": 26546,
  "potatoes": 21128,
  "equivalent": 7951,
  "gran": 4924,
  "Cel": 11268,
  "sill": 21084,
  "##stairs": 14466,
  "Geoffrey": 18244,
  "contin": 1426,
  "##\u064a": 424,
  "Finding": 29186,
  "mat": 3144,
  "hen": 13714,
  "vomiting": 29958,
  "arcs": 14737,
  "##alo": 16786,
  "Albert": 9671,
  "progression": 19799,
  "##oker": 13866,
  "irres": 14235,
  "melancholy": 7879,
  "push": 23053,
  "parench": 15241,
  "prejud": 8772,
  "##78": 18040,
  "citiz": 6726,
  "##itchen": 9170,
  "##fervations": 28681,
  "Vesuv": 20649,
  "impassioned": 25688,
  "spont": 12693,
  "##utions": 3310,
  "attract": 6092,
  "##ight": 751,
  "quivering": 27138,
  "cujus": 10585,
  "refres": 17988,
  "Cormac": 24857,
  "continens": 28475,
  "##uries": 6049,
  "strongly": 6119,
  "##ularis": 26827,
  "contemporaries": 28161,
  "deserves": 13677,
  "mysterious": 9840,
  "##lied": 1710,
  "sco": 22092,
  "hospital": 6730,
  "Gaelic": 29549,
  "XXXVII": 29648,
  "attributes": 19997,
  "geometrical": 13497,
  "monks": 11739,
  "discours": 17508,
  "##aman": 15582,
  "lt": 14120,
  "##ulla": 11662,
  "##imb": 25781,
  "mo": 1366,
  "Greek": 5176,
  "national": 7470,
  "divid": 29406,
  "Bonif": 21145,
  "##ons": 983,
  "commonly": 5903,
  "##asses": 8973,
  "##kt": 12048,
  "##chlor": 18424,
  "pyram": 11084,
  "pestil": 20002,
  "fec": 7682,
  "427": 19089,
  "##row": 1864,
  "##idian": 15552,
  "advise": 14718,
  "##43": 16836,
  "##bot": 5933,
  "Villa": 18947,
  "paste": 20805,
  "wife": 2265,
  "##ippi": 27919,
  "al": 765,
  "forcing": 20724,
  "tyme": 22052,
  "most": 1064,
  "##quate": 12321,
  "creature": 5891,
  "cub": 5740,
  "struction": 23215,
  "loth": 29678,
  "availed": 22989,
  "sitting": 6257,
  "Wed": 7521,
  "##uration": 12926,
  "scound": 23974,
  "Select": 18282,
  "ultra": 18181,
  "camp": 7372,
  "symbols": 22004,
  "nombre": 4778,
  "Born": 26724,
  "##atch": 2573,
  "cask": 24695,
  "##enting": 19193,
  "##tered": 3885,
  "Anderson": 15770,
  "loft": 19174,
  "Dn": 27208,
  "ampl": 16269,
  "quired": 21839,
  "allude": 14749,
  "phosph": 5651,
  "##ERN": 9771,
  "##inc": 2106,
  "imperfection": 27753,
  "Fragment": 16933,
  "moindre": 26307,
  "fitting": 14476,
  "##itates": 12605,
  "author": 1505,
  "dis": 873,
  "Reasons": 24523,
  "<|startoftext|>": 1,
  "Virgin": 7223,
  "univers": 4481,
  "sacrament": 29058,
  "\u00a3t": 27247,
  "simplex": 26476,
  "generally": 2756,
  "saill": 23402,
  "She": 1546,
  "representing": 10284,
  "replied": 2977,
  "146": 7615,
  "##inous": 8086,
  "cultivate": 28016,
  "yelk": 19339,
  "Nerves": 23175,
  "har": 4920,
  "224": 10739,
  "##idence": 1964,
  "allusion": 15591,
  "silken": 27146,
  "##ifolium": 22418,
  "likely": 4329,
  "##ested": 2798,
  "agitation": 10757,
  "##ANSACTIONS": 26035,
  "##lay": 12363,
  "lasted": 14033,
  "cruelly": 22181,
  "Supp": 5677,
  "stamina": 27415,
  "##Hs": 29684,
  "sage": 19403,
  "glad": 4493,
  "session": 16071,
  "tfa": 29903,
  "mob": 14321,
  "gossip": 29035,
  "##ribus": 21373,
  "protuber": 23626,
  "##\u0698": 545,
  "sc": 1104,
  "241": 11879,
  "incrass": 24172,
  "stronger": 9006,
  "Chel": 10961,
  "esteemed": 12053,
  "lia": 9158,
  "infants": 28293,
  "diver": 8008,
  "##olas": 4295,
  "fins": 22965,
  "21": 1284,
  "timid": 16022,
  "woo": 25280,
  "ject": 9588,
  "Lit": 12282,
  "cee": 27772,
  "closing": 13538,
  "structure": 3322,
  "smoke": 8956,
  "knots": 29807,
  "annuities": 27270,
  "festival": 25571,
  "may": 927,
  "illustrations": 11866,
  "ans": 1875,
  "fend": 18469,
  "licentious": 29126,
  "Hav": 18793,
  "\u06cc\u06c1": 21777,
  "err": 17731,
  "##orrow": 26190,
  "##MEN": 22968,
  "278": 12689,
  "Rot": 11965,
  "loyal": 13594,
  "Reeves": 24417,
  "##\u0688": 510,
  "crying": 14140,
  "trying": 10566,
  "merchand": 24668,
  "fuper": 29473,
  "##URCH": 17099,
  "artificially": 29533,
  "MDCCC": 8132,
  "595": 25850,
  "Angela": 29715,
  "Montag": 9557,
  "##ivis": 19861,
  "rf": 9196,
  "ARCH": 18874,
  "illa": 24399,
  "##ISS": 11725,
  "negl": 18625,
  "##otype": 26051,
  "Farewell": 21949,
  "##\u00b2": 600,
  "##lecting": 25519,
  "##ffin": 29401,
  "Bourbon": 27411,
  "anastom": 23311,
  "ende": 3258,
  "##allo": 23490,
  "communicate": 9929,
  "fors": 14077,
  "##mble": 18993,
  "viii": 6035,
  "01": 3169,
  "describing": 11754,
  "mul": 10560,
  "Armstrong": 24470,
  "##bels": 26491,
  "changed": 5048,
  "mount": 3148,
  "upp": 13376,
  "##aud": 13036,
  "older": 8754,
  "issued": 6818,
  "##abs": 29342,
  "buying": 24174,
  "distinctness": 25200,
  "Jackson": 10358,
  "HEN": 15067,
  "baskets": 26588,
  "cd": 11695,
  "ita": 14389,
  "tracts": 11873,
  "Fem": 15603,
  "vra": 12674,
  "begged": 13814,
  "##etta": 10317,
  "surr": 4307,
  "##\u03bd": 504,
  "onely": 20556,
  "##ancial": 22499,
  "resultant": 26082,
  "Oliver": 9307,
  "Instit": 13563,
  "##i\u00e6": 12081,
  "Ru": 7422,
  "mile": 6447,
  "Besides": 6450,
  "alio": 24799,
  "Bret": 18246,
  "RE": 3394,
  "##inder": 12654,
  "peculiar": 3119,
  "##orters": 21302,
  "sanoi": 27698,
  "carbonic": 6920,
  "adject": 24867,
  "1b": 29846,
  "Rox": 18375,
  "cousin": 8465,
  "traite": 20742,
  "etro": 24740,
  "lU": 14157,
  "easter": 19231,
  "duchess": 17728,
  "ks": 25932,
  "##erta": 25256,
  "##cent": 2612,
  "Death": 6628,
  "CHAP": 4218,
  "ID": 21060,
  "##chal": 17186,
  "Hawks": 19576,
  "triumphant": 23506,
  "##ict": 1314,
  "doc": 5672,
  "requir": 6375,
  "##eur": 5150,
  "embarrassed": 26009,
  "clav": 17124,
  "decre": 6697,
  "##ship": 2980,
  "stepping": 29870,
  "##quam": 11630,
  "560": 21236,
  "tint": 12766,
  "Proprietor": 29031,
  "Davies": 13504,
  "##ith": 679,
  "Mountain": 19299,
  "91": 4023,
  "Ere": 11414,
  "triangle": 16405,
  "Lal": 25926,
  "furious": 20828,
  "brightness": 15100,
  "steeple": 24438,
  "inwardly": 28315,
  "##FUL": 24900,
  "tutor": 22376,
  "##iffe": 9685,
  "##ospel": 7985,
  "##isement": 14831,
  "##vov": 26199,
  "##iments": 3348,
  "office": 2701,
  "contraction": 10864,
  "Mamma": 29388,
  "Glaucus": 21947,
  "compet": 8748,
  "chorion": 26057,
  "glen": 29006,
  "Cloud": 4145,
  "Ruff": 29559,
  "mental": 9946,
  "barrel": 15774,
  "vf": 29092,
  "domin": 9997,
  "quill": 28759,
  "Remar": 29123,
  "glance": 6944,
  "Manual": 21666,
  "MON": 8506,
  "gate": 5475,
  "flying": 14800,
  "aver": 6169,
  "fool": 6814,
  "##rouve": 26022,
  "##ivent": 18619,
  "Tableau": 28206,
  "satisfactorily": 18496,
  "permit": 8579,
  "##stead": 11836,
  "submit": 10654,
  "tissues": 22641,
  "##pin": 11923,
  "kin": 22278,
  "hyg": 17820,
  "main": 4640,
  "exercise": 7235,
  "##going": 7859,
  "amount": 2837,
  "##bts": 10502,
  "gos": 23834,
  "awa": 18821,
  "##mense": 6475,
  "glut": 28822,
  "flore": 20119,
  "##plic": 4516,
  "161": 3355,
  "1796": 10576,
  "volu": 16974,
  "tegument": 27239,
  "suspic": 5487,
  "bim": 27518,
  "eventually": 18228,
  "continuance": 12644,
  "Trin": 18472,
  "hurriedly": 26940,
  "##TI": 1256,
  "pretence": 16700,
  "impatient": 17201,
  "400": 6969,
  "##ruit": 15957,
  "penis": 25710,
  "elliptic": 18500,
  "dreaded": 20280,
  "1777": 12247,
  "##els": 2630,
  "Dund": 11796,
  "Fly": 21930,
  "Australian": 27282,
  "##fo": 6581,
  "##ette": 2211,
  "moderate": 9388,
  "##RET": 28185,
  "fosse": 24898,
  "whitish": 19110,
  "chronometer": 18519,
  "ones": 4668,
  "usefulness": 25889,
  "Watch": 24976,
  "neighbouring": 9042,
  "tliere": 29167,
  "Viscount": 9740,
  "##ho": 6531,
  "publish": 16486,
  "##lium": 14217,
  "lig": 8305,
  "##anum": 14521,
  "pret": 3081,
  "transferred": 14014,
  "above": 1462,
  "gor": 27558,
  "Walker": 11671,
  "penetrated": 16863,
  "1780": 10108,
  "stiff": 13491,
  "##acters": 5105,
  "greatly": 4742,
  "##lig": 13910,
  "obser": 5152,
  "##atters": 28386,
  "##urrection": 10328,
  "##YN": 6881,
  "stripped": 25067,
  "Min": 3089,
  "\u0430": 222,
  "perils": 29345,
  "Volumes": 12411,
  "suspected": 9553,
  "##win": 8909,
  "##faction": 21805,
  "agony": 13161,
  "atoms": 12470,
  "disappointment": 15188,
  "orbicular": 25388,
  "##DEX": 9791,
  "attentively": 20601,
  "folly": 11451,
  "##AMP": 13447,
  "Gur": 18270,
  "cinqu": 29602,
  "##unda": 16245,
  "dign": 5717,
  "stable": 15886,
  "Price": 6053,
  "sepalis": 23415,
  "##anse": 27130,
  "attained": 10387,
  "talent": 13683,
  "##51": 24937,
  "elbow": 21696,
  "Calder": 29588,
  "precession": 29515,
  "hae": 18405,
  "verbis": 22660,
  "screw": 8516,
  "Rule": 19341,
  "butter": 12713,
  "##onymous": 6656,
  "degre": 19752,
  "Mig": 19356,
  "witness": 4288,
  "##\u00df": 546,
  "vu": 9192,
  "Eri": 29729,
  "triple": 11308,
  "Some": 3055,
  "##ioo": 22919,
  "Alan": 22286,
  "##itious": 9204,
  "situation": 4037,
  "Sect": 10927,
  "pecc": 29273,
  "obsc": 5204,
  "##man": 1214,
  "##edge": 8094,
  "elegant": 5908,
  "Bauer": 24725,
  "Milligan": 23331,
  "\u0646\u0627": 27943,
  "##13": 12292,
  "##airs": 2751,
  "Ral": 8172,
  "recip": 10340,
  "blended": 22549,
  "bushel": 27818,
  "Theresa": 22425,
  "expenditure": 15194,
  "##AIS": 15571,
  "suivantes": 28929,
  "##istical": 17157,
  "keen": 11500,
  "content": 7048,
  "extrav": 12235,
  "Tooke": 10379,
  "Wl": 28034,
  "Clair": 24182,
  "speed": 6043,
  "quote": 19492,
  "##rible": 4776,
  "012": 24144,
  "physicians": 18177,
  "compromise": 26988,
  "Gray": 9769,
  "xviii": 8418,
  "perpetual": 12848,
  "injected": 19990,
  "##\u00ba": 518,
  "brief": 5284,
  "descriptive": 17209,
  "Tasman": 16824,
  "Calendar": 14336,
  "effecting": 21155,
  "bedroom": 25412,
  "sensibility": 13903,
  "everybody": 13805,
  "represented": 4449,
  "Grove": 15727,
  "##thor": 12551,
  "march": 10021,
  "Antwer": 19328,
  "confirming": 28014,
  "footmen": 29936,
  "##orph": 11023,
  "unanim": 14310,
  "fervent": 28068,
  "##ocus": 9527,
  "##\u2074": 614,
  "##pro": 25470,
  "dated": 5772,
  "Australia": 17615,
  "commiss": 25403,
  "port": 1490,
  "Sph\u00e6": 23787,
  "Rochester": 14899,
  "Loudon": 28892,
  "watery": 22762,
  "##izes": 8124,
  "Cherry": 27837,
  "##umer": 7262,
  "cultivated": 11921,
  "pursued": 7691,
  "##gery": 14929,
  "medull": 16774,
  "intrigue": 28649,
  "##requ": 19904,
  "603": 28003,
  "##ue": 874,
  "##adi": 16432,
  "##ruct": 1862,
  "Ne": 1226,
  "Mayo": 14753,
  "##arice": 24132,
  "millimetres": 26559,
  "##ovan": 11115,
  "specimen": 5214,
  "winged": 28445,
  "mouth": 3860,
  "##itud": 2901,
  "Barnard": 27315,
  "directed": 5005,
  "ANCIENT": 22088,
  "missing": 19146,
  "Trent": 23710,
  "Jj": 22713,
  "magis": 18544,
  "rif": 28134,
  "hats": 26764,
  "apparel": 17044,
  "kings": 9490,
  "praes": 17372,
  "\u03b6": 202,
  "rocky": 18953,
  "ome": 26108,
  "Bod": 5863,
  "Les": 3273,
  "BOO": 8880,
  "Od": 7945,
  "myself": 2307,
  "Cri": 22067,
  "list": 3062,
  "mit": 8817,
  "Longitude": 15233,
  "god": 5704,
  "##tti": 28149,
  "Za": 23271,
  "##uke": 24458,
  "slopes": 26381,
  "Luther": 22584,
  "##RAN": 2609,
  "Ordnance": 10507,
  "##isation": 7295,
  "JAN": 25620,
  "perpetually": 24373,
  "instru": 17383,
  "##band": 3354,
  "trusting": 28102,
  "133": 7145,
  "tou": 2367,
  "##iparous": 27754,
  "physic": 21237,
  "Harbour": 19498,
  "Ped": 7386,
  "broker": 27495,
  "mieux": 19114,
  "Two": 3488,
  "meek": 19030,
  "correcting": 21458,
  "photograph": 15683,
  "##atra": 16278,
  "Itiner": 24075,
  "Lake": 9113,
  "BB": 29896,
  "alg": 26113,
  "beseech": 19282,
  "seconded": 21260,
  "polish": 22128,
  "Mot": 19876,
  "monuments": 9686,
  "##cial": 2742,
  "depend": 3045,
  "010": 17793,
  "##82": 20902,
  "Chol": 17523,
  "##ignons": 22146,
  "rally": 18230,
  "ejaculated": 8207,
  "aliquot": 23478,
  "ovary": 24567,
  "##ocracy": 16049,
  "origin": 2916,
  "##bant": 22071,
  "##fec": 28661,
  "Physicians": 17162,
  "##yard": 9732,
  "confid": 16553,
  "Parson": 25424,
  "based": 14939,
  "\u017f": 175,
  "Defence": 19654,
  "throne": 9308,
  "book": 1889,
  "bought": 8369,
  "##owned": 11408,
  "Kilkenny": 5238,
  "ras": 24024,
  "339": 12052,
  "jealous": 9280,
  "351": 14809,
  "apprent": 11313,
  "Vy": 27718,
  "spe": 1045,
  "available": 12311,
  "diamagnetic": 29410,
  "reptiles": 25184,
  "educated": 13368,
  "unity": 15122,
  "##cn": 4791,
  "advances": 18286,
  "corpor": 6854,
  "##xt": 1591,
  "Mil": 4247,
  "reb": 4378,
  "Tralee": 25407,
  "##\u0644": 471,
  "##Uo": 20162,
  "IJ": 14660,
  "vis": 1595,
  "Eight": 9724,
  "0": 59,
  "plunged": 13896,
  "##iees": 10362,
  "pes": 18992,
  "Franciscan": 17362,
  "iU": 17913,
  "differens": 21915,
  "advant": 3325,
  "prescribed": 20823,
  "But": 1073,
  "##opus": 29805,
  "monarch": 8963,
  "Estates": 25381,
  "converts": 28401,
  "##edom": 6236,
  "Saf": 28549,
  "planting": 21769,
  "nutation": 28802,
  "heirs": 10658,
  "aura": 22682,
  "nineteenth": 24967,
  "feels": 17264,
  "Dors": 17307,
  "##ians": 3153,
  "devient": 19056,
  "dilute": 12707,
  "NOTE": 27967,
  "##helion": 19937,
  "Parad": 15029,
  "##di": 8803,
  "lO": 8723,
  "vt": 19955,
  "##alt": 1953,
  "teach": 9452,
  "Beech": 25943,
  "Colours": 13845,
  "##enith": 8400,
  "scarlet": 16212,
  "feverish": 24639,
  "surround": 19317,
  "SAINT": 29329,
  "502": 25291,
  "Batav": 20796,
  "Blo": 15534,
  "arise": 6230,
  "combustible": 27880,
  "##ATES": 15058,
  "altern": 4982,
  "footsteps": 17286,
  "Castell": 22844,
  "Red": 4127,
  "disse": 7796,
  "##ID": 4367,
  "##bury": 2716,
  "iss": 3706,
  "impress": 6459,
  "clay": 5675,
  "Solic": 11427,
  "Ble": 24858,
  "ardu": 26527,
  "Proportion": 27471,
  "netic": 25315,
  "leaves": 3365,
  "almost": 1988,
  "employments": 25441,
  "Brux": 13124,
  "elect": 1848,
  "Close": 20238,
  "distinguer": 23100,
  "##orted": 7006,
  "prompt": 10222,
  "princip": 1709,
  "##\u06be\u06cc": 13438,
  "ecl": 25087,
  "transparency": 23854,
  "ballib": 11401,
  "income": 13239,
  "he": 689,
  "Member": 5998,
  "Ches": 15867,
  "Few": 19464,
  "identified": 17561,
  "Hampstead": 29073,
  "manufact": 4996,
  "intersection": 20973,
  "\ufdfa": 386,
  "crowds": 25685,
  "##out": 836,
  "restless": 14998,
  "##mac": 10892,
  "charms": 11995,
  "sculpt": 9902,
  "hyster": 27182,
  "glab": 4767,
  "Than": 18427,
  "##reous": 18915,
  "loveliness": 24101,
  "Consul": 26936,
  "earnestness": 22513,
  "che": 1547,
  "dispersed": 14655,
  "leaning": 14186,
  "Marine": 22725,
  "trumpet": 23173,
  "indistinct": 19701,
  "anguish": 12643,
  "developed": 8266,
  "\u00a36": 24457,
  "inn": 3724,
  "##jp": 24425,
  "##eds": 3610,
  "##ice": 877,
  "behalf": 7314,
  "##\u2080": 596,
  "##are": 961,
  "##itur": 5039,
  "##\u25ba": 558,
  "##roy": 3056,
  "cyan": 24047,
  "strange": 3783,
  "##gene": 11702,
  "Oct": 2719,
  "portraits": 14900,
  "##othes": 4373,
  "subterranean": 23073,
  "mihi": 18795,
  "Portugal": 8966,
  "contracted": 11358,
  "mars": 10952,
  "##ourt": 8791,
  "gloomy": 12249,
  "Ham": 4403,
  "REV": 11360,
  "Manner": 25709,
  "bf": 16958,
  "##INSTER": 27601,
  "seated": 6788,
  "purg": 28238,
  "##AK": 10924,
  "Pick": 6945,
  "fecondation": 25824,
  "rhomboid": 23511,
  "sterling": 19148,
  "##ger": 1955,
  "Petri": 15994,
  "##ube": 20689,
  "\u00a3100": 24849,
  "sens": 2536,
  "named": 4487,
  "found": 1049,
  "subdued": 14328,
  "##agn": 1359,
  "Hope": 9429,
  "Tong": 24974,
  "Stevenson": 22274,
  "##ermo": 28048,
  "\u00c6": 162,
  "\u2151": 342,
  "estates": 9738,
  "print": 6843,
  "nary": 25933,
  "ANN": 18646,
  "epidem": 22233,
  "apparent": 4664,
  "minor": 8470,
  "repetition": 16178,
  "livery": 20025,
  "wholesome": 20204,
  "f": 113,
  "offered": 5315,
  "##rn": 10149,
  "challenge": 24099,
  "lateraux": 28298,
  "Molyneux": 20349,
  "course": 1948,
  "##ord": 778,
  "Lex": 14300,
  "1781": 11263,
  "NATUR": 20947,
  "##ended": 7456,
  "Pract": 8812,
  "ruff": 13953,
  "sweat": 28921,
  "Revue": 28528,
  "Th": 827,
  "Little": 8689,
  "##omen": 1996,
  "illustrate": 12195,
  "defective": 15589,
  "incess": 17763,
  "memorial": 15959,
  "slabs": 15857,
  "Tipper": 16326,
  "##umberland": 8614,
  "Grain": 29120,
  "nation": 4837,
  "Aske": 23810,
  "anniversary": 24769,
  "##igu": 16138,
  "ju": 5665,
  "KIL": 23762,
  "##ilite": 19070,
  "stance": 10664,
  "Cris": 22795,
  "Chirurg": 16680,
  "context": 27484,
  "##cule": 13665,
  "##liaments": 24073,
  "##arine": 18553,
  "##amorph": 16959,
  "excuse": 9305,
  "concave": 11699,
  "536": 27451,
  "irre": 13869,
  "reflexion": 13830,
  "##ty": 1146,
  "##WE": 28998,
  "one": 825,
  "Ministers": 17073,
  "Author": 4271,
  "Pierce": 19485,
  "1600": 11331,
  "respectively": 9180,
  "comed": 24136,
  "Teeth": 21515,
  "##orate": 9949,
  "sein": 29508,
  "##p": 403,
  "##atern": 11766,
  "Sk": 4772,
  "1802": 8347,
  "Sor": 14188,
  "pollices": 26091,
  "Poes": 18922,
  "medicinal": 23229,
  "1718": 17628,
  "eloquent": 21187,
  "insufficient": 23297,
  "acceptable": 22893,
  "Pari": 23249,
  "Goldsmith": 17544,
  "equi": 27873,
  "creating": 20438,
  "cont": 882,
  "scribed": 17897,
  "Accordingly": 15895,
  "suffi": 24767,
  "Effect": 12821,
  "decisive": 15881,
  "1735": 16064,
  "AX": 25690,
  "modification": 15815,
  "appetite": 15653,
  "Leland": 28861,
  "##enza": 20287,
  "16th": 11225,
  "Begin": 18441,
  "prophe": 17678,
  "324": 14242,
  "407": 16582,
  "inorgan": 29857,
  "##ogs": 10329,
  "majestic": 26428,
  "angular": 11731,
  "##gu": 5287,
  "Alps": 20167,
  "expence": 17625,
  "pern": 24742,
  "awakened": 16742,
  "coel": 29986,
  "Gilbert": 7853,
  "malle": 24762,
  "Angleterre": 24827,
  "legs": 4852,
  "splend": 5375,
  "428": 18952,
  "Britannia": 21489,
  "lorsque": 17738,
  "Murder": 24996,
  "bishop": 5724,
  "grie": 8253,
  "##NT": 13919,
  "##ateur": 16267,
  "depart": 3604,
  "ent": 1325,
  "NE": 4498,
  "##master": 14583,
  "Folded": 26489,
  "##wh": 2811,
  "Caroli": 26382,
  "nearer": 6465,
  "153": 4872,
  "reduction": 10687,
  "difficulty": 4132,
  "I2": 22770,
  "MIN": 24894,
  "vulgar": 8271,
  "Nept": 29750,
  "countess": 14282,
  "destruct": 16403,
  "80": 2724,
  "viela": 29175,
  "Greenwich": 7173,
  "##AT": 1882,
  "coal": 5208,
  "pertinent": 23446,
  "Aur": 11764,
  "iE": 15581,
  "corre": 2711,
  "##ipt": 4095,
  "Wal": 3015,
  "aged": 7866,
  "thai": 11968,
  "relinqu": 20215,
  "powerful": 5543,
  "proper": 1730,
  "rightly": 15095,
  "shrewd": 23731,
  "chiefly": 4357,
  "##amon": 25699,
  "cement": 14111,
  "foliorum": 19517,
  "authent": 12485,
  "Coin": 23708,
  "transcript": 20707,
  "Mon": 2243,
  "bew": 9525,
  "feeding": 18799,
  "Athens": 18043,
  "##15": 9252,
  "rapporte": 25531,
  "##lemere": 23687,
  "approaching": 8664,
  "Application": 26318,
  "hurrying": 27284,
  "\u063a": 253,
  "Munster": 12622,
  "Op": 6399,
  "Christ": 1648,
  "Wright": 12930,
  "FRANCIS": 22675,
  "wretched": 7757,
  "Bridge": 6883,
  "divisions": 8161,
  "##ken": 2744,
  "##ashed": 9311,
  "##qu": 726,
  "##ability": 4251,
  "projection": 20512,
  "206": 11175,
  "##soever": 8548,
  "obtained": 2452,
  "##orh": 20445,
  "##ilful": 14552,
  "opposition": 9041,
  "##89": 20379,
  "satis": 16609,
  "##icu": 14864,
  "TE": 10475,
  "Card": 4829,
  "insignific": 23268,
  "Dionysius": 26399,
  "correspond": 3054,
  "danced": 23425,
  "##iger": 7887,
  "Gree": 3440,
  "Tig": 15434,
  "fever": 6313,
  "\u0292": 179,
  "doubled": 23185,
  "##icate": 16036,
  "Vicar": 14088,
  "Heat": 11332,
  "blessed": 10199,
  "Dam": 11537,
  "azimuth": 14129,
  "climates": 20135,
  "devout": 27496,
  "carry": 3555,
  "econ": 7664,
  "2\u00b0": 10008,
  "Muller": 28890,
  "1758": 13256,
  "enquiries": 27532,
  "ES": 9668,
  "Slane": 25812,
  "Montague": 8088,
  "inform": 2433,
  "tiger": 24164,
  "cairn": 16528,
  "Source": 28792,
  "Mag": 3476,
  "Quite": 21263,
  "##inds": 21347,
  "##les": 889,
  "disorder": 12131,
  "##idences": 18486,
  "sixteenth": 16029,
  "##ume": 1956,
  "numer": 8487,
  "bred": 12960,
  "com": 738,
  "tal": 5078,
  "##eth": 1138,
  "scor": 14957,
  "wi": 7111,
  "Marie": 18224,
  "##cj": 29976,
  "##str": 3199,
  "##liest": 6932,
  "Churchill": 21511,
  "Suddenly": 27646,
  "ETC": 17271,
  "##icients": 14530,
  "une": 1450,
  "ches": 21709,
  "##pels": 19906,
  "nervure": 27226,
  "Evidence": 24958,
  "##oke": 2291,
  "intelligence": 6356,
  "##\u00b9": 580,
  "##uralis": 24363,
  "inte": 4082,
  "across": 4604,
  "latus": 28416,
  "Carmina": 25211,
  "{": 134,
  "sections": 9880,
  "jt": 19579,
  "Rebellion": 21679,
  "##ura": 3264,
  "nebulous": 25040,
  "pressed": 6866,
  "Venetian": 25716,
  "Work": 8903,
  "distinctes": 26088,
  "1646": 18048,
  "1702": 17559,
  "##\u0621": 520,
  "##FACE": 22195,
  "\u2502": 357,
  "transaction": 17646,
  "##\u0649": 553,
  "df": 14624,
  "oder": 27761,
  "narrow": 4880,
  "enough": 2562,
  "##\u0635": 494,
  "1849": 9974,
  "emotions": 12045,
  "tional": 20295,
  "similarly": 14787,
  "##IA": 5710,
  "Hungary": 18843,
  "held": 2522,
  "indicated": 8699,
  "1827": 5200,
  "##inging": 12423,
  "gait": 27803,
  "OA": 29253,
  "##\u2083": 572,
  "log": 3845,
  "##\u2534": 598,
  "Aber": 12054,
  "retreated": 26717,
  "Canada": 14690,
  "##TED": 14536,
  "reflections": 11416,
  "AY": 20522,
  "detache": 28866,
  "buds": 25185,
  "##nees": 23491,
  "doll": 13117,
  "local": 5300,
  "argue": 24370,
  "Spenser": 26665,
  "##estis": 25368,
  "deep": 2342,
  "hostile": 18593,
  "tones": 17064,
  "figur": 24707,
  "Properties": 24157,
  "4to": 1853,
  "interpre": 29889,
  "##\u00a9": 491,
  "##noge": 28349,
  "##shine": 17851,
  "##enses": 5617,
  "oblige": 17751,
  "universe": 18092,
  "##atically": 14730,
  "##isher": 6052,
  "##ip": 973,
  "Ess": 4725,
  "dazz": 18847,
  "strings": 19595,
  "970": 29466,
  "xx": 5268,
  "perpetrated": 27233,
  "porous": 27823,
  "osse": 20321,
  "##gan": 2317,
  "##icee": 29574,
  "aren": 26114,
  "Lad": 19986,
  "##isque": 9197,
  "\u00a35": 14231,
  "##vens": 13675,
  "##GH": 7257,
  "distinguish": 8621,
  "utricules": 17108,
  "copying": 18732,
  "##ulty": 25553,
  "##\u03c1": 502,
  "##rees": 3320,
  "refused": 8319,
  "##ologique": 19548,
  "daylight": 23250,
  "Septem": 22413,
  "##afons": 22731,
  "Frid": 27876,
  "1661": 16174,
  "Halifax": 25679,
  "bruised": 28362,
  "inst": 1182,
  "cruelty": 16196,
  "ON": 3235,
  "29": 1166,
  "hav": 15121,
  "arist": 11087,
  "##rict": 2778,
  "rolls": 19542,
  "den": 2648,
  "get": 2638,
  "sic": 7696,
  "##asmuch": 11166,
  "##atical": 6315,
  "Search": 17552,
  "##ication": 6191,
  "worship": 8796,
  "unnot": 26696,
  "Dombey": 6681,
  "\u062c\u0648": 25542,
  "Acc": 2300,
  "##agles": 13203,
  "meas": 3156,
  "208": 10272,
  "permanently": 22185,
  "blame": 12966,
  "%": 48,
  "generality": 27223,
  "lists": 14817,
  "committed": 6614,
  "tick": 11045,
  "Kh": 23733,
  "intervention": 25037,
  "##plex": 11691,
  "Vit": 8093,
  "##asso": 29573,
  "edge": 4945,
  "vend": 18219,
  "##orous": 6717,
  "Howard": 10228,
  "Phot": 16357,
  "School": 5440,
  "troublesome": 18075,
  "galleries": 27103,
  "##16": 8285,
  "##bo": 3537,
  "appertain": 24629,
  "126": 7345,
  "promoting": 14225,
  "absurd": 10227,
  "bonds": 22558,
  "forged": 25402,
  "200": 5064,
  "you": 767,
  "gotten": 25053,
  "SSE": 27107,
  "Ti": 7275,
  "instructions": 10225,
  "wines": 21712,
  "retort": 16271,
  "consists": 5399,
  "##alls": 11581,
  "##es": 629,
  "Chor": 28465,
  "ges": 22856,
  "##estions": 5369,
  "quelquefois": 12527,
  "Say": 12663,
  "Coal": 14306,
  "License": 13955,
  "vapour": 7836,
  "Oz": 22555,
  "Opuscula": 25457,
  "##ifon": 21444,
  "##ingly": 3916,
  "Theory": 11800,
  "Continued": 13217,
  "\u25a0\u25a0\u25a0": 28638,
  "margins": 21055,
  "1729": 15751,
  "##ate": 736,
  "parallels": 25855,
  "##jusdem": 7666,
  "unfortunately": 13603,
  "ff": 4549,
  "excavations": 26219,
  "reward": 7840,
  "fetter": 26065,
  "##nox": 13329,
  "flax": 24405,
  "461": 25480,
  "##inction": 6431,
  "Duty": 28308,
  "Math": 19283,
  "Members": 5216,
  "want": 2301,
  "##ottenham": 26596,
  "Inclination": 19766,
  "##ILITY": 27448,
  "Knightley": 26215,
  "chloride": 9967,
  "fulness": 25604,
  "1622": 19233,
  "stealth": 23654,
  "expectation": 12164,
  "##aging": 12746,
  "eve": 12495,
  "347": 13408,
  "##friars": 19484,
  "##uri": 6941,
  "fil": 2833,
  "boards": 11518,
  "tra": 1415,
  "pecu": 28383,
  "avoid": 7274,
  "##Le": 22651,
  "##chen": 5036,
  "281": 12856,
  "predicted": 29891,
  "##ket": 10910,
  "##\u06f0": 528,
  "Priv": 10667,
  "enorm": 9227,
  "South": 2964,
  "indignant": 21289,
  "ami": 6598,
  "Dou": 7680,
  "def": 1777,
  "Contin": 9032,
  "\u062a": 237,
  "##itatum": 22304,
  "restored": 7326,
  "fleete": 23502,
  "affected": 4966,
  "phaen": 22478,
  "ceremonies": 22331,
  "360": 10590,
  "##ATIONS": 8145,
  "enchant": 17013,
  "manual": 28814,
  "OFF": 18172,
  "1845": 9509,
  "Printing": 22165,
  "823": 28301,
  "Nobody": 27136,
  "abridged": 24124,
  "respons": 9947,
  "545": 26838,
  "Insects": 27787,
  "prob": 1797,
  "demonstration": 13403,
  "burg": 14469,
  "##om": 649,
  "Ric": 8291,
  "##hist": 14047,
  "##common": 19940,
  "dignity": 8412,
  "journey": 5433,
  "combustion": 15246,
  "Jones": 5348,
  "comprehens": 14986,
  "patrons": 28247,
  "sentence": 9211,
  "REYNOLDS": 8926,
  "theorie": 15354,
  "became": 2625,
  "Black": 3944,
  "Heb": 9797,
  "nicely": 27638,
  "wither": 16716,
  "##atse": 23968,
  "pretended": 12409,
  "##3r": 28423,
  "annees": 22329,
  "testimon": 24266,
  "granting": 21453,
  "##Go": 15073,
  "peculiarities": 15853,
  "##key": 6771,
  "retire": 9101,
  "drift": 27687,
  "Laplace": 16096,
  "complexion": 14581,
  "1909": 26676,
  "Scoresby": 25259,
  "declared": 6056,
  "predecess": 14724,
  "naturelles": 23594,
  "Jerusalem": 14888,
  "Geo": 6813,
  "top": 3082,
  "succeed": 3526,
  "thus": 1581,
  "refreshing": 28790,
  "private": 4089,
  "escaping": 25203,
  "##\u06a9\u06c1": 25401,
  "visc": 11314,
  "explan": 4854,
  "Gough": 27797,
  "grave": 4783,
  "how": 1086,
  "clime": 29865,
  "Highland": 27964,
  "coat": 6271,
  "engross": 24809,
  "Strang": 22252,
  "Myrs": 26040,
  "lou": 11566,
  "Mansion": 29544,
  "viewed": 9368,
  "composed": 4115,
  "Laws": 7814,
  "##ata": 1484,
  "Ihe": 10488,
  "really": 3274,
  "shades": 18814,
  "##cti": 27000,
  "##\u25a1": 579,
  "sympath": 7559,
  "##bear": 14199,
  "evidently": 4864,
  "soldier": 10571,
  "##eee": 21531,
  "plaint": 12814,
  "Brace": 14925,
  "rising": 5411,
  "Rep": 5803,
  "##OUL": 25522,
  "race": 5482,
  "xii": 7613,
  "library": 7303,
[...]
